#version: 0.2
s t
e r
o n
a t
* *
) ;
d e
n t
Ġ *
Ċ ĉ
e t
Ġ i
Ġ =
- -
Ġ t
o r
Ġ (
l e
- >
a r
Ġ c
a l
Ġ 0
s e
c t
/ /
h e
a n
i t
0 0
n e
u r
e s
** **
Ġ r
e n
Ċ Ċ
Ġ s
ĉ ĉ
Ġ f
-- --
i c
Ġ {
i on
m e
Ġ p
r i
l o
Ġ b
n g
i f
i d
u t
r o
= =
Ġt he
a d
f i
e d
Ġ m
a c
: :
st r
Ġ "
u n
Ġ o
i nt
a s
l i
Ġ* /
p e
ur n
/ *
et urn
Ġ w
i s
ĊĊ Ġ
Ġ }
Ġ v
Ċĉ ĉ
a g
m p
u e
s i
Ġ d
e l
I N
Ġ S
**** ****
( )
e x
Ġ 1
Ġi f
Ġ n
Ġ &
at e
o l
E R
e nt
Ġ <
u ct
Ġ C
f f
---- ----
Ċĉ ĉĉ
o de
Ġ T
str uct
Ġi n
Ġ a
i ng
c k
Ġc on
a m
p t
o t
c h
an d
z e
u l
c on
č Ċ
R E
Ġ //
a b
ĊĊĠ Ġ
c l
de fi
a me
_ _
defi ne
Ġ A
at a
Ġi nt
ĊĊĠĠ Ġ
u s
" ,
Ġt o
o id
== ==
a p
Ġ P
y pe
st at
g et
i l
a se
Ġ -
de v
Ġ N
e ct
O N
en d
S T
L L
c e
u m
c o
i r
Ġr e
Ġ I
Ġr eturn
t r
E N
v e
Ġ h
3 2
) )
s et
Ġ G
Ġ u
O R
Ġt h
a y
D E
Ġo f
Ġ M
A T
o p
Ġ g
Ġ +
Ġ F
at ion
n d
Ġ= =
Ġi s
Ġf or
00 00
ab le
t h
er r
Ġ 2
Ġcon st
u b
Ġ st
lo ck
ex t
es s
r eturn
A R
( );
S t
S E
stat ic
i le
u p
v er
Ġ /*
ac k
e m
e e
( "
ag e
cl u
e g
b u
d r
o w
ri ng
******** ********
f o
Ġ D
// //
I T
Ġ L
i st
) ,
clu de
Ġ R
i g
I n
A L
v al
čĊ Ġ
i ze
U LL
a k
n clude
i nclude
ct ion
Ġ l
Ġ |
Ġc h
-------- --------
d ata
o m
L E
or t
al l
e ad
v oid
ul t
A N
Ġ B
de f
C T
el se
Ġ !
Ġ E
ne d
si ze
si g
e v
i m
) );
me nt
čĊĠ Ġ
M A
ar t
o s
u nt
as s
Ġv oid
f or
ĠN ULL
==== ====
p l
t ype
čĊĠĠ Ġ
o ut
Ġ and
p r
ic e
h t
b j
Ġb e
I D
o d
o f
er s
s c
Ġ O
o ol
ac e
i me
ar e
a i
( &
S S
Ġ W
n ame
p ri
Ġi t
ar am
p ut
p er
it h
e st
lo c
e f
Ġ de
sig ned
Ġ __
P E
" );
Ġ U
Ġ un
r es
Ġt r
con st
ar g
Ġ< <
Ġ %
i o
ĊĊĠĠĠ Ġ
Ġ _
t o
C H
T R
F F
r ead
ĊĊĠĠĠĠ Ġ
Ġ >
r it
e ak
e q
a st
li st
l ag
Ġ& &
M E
Ġ ne
n fo
e y
al ue
C on
1 6
f r
p ro
r eak
Ġ! =
le n
Ġ se
Ġch ar
ad dr
C E
6 4
de x
ai n
i nfo
Ġs ize
Ġ k
Ġ on
Ġ struct
an g
r y
m a
i nd
Ċĉ Ġ
Ġth is
A D
ur e
e c
Ġ else
Ġ )
Ġ( !
Ġ \
i p
S I
c p
L O
+ +
t er
Ġp ro
o int
li ne
ff er
0 1
Ġ V
Ċĉĉĉ ĉ
bj ect
U T
Ġ H
Ġ Q
R O
n it
F I
Ġ 3
Ġ e
G et
Ġ :
C O
ĊĊĠĠĠĠĠ Ġ
Ġ @
r eg
C K
ĊĊĠĠĠĠĠĠ Ġ
me m
ro m
p ort
T ype
P I
or e
Ġn ot
as k
m s
err or
end if
l l
//// ////
s s
on g
t y
Ġ or
} ,
Ġ 4
i al
Ġc o
1 1
U N
t ext
T I
L A
Ġc ase
s er
IN T
o st
r c
p i
o ur
un d
Ġr es
] ;
pt ion
0 2
Ġ Ċ
m d
fi le
Ġw ith
lag s
at h
bu f
e mp
o c
rit e
G E
at or
E X
Ġb y
an s
l y
čĊĠĠĠ Ġ
d er
ff set
dev ice
Ċĉĉĉ ĉĉ
] .
pt r
Ġ ex
St ring
Ġ an
Ġ );
Ġ al
a ct
m ap
ER R
l ic
q ue
čĊĠĠĠĠ Ġ
M P
ri b
x t
Ġ '
lo w
s h
u int
ur r
Ġ| |
D I
ĊĉĠ Ġ
g r
Ġ( (
he ck
Ġ y
**************** ****************
al se
T Y
b o
ad d
1 2
Ġth at
. .
a il
st ring
it y
ect or
Ġ x
fi g
Ġst d
U S
p aram
r r
c ode
a ve
e am
se d
E D
00 0
i ve
1 0
un ction
q u
li n
n ode
Ġs et
c ase
A B
i v
c r
} ;
ĊĉĠĠ Ġ
Ċ Ċĉ
ig ht
Ġf ile
pri nt
Ġ} ,
n um
čĊĠĠĠĠĠ Ġ
Ġs h
il l
m m
s y
Ġw e
čĊĠĠĠĠĠĠ Ġ
c ess
e w
r et
C ON
ar d
C o
Ġw h
IN G
Ġd o
for m
---------------- ----------------
b er
Ġd ata
co unt
Ġb u
e p
st ate
n al
m i
rib ut
P ro
S et
or d
/ **
s k
b ack
val ue
======== ========
en er
un signed
r ee
a nt
en se
h is
i nit
Ġ as
our ce
urr ent
Ġu int
n s
it ion
ev ent
stat us
S C
ch ar
ĠĊ Ġ
n c
and le
Ġ j
U L
Ġr et
M O
op y
D ata
T H
on e
ub lic
a x
er t
B U
ne l
Ġf alse
C h
o ck
Ġb ool
ĠT he
Ġb reak
() );
o k
Ġun signed
Ġ at
Ġne w
o und
Ġo ut
* /
Ġv alue
a ult
s p
Ġtr ue
el d
or k
ri g
O P
u al
l ay
TY PE
L I
p p
Ġ 5
( (
I ON
Ġ le
f s
U R
i ne
or y
lo g
Ġ get
u st
T E
ist er
o g
lo at
o u
at ch
() ,
Ġ en
EN T
ic ense
ul l
p en
mp le
e le
N O
it s
RE G
n dex
In fo
ĠT his
he d
at ed
r eq
Ġ are
s ion
S H
am es
ub le
b reak
m ode
N E
e ate
ot o
an ce
Ġ* )
Ġf rom
as h
ang e
I nt
U E
A d
k ey
p ar
R A
ro up
pe c
t ro
Ġ 8
V alue
2 0
ar y
he ad
p c
i de
ac h
Ġc an
p h
] ,
() )
a w
OR T
t x
ar get
Ġt ype
I S
O L
N ame
ST AT
I d
Ġre g
un c
a v
st d
C A
Ġ str
w are
t ime
Ċĉĉ Ġ
o ve
ĠĊĠ Ġ
pri v
Ġl ong
i ndex
u x
li ent
I L
V E
ak e
O bject
C L
p d
2 5
ess age
om m
f lags
u le
Ġ+ =
l et
Ġn um
Ġsize of
fr ee
y t
SE T
U P
V AL
w rite
i ew
ind ow
i z
S P
ul d
ĠĊĠĠ Ġ
u d
er e
lo ad
ent ry
Z E
E x
L ist
ĠL icense
of t
ne w
B u
ow n
N U
ng th
F A
t p
b ase
bu ffer
V I
8 0
Ġu se
c ol
n o
et h
++ )
cl ass
m b
H E
ar r
ĉĉ ĉĉ
p ace
si ng
ue st
S K
al loc
Ġp ri
R es
ac he
d b
an nel
Ġ arg
co mp
ma x
Ġc l
print f
t i
//////// ////////
st art
P C
R I
if i
cp u
def ault
f d
or m
us er
Ġv al
us h
Ġ error
P O
r ef
ro w
F ile
V ER
p y
I F
T o
Ġ 6
S ize
n et
bu g
1 5
d is
Ġ define
SI ZE
Ġs c
I C
if def
rig ht
ĊĉĉĠ Ġ
ri pt
ĊĊĠĠĠĠĠĠĠ Ġ
Ġw ill
i b
l d
I O
i x
ers ion
Ġco mp
oft ware
id th
4 0
# #
3 0
čĊĠĠĠĠĠĠĠ Ġ
m t
b ool
FI G
ct x
Ġf unction
Ċĉĉĉ Ġ
il d
b lock
ĊĊĠĠĠĠĠĠĠĠ Ġ
p s
ĠC ON
Ġ [
Ġ X
c md
ĠG et
rr or
čĊ č
Ġp r
AB LE
o uld
D R
if y
T r
M S
tro l
m it
p os
P RO
o ffset
ack et
g e
" ;
Ġ ?
ERR OR
de d
ir t
Ġ /
l er
it ch
f ace
g oto
e at
d o
čĊĠĠĠĠĠĠĠĠ Ġ
x ff
lin k
er n
S c
M D
im er
Ġn ame
i eld
Ġ K
C P
con fig
v ent
t em
ĊĊĠĠĠĠĠĠĠĠĠ Ġ
c c
St ate
t able
ĊĊĠĠĠĠĠĠĠĠĠĠ Ġ
Ġ mem
w ork
) .
9 9
F O
T O
P ORT
p oint
u se
BU G
r ame
A P
Ġ list
čĊĠĠĠĠĠĠĠĠĠ Ġ
str eam
1 3
Ġ IN
Ġ end
D O
en ce
D B
čĊĠĠĠĠĠĠĠĠĠĠ Ġ
t emp
int er
ms g
ĊĉĉĠĠ Ġ
ĠE X
Ġh ave
que ue
n ot
ist ribut
ut o
l ate
I P
MA X
pl ay
S tr
t ing
S Y
er v
I G
EX T
B A
Ġs y
mi n
w itch
N ode
r eate
r t
Ġ addr
1 4
th is
Ġ 7
Ġd is
f unc
Ġs o
ĠA N
ĠS t
a pt
Ġres ult
it er
le d
u ment
> (
O UT
p ath
' t
con d
d i
G L
p age
ĠI f
b it
() .
t ribut
ir q
Ġ> =
2 4
d ir
P A
M ode
ext ern
irt ual
s ub
Ġp oint
ut ex
Ġ q
b l
0000 0000
In dex
I tem
st em
C C
Ġ li
č Ċĉ
gr am
ar ch
IN E
arr ay
AT E
ĊĉĉĉĠ Ġ
le ar
f er
s g
Ġt ime
Ġre ad
Ġ static
D e
ĠG ener
Ġ z
ne xt
< <
ar i
Ġ ac
c i
Ġc all
Ġ .
0 4
E rror
p u
EN D
3 7
ĠG L
a ction
ol d
opy right
Ġp er
ER T
M B
] );
] [
a it
Ġo ffset
C ol
ri ver
on t
Ġi d
R eg
h ost
m o
v el
x FF
() ->
he n
th er
Ġ all
ile d
P os
T ime
ames pace
m ask
) ->
le ment
PI O
A t
Ġ( *
and ler
C R
c ast
T A
val id
ST R
c ur
1 8
Ġm od
Ġm ode
c f
t est
AN D
A S
5 5
Ġ #
Ġ device
Ġan y
Ġ1 6
de sc
pi n
AR T
a le
AT A
ĊĉĠĠĠ Ġ
b e
S h
Ġsh ould
Ġbu ffer
Ġc ode
d d
0 8
v m
f t
lo b
ct ed
lin ux
A r
R e
omm and
Ġv ersion
Ġk ey
M M
K ey
cl k
t ain
s l
E vent
m age
MA SK
eth od
Ġ err
s d
co mm
r l
ĠS et
res ult
St at
a iled
at tr
T ext
A ME
b yt
ap p
c es
le ngth
id get
ĠG NU
I R
Ġb ut
u es
ti n
P tr
ĠĊĠĠĠ Ġ
DE BUG
if ic
Ġco unt
A C
s rc
IT Y
ic k
n put
Ġ ,
u c
per ty
Ġc urrent
P oint
e en
Ġst ate
b i
Ċĉĉĉĉ Ġ
ĠP ublic
a f
( *
Ġm ax
it em
E T
Ġst art
nt ry
A M
" )
ĠGener al
Ġn o
o le
N ULL
m l
Ġb lock
u g
Ġu sed
Ġc heck
I s
Ġp aram
ic h
ption s
1 9
P aram
p on
F LA
st ance
S O
2 3
let e
ass ert
C I
S U
m od
v ector
Ġp ar
N um
a mple
) (
g roup
++ ;
h w
Ġp os
Con text
Co unt
up port
CT ION
pd ate
Ġdo uble
B O
0 3
l f
an ag
2 8
Ġ| =
x f
IT E
Ġdefine d
o bject
Bu ffer
ĠĊĠĠĠĠ Ġ
SS ERT
Ġ J
ar k
S R
m at
Ġ OR
ĠC on
t mp
able d
con text
ir st
tr ee
1 7
Ġs pec
Ġin dex
GE T
Ġ+ +
ow er
Ġ len
D C
li ng
s m
0000 00
pe ll
U n
' s
lo t
UL T
us b
ĊĉĉĉĠĠ Ġ
eg i
c s
fr ame
c lient
S A
Ġh as
Ġ /**
I M
m utex
Ġb ase
Ġf lags
MO DE
K E
c urrent
head er
Ġnum ber
id x
Ġst ring
Ġn ode
O T
ation s
end er
[ ]
Ġint er
5 0
LO G
Ġf ree
op s
egi n
Ġin line
t on
que st
rr ay
Ġb it
M ap
M I
o bj
ab el
n ing
================ ================
h andle
er y
Ġby t
u i
C F
S B
it e
lay er
Ġs k
8 6
IN VAL
E L
R AN
tr ans
loc al
ag es
un lock
Ġin it
r aw
t ent
f loat
y s
CH AN
el l
CH E
c all
Ġ> >
r ap
Ġwh ile
LO CK
es c
2 2
ĠM A
Ġ1 0
et er
******************************** ********************************
anag er
P R
Ġc ol
Ġo per
ig n
Ġon ly
* )
r q
Ġ 9
sk b
Ġ add
c b
P L
W R
ĠO F
FLA G
T est
Ġs ub
Ġo ver
i nput
co m
ĊĉĠĠĠĠ Ġ
Ġ dev
s or
n def
a mp
h er
ne ct
Ġtr ans
Ġt est
3 3
ĠC opyright
Ġ// /
B IT
Ġcl ass
Ġy ou
v ar
ON E
Ġ" \
g s
Ġ **
en c
c heck
ud io
Co mp
Ġpri nt
R eq
E n
ĠI n
U RE
ect ion
Ġc opy
Ġw hen
Ġf loat
RE AD
Ġ default
if ndef
Ġ Y
ri de
x F
lo se
u pt
r x
pen ame
Ġo bject
B lock
IN FO
E Q
ut e
fi x
r em
he ight
ĊĉĉĉĉĠ Ġ
8 02
V iew
Ġ event
D ATA
Ġun der
x x
ĠĊĠĠĠĠĠ Ġ
ver t
Ġ lo
6 0
w w
c d
ri x
Ġp l
Ġ status
fi r
p a
de bug
O K
O S
lob al
Ġt emp
tribut e
ME M
Ġ< =
Ad dr
O ut
T h
Ġv irtual
H T
Ġo ther
ĉĉ ĉ
do uble
t k
o pt
d ate
Ġin put
AL SE
ess ion
ĠĊĠĠĠĠĠĠ Ġ
Ġre quest
R ef
pl y
b r
ot e
ĠCON FIG
w idth
( _
C l
all y
ct rl
ct l
Ġc al
CO DE
b ri
Ġwh ich
de nt
V al
.. .
u mp
L en
Ġm ust
t ail
pl ic
g n
A LL
o b
PE CT
r ec
type def
Ċ Ċĉĉ
L EN
ock et
fi eld
S D
en um
S y
T X
Ġ ~
en sion
L oc
5 6
Ġbu f
// /
p es
8 8
! <
Ġm ay
p ush
ar ed
VI CE
err upt
eat ure
_ .
P ri
pr e
f rom
Int er
w h
apt er
c ache
i es
Ġu p
" ),
F T
4 4
ĠS oftware
Ġd ir
W A
Ġ line
Ġr c
e b
ss ion
tin ue
ĠAN Y
f l
P ER
t s
D ev
req uest
Ġon e
L o
R L
h d
at er
TR A
o x
or s
A rray
F or
Ġw rite
)) )
čĊĠĠĠĠĠĠĠĠĠĠĠ Ġ
er o
w ord
(" %
M C
ic al
Ġne ed
' ,
D U
Ġn et
Ġp art
g p
th read
Ġ ad
cr eate
Ċĉĉĉĉĉ ĉ
2 7
ff ff
DE F
ic s
u me
R ead
ut h
RE S
ser t
w i
P AR
W indow
Ġt y
-------------------------------- --------------------------------
Ġp ublic
STAT US
b us
Ġ" %
F OR
at ive
M essage
il ter
x a
Ġf irst
N AME
p m
h ash
Ġ} ;
P ath
čĊĠĠĠĠĠĠĠĠĠĠĠĠ Ġ
Ġ ;
n k
reg ister
ne ction
i node
Ġpro gram
IL ITY
P T
D is
p ol
3 4
U SE
s pin
mp l
E S
i a
ic es
802 11
A l
L og
cf g
F S
ting s
x b
param s
o ot
Ġ 32
h s
X X
B ase
% %
f c
P H
Ġm i
b le
g l
čĊĠĠĠĠĠĠĠĠĠĠĠĠĠ Ġ
sy s
n er
un k
] )
ig h
Ġp age
py x
ĠEX PECT
i e
Ġwith out
P U
iv ed
Ad d
Ġa p
2 6
OR D
T ER
ch annel
Tr ans
čĊĠĠĠĠĠĠĠĠĠĠĠĠĠĠ Ġ
Ġt arget
Ġal loc
c ap
F UN
C all
ot al
b its
Ġa uto
Ġ ext
Ġa v
en u
Ġaddr ess
R T
op en
x c
8 9
_ ;
c mp
ut ton
Ġs ource
t arget
Ġout put
Ġd istribut
( __
y n
CON FIG
ĠA R
Ġs oftware
v ide
D ef
li b
up date
l ast
Ġm ore
Stat us
at form
at es
for e
I B
P ar
bri ef
de st
Ġt er
pon se
V ector
Ġt mp
IT H
Ġt able
TE ST
ifi er
om ain
par ent
ĊĉĉĠĠĠ Ġ
Ġf ield
Ġle ngth
Ġin fo
ĠR eturn
g er
M T
Ġreg ister
Ġc pu
cp y
3 6
C ode
ial iz
y le
ĠS T
In it
ĠT HE
P RE
le ct
u id
ur ation
2 1
F rame
p end
F rom
M em
le vel
E ntry
ĠW AR
c ore
Ġn ull
arg s
Str eam
ĠF ree
ari able
Con fig
( !
m is
Ġ me
x E
R X
ce ption
Ġcon fig
m ove
//////////////// ////////////////
Q U
9 0
t ask
Ġ/* !<
el y
CT L
en able
**************************************************************** ********
s b
L ay
ver sion
P r
ĊĉĉĉĉĠĠ Ġ
O n
Ġp ort
: //
d st
O ST
CE SS
Ġs rc
h dr
Ġ( "
fir st
erv ed
o ff
o v
f n
F E
V ENT
r ate
DE VICE
ifi ed
at t
STAT E
L INE
qu ir
3 5
ĊĊĠĠĠĠĠĠĠĠĠĠĠ Ġ
out put
pro to
d ma
F orm
mb ol
a use
Ġm ap
sy nc
O FF
o se
H andle
ound ation
ĊĊĠĠĠĠĠĠĠĠĠĠĠĠ Ġ
code c
L ine
AB ILITY
" ));
at rix
ĊĉĉĉĠĠĠ Ġ
Ġl ast
ĠF OR
CL K
ĠI nt
7 7
CHE CK
a pe
2 9
at ter
Ġa ct
ast er
se nt
Ġ log
ĠWAR RAN
Ġne xt
ff ect
Ġmi n
Ġ user
fi l
an k
3 1
Ġ RE
Ġit em
T able
x d
I mage
u a
ĠP y
FA ULT
ol low
b egin
B E
se nd
C D
Ġ2 00
form at
3 8
er ver
K ER
o ver
k en
č Ċĉĉ
Ġmem ory
ce pt
con trol
Ġi mp
Ġr ight
Ġh andle
Col or
i ns
d river
CT RL
W idget
Ġ2 01
size of
KE Y
x e
< /
ĠQ String
= %
ion s
ĊĊĠĠĠĠĠĠĠĠĠĠĠĠĠ Ġ
ĠW e
ĠC o
q l
t l
Res ult
C MD
byt es
s o
Ġ ev
Ġre ce
om ic
h as
l ong
Ġf ailed
ser ver
priv ate
SI ON
TI ME
Ġp ath
5 4
__ ,
M L
ĊĊĠĠĠĠĠĠĠĠĠĠĠĠĠĠ Ġ
O B
ch ip
BA SE
Ġf rame
p art
A PI
stat s
MA P
W N
Ġc r
f ul
1 00
bo x
it or
Req uest
ang ed
fr eq
ele ase
M ENT
c ard
ic y
s w
E lement
FI LE
G PIO
Ġs i
ro ot
Dev ice
AT ION
s witch
j ect
Ġw ork
M anager
temp late
D esc
ĠU SB
6 6
ith er
or der
EN ABLE
se q
c lear
0 5
c m
N T
ĠE x
4 8
0 7
bu ff
ĠF oundation
uc cess
O C
P y
f p
D ir
v iew
A GE
co py
P S
Ġr ed
ĠS ee
g th
_ ->
Ġg l
Ġo ption
il ity
Ċĉĉĉĉĉ Ġ
t imer
Ġo p
M od
U X
Ġ entry
Ġf ollow
Ġa b
e ight
\ "
d ing
IF T
Ġs witch
Ġn amespace
> ::
k t
Ġt ask
F ield
Ġg oto
Ġpoint er
C heck
if t
E INVAL
er nel
ĊĊ Ċ
DE V
ĠP ro
Ġbyt es
AD DR
E CT
CF G
ial ize
l p
INT ER
TR Y
s um
n amespace
Ġs upport
mp ty
ĠT R
MS G
Mode l
St art
f ter
t a
_ ,
fi nd
LA Y
Ġ assert
Ġg r
se c
w ait
f lag
m y
se lf
or g
U D
Ġw as
O D
Ġ qu
Cl ass
form ation
P P
se cond
sig n
pt h
ĠC h
d ition
et ers
CO MP
AR G
v ol
Ġcon text
c nt
## ##
0 6
res et
a int
v b
ĠĊĠĠĠĠĠĠĠ Ġ
E E
ĠP AR
S M
NE L
Ġc ommand
et a
C LA
S L
A SSERT
SH IFT
A ction
gp io
t tp
t ag
ach ine
le an
Ġth read
iter ator
f unction
s pec
Ġf ail
w indow
M AT
reg s
ĠF ALSE
ri es
m essage
P UT
u sed
en v
ment s
orm al
IN IT
ro y
B ox
P M
f low
r ect
F unction
9 6
Ġs ig
m c
Ġdo es
tro ll
oc ument
addr ess
F P
C reate
M ax
ript or
B yt
ĠR es
s on
RE E
if f
Ġint o
ĠW ITH
um n
Ġu sing
EN O
D A
res h
p acket
Q u
Ġ lock
Ġde sc
x y
se s
In put
Ġf r
ry pt
read y
f alse
p ed
li ed
ĠĊĠĠĠĠĠĠĠĠ Ġ
) {
ri d
7 6
tr a
op er
con nect
Ġcon tain
0000 000
ĠP RO
ex pr
n r
ĠR T
t ect
c an
H A
TI ON
7 4
ur es
eg er
i nal
g o
AT TR
se ssion
ĠL O
print k
Ġt ext
Ch ar
C S
O p
Th read
" ))
erv ice
ĠI D
Ġ ::
Ġm essage
v ate
Ġthe n
w ay
WR ITE
Ġ array
Ġ --
ĊĉĉĠĠĠĠ Ġ
act ive
ĠG PIO
f b
ad er
7 8
Ġter ms
Ġh ere
ĠN O
U M
U I
W rite
Ġb ack
Form at
čĊ čĊ
3 9
n ce
m ac
Ġp acket
d own
25 6
Ġ* ,
Ġdistribut ed
s n
x A
n line
ĠT O
TI C
Ġval ues
on ent
x B
S N
n own
pe cted
mod ule
Ġn on
p ublic
Ġ DE
troll er
emp ty
Ġ he
E d
tail s
__ __
Addr ess
R C
i nline
e al
Ġm sm
s r
N ew
ĠĊĠĠĠĠĠĠĠĠĠ Ġ
Ġe ither
EX PORT
f e
, "
P l
Ġty pename
_ (
pe ed
s ource
x C
ial og
ĠS O
R ect
Ġp i
ad apter
ĠR eg
h ci
2 00
L AN
Ġ ent
tr ue
5 8
Ġ Z
E nd
O f
ĠĊĠĠĠĠĠĠĠĠĠĠ Ġ
Ġth ere
Ġre c
Ġch annel
37 7
or age
S ub
Ġfollow ing
num ber
ri ption
ole an
t en
ur l
ult i
Ġo ld
d p
ib le
7 0
pr ev
ve c
Ġf ound
M IN
S UP
unt ime
Ġpr e
A c
Ġnull ptr
ms m
Ġfor mat
Ġ ar
RE Q
pro c
O ffset
Ġg ener
C ommand
ut il
r a
NE SS
ĠB O
h andler
T arget
D MA
id er
ĠA V
ub li
rap h
rem ove
Len gth
Sc ript
7 5
Ġstr eam
12 8
I X
i nk
pro perty
ex it
Ġw rit
EN TRY
ĠI S
Ġc reate
Ġmod ify
C B
W AR
] ->
ĠA SSERT
Ar g
ĠMA X
es h
ĠTR UE
con n
W ith
' )
struct ion
Ġ ĠĊĠĠĠ
************************************************************************ ****
fil ter
0000 0
Num ber
P er
t c
byt e
Ġse nd
D el
CA LL
sc an
UL AR
Ġre quir
ht tp
N ONE
wh ile
de l
Ġe lement
loc ation
col or
im age
co der
Ġev en
ĠC heck
t he
ĊĉĉĉĉĉĠ Ġ
Ġa fter
w l
O W
Ġ1 5
w rit
CHAN T
H ead
mis sion
mple ment
ro und
R ec
PO SE
ĊĉĉĉĠĠĠĠ Ġ
C lient
ĠS D
US B
s z
Ġprint f
Ġu pdate
comm and
Ġs nd
b y
Ġr un
6 5
se ct
Ġm sg
B Y
le ction
S ER
čĊĠĠĠĠĠĠĠĠĠĠĠĠĠĠĠ Ġ
Ġv ector
V M
UR POSE
Ġc md
sy stem
s ock
IT NESS
G roup
b d
---------------------------------------------------------------- --------
x D
E M
RA Y
Ġc ur
ĊĉĉĉĉĠĠĠ Ġ
Ġbe fore
S ele
S ource
Ġs p
0 9
Ġ' \
Ġde st
ĠC O
U INT
p ower
ex p
par se
ER CHANT
Ġcal led
ĠD e
Ġd st
ERCHANT ABILITY
A s
Ġse e
)) );
Ġm ake
ĠP URPOSE
S pell
O r
sp ace
n sert
at omic
t e
T EXT
i nsert
TR UE
8 4
W ORD
Ġ us
ĠPAR TIC
H andler
c al
W IN
RE F
C CESS
Ġit s
ĠPARTIC ULAR
T L
pe ct
čĊĠĠĠĠĠĠĠĠĠĠĠĠĠĠĠĠ Ġ
ĠF ITNESS
Ġtr ee
Ġc or
ix el
n ary
ok up
od y
Ġ& =
Ġ ĠĠĊĠĠĠ
Ġover ride
ĠF or
Ġ1 2
t d
Ġm ethod
I VE
an e
Ġg roup
ific ation
Ġle vel
o i
OB J
ĠWITH OUT
Ġp ubli
A n
Q L
S PE
AD D
VER SION
le ft
enc y
c lose
p dev
im um
ĠY ou
s a
P F
Ġrece ived
. \
TH ER
Ġpro to
E VENT
Ġen um
Ġ ag
t op
m on
ail able
Ġm ask
con f
NO T
ĠA l
Ġcon dition
w o
u ch
cr e
iv en
li p
Ġb o
P IN
O F
r ange
6 8
ON G
ide o
ph y
F lags
ĠM ERCHANTABILITY
Ġb its
s ave
Ġ1 4
sc hed
DU LE
F ilter
he s
b s
CO L
Ġh o
čĊĠĠĠĠĠĠĠĠĠĠĠĠĠĠĠĠĠ Ġ
m ark
C M
B it
Ġoper ator
ĠU n
ang le
FF FF
Ġ ĠĠĠĊĠĠĠ
G EN
p ool
Ġde tails
NU M
Ġp h
Ġ2 4
Ġg o
r un
rig ger
LI ST
Ġy our
1 000
C r
N ot
de lay
Ġw indow
ĠA dd
a ir
w r
y y
TI M
Ġ- =
Ġval id
ert ex
c el
čĊĠĠĠĠĠĠĠĠĠĠĠĠĠĠĠĠĠĠ Ġ
r est
RO M
pi x
In stance
Ġl ater
N S
Ġf ind
P RI
F L
Ġ ->
ww w
Ġh ttp
dr v
Ġcon tinue
i ct
s hed
A ct
st op
n v
U B
I LE
ĠA ll
Ch annel
st ack
Ġ usb
O per
I E
S W
ĠT r
B utton
or ld
define d
9 7
Pos ition
P layer
" },
Ġimp lied
Ġ header
9 8
__ );
E G
me di
Ġit er
> &
a uto
ev el
Ġc lient
MA C
A CK
e ed
p ack
ser v
pi pe
plic ation
g en
E P
ST ART
se ns
B L
9 4
o ptions
r elease
ur face
ĠCo mp
: %
Ġin st
w ar
Ġb i
Ġd on
N o
Ġs ame
Ġpro cess
MO DULE
I ST
ector y
SU CCESS
ĠAN D
Ġ INT
Ġth an
Ġd river
am er
m ain
IN D
VAL UE
sh ow
n ull
Pro perty
b a
Ġarg ument
ch an
mo v
Ġpr ev
Ċĉ Ċ
Ġ load
i ent
u sing
I ter
U nit
ty pename
h pp
at ing
at tribute
Ġr ow
T emp
io us
sc r
st ore
O M
af e
l a
Ġin clude
IG N
A CT
ĠS PE
b ind
pro cess
E C
a a
Ġh ost
pl ace
g ht
U ID
ĠReturn s
M i
STR ING
n p
ou se
mode l
Ġw x
ĠO n
f g
Ġpubli shed
TRA CE
ac hed
act or
4 3
U pdate
DB G
ad ata
Ġpro vide
BU FF
ĠR e
Ġ em
A G
Ġde lete
c ul
wi se
n is
MA GE
w ard
i que
Call back
Ġ( _
Ġin formation
DI S
Ġv ar
mo unt
ĉ Ġ
m atch
ĠWARRAN TY
d s
Ġal ready
Ġres erved
Con trol
Ġarg s
T P
7 2
Ġpar ent
Ġ ass
Ġg iven
n st
f x
as ic
Ġin ode
Ġint errupt
D S
Ġd r
T his
ut ion
s lot
se ction
Ġso me
T ree
Ġ2 0
call back
Ġh ash
Ġal low
R ender
p ing
Ġred istribut
SI G
Ġf lag
Ġn ow
Ġ link
Ġs uccess
p id
Ġo pt
A pp
it le
Ex pr
le ep
M sg
ĊĉĠĠĠĠĠ Ġ
as m
ret val
9 5
SE L
Ġ `
a de
Reg ister
Ġsh ort
SY S
ĠT h
ir e
li mit
tr ace
k e
Ġo ff
čĊ čĊĠĠĠ
ug i
CH AR
comm on
db g
A nd
p g
E xt
N C
Out put
up le
Ġbyt e
Ġi mage
ugi n
Ġ1 00
l abel
IR Q
row ser
Ġbe en
ph a
ok en
G HT
Ġuse ful
Ġe ach
ĠI nc
i mp
ĠT H
Ġre fer
ro p
Ġredistribut e
Ġt x
r el
Ġen able
ver y
yn am
8 5
app end
ro ll
Ġor der
T he
C urrent
mem ory
2 01
d im
OFF SET
co pe
De bug
R em
U t
bo ard
W idth
> >
ot her
' :
WA RE
T y
Ġf l
N et
i nst
sh ared
Ġ" ,
con tinue
A UT
Mi n
f mt
Ġu i
p data
LO W
er ence
b p
-- -
ĠS h
RE T
Ġd one
ĠP CI
Ġw idth
dis able
de c
Ġcon trol
b ar
r ed
bo ve
A SE
Ġsy stem
WAR N
AR D
CP U
et adata
ul ator
Ġpos ition
M atrix
4 5
Ġcall back
ĠReg ister
act ory
e ach
E nt
inter nal
S G
ch ild
i od
A I
MB OL
Ġi p
pl atform
BUFF ER
time out
lean up
se g
Ġo bj
st amp
eth er
Ġw ait
eq u
T K
4 2
Ġin d
4 6
act er
to ken
ĠD MA
or ity
a udio
Ġ ed
DI O
L evel
Ġm atch
p an
Ġ local
si ble
Ġr ange
al ar
is ion
' ;
at ab
Ġl ay
amer a
f ail
De cl
Ġa bove
ĠA d
Ġ REG
M ask
pc i
UN T
: (
H as
EN SE
ari ant
p ages
D D
DE FAULT
Ġ height
Ġle ft
et ch
ĊĉĉĉĉĉĠĠ Ġ
d omain
Ġ 64
ĠI P
h i
arr ant
Def ault
A V
) \
bl k
pre sent
ch r
OR Y
t ab
ynam ic
and om
t t
Ġw arrant
ĠO P
B US
Ġm y
BU F
Ċ ĠĠĠĠĊĠĠĠ
DE D
ĠSt ring
LI C
FUN CTION
c ause
all et
HE AD
file name
G R
ent er
L ock
UN D
ex ec
ĠĊĠĠĠĠĠĠĠĠĠĠĠ Ġ
Ġ{ }
8 2
Ġv ariable
9 1
ĠI nit
set up
ing le
R ange
Ġ low
g ener
n on
P acket
IN K
AT H
Ġres et
8 7
n ow
P age
5 2
U ser
ĠC HE
C an
qu ery
d m
%% %%
Ġex pr
ti es
ĠC reate
V AR
Ġwarrant y
Ġre f
F RA
Ġtemp late
se e
atter n
D o
c lock
UR L
ĠD o
Ġ queue
SY MBOL
F C
Ġright s
ĠC PU
R G
Ġstruct ure
an y
il der
8 3
Ġv ol
d c
con tent
Pri nt
z one
s ample
L Y
Ġtype def
k ely
way s
Ġ( &
Ġho pe
T S
B LOCK
P D
Ġc ache
ĠI t
per ties
bo olean
Ġo pen
Ġp tr
ĠCHE CK
ĠU SE
p kt
Ġor ig
CO MM
Ġp ol
Ġ $
Lay er
Ġ ĠĊĠ
Ġj ust
~ ~
B y
tain er
atab ase
CLA SS
F D
ĠĊĠĠĠĠĠĠĠĠĠĠĠĠ Ġ
h o
T imer
g ate
r b
cr een
m ake
EL D
5 3
Mem ory
__ _
I mpl
pl it
LO C
et e
n stance
w idget
FA IL
de cl
Ġs ock
le ase
9 2
ch ange
7 3
dis play
Head er
r s
A RE
Ġfunction s
{ "
OBJ ECT
H eight
i nstance
G O
4 1
6 1
UT E
CA P
w s
INVAL ID
BY TE
PRO C
Sy stem
M ac
Lo ad
us pend
ĠN OT
BA CK
LO AD
ee p
point er
e ded
Ġmod ule
P TR
Y S
Ġ1 1
un it
tribut es
if fer
VE L
ult ip
ac es
at ile
iz ed
M enu
Ġ{ "
6 3
S end
Ġex it
N D
AR GET
O bj
Ġ( );
s oc
P art
Inter face
our ces
ot h
at ure
, -
v irtual
Ġbe cause
ĠĊĠĠĠĠĠĠĠĠĠĠĠĠĠ Ġ
Ġc lear
8 1
Ċĉĉĉĉĉ ĉĉ
ap i
or ed
C ur
ĠL I
b t
F ALSE
m ethod
Ġb l
F B
st ant
Ġst ack
ur a
Ġc tx
Ġs d
omm on
C ache
F R
pol icy
N ext
Ġi m
ĠT est
) :
sc ale
Ġtr y
Pro cess
R D
en sor
dest roy
č Ċĉĉĉ
Ġex ist
ĊĉĉĠĠĠĠĠ Ġ
s nd
FT WARE
arg v
P ol
Lay out
Ġspec ified
Val id
om et
G ener
Ġcondition s
A ll
a uth
g lobal
Ġch ange
co ding
DE C
il y
M ethod
Ġi mplement
ĠC H
li ght
ĠE n
W E
b b
c le
RES ULT
Ġc om
) *
Ġa pp
( -
as on
Ġli mit
Byt e
z ero
ĠĊĠĠĠĠĠĠĠĠĠĠĠĠĠĠ Ġ
t v
H AND
)) ,
S ervice
Ġz ero
RA M
H ash
5 7
ay load
ĠH A
ty pes
Ġf printf
v c
KER N
Ġal ong
pos ition
AN CE
oc i
sig nal
Ġparam eter
e a
e ar
Ġcol or
.. ..
R ow
6 9
čĊĠĠĠĠĠĠĠĠĠĠĠĠĠĠĠĠĠĠĠ Ġ
Ġcon tent
r d
Ġr oot
Ġr t
ME TH
Ġs erver
Ġinter face
Ġc lock
inter face
r g
W I
UR N
Ġreturn s
() ));
MP L
bi n
og le
Y PE
ang es
St yle
ializ ed
Ġt ag
Param s
T ag
V ersion
RE CT
Ġex ec
r eal
ele ment
el f
FUN C
Ġsk b
tect ed
6 2
up er
sens or
Point er
ĠSO FTWARE
H ost
f w
Ġm d
ĊĉĉĉĉĠĠĠĠ Ġ
7 9
V is
qu ence
_ );
CON TR
Con tent
P ort
li kely
LE VEL
en abled
d one
ĠQ gs
str cmp
bo und
t otal
se lect
F loat
Ġspec ific
ur ned
d ump
Loc al
n l
p ass
y nc
Ġparam s
DI R
čĊĠĠĠĠĠĠĠĠĠĠĠĠĠĠĠĠĠĠĠĠ Ġ
Ġ(! (
25 5
================================ ================================
str aint
H D
pc m
PA GE
ce ne
si de
ĠN S
SU B
end ing
5 1
d uct
Ġs pace
. ,
le ss
br ary
ust om
ĠBO OST
NE T
Ġh f
pa ir
ap h
Ġm ain
V ertex
ĠR ead
ue ue
B ack
ĠT ype
ĉĉĉĉ ĉĉĉĉ
Ġs l
Ġse cond
TI ES
Ġin stance
Ġb et
5 9
b h
st ep
ol der
s ocket
D P
lic ense
Bu f
o ption
Ġe mpty
ĠU N
Ġid x
c hes
T x
F N
ug h
m alloc
PAR AM
E ffect
ĠD I
e ated
ab s
k free
arg e
Ut il
eq ual
or ig
čĊĠĠĠĠĠĠĠĠĠĠĠĠĠĠĠĠĠĠĠĠĠ Ġ
FI X
O pen
ag ma
ĠD ata
ĠD is
02 4
lo op
ic le
A p
Ġse ssion
Ġal so
Ġlo op
Ġ ...
Set tings
Ġde bug
R un
DE X
Ġac cess
p atch
Ġ/** <
ĠS k
Ġt otal
Ġf ilter
ĠI s
Ġsc hed
struct or
T oken
ENO MEM
er ge
ĠF T
F ree
gr ess
j ust
t om
O ptions
7 1
m ary
v is
w ake
Ġwh ere
AT URE
L abel
d a
čĊĠĠĠĠĠĠĠĠĠĠĠĠĠĠĠĠĠĠĠĠĠĠ Ġ
wi n
C UR
li m
S pec
V ar
ĠA DC
UR CE
ĉĠ Ġ
ee e
W M
Tr ack
h y
e ap
mem cpy
r ad
ist ance
V T
FLAG S
le cted
ro ugh
Ġse lf
t m
ne ss
Ġprovide d
Ġ( %
im es
S ession
apt ure
d l
N V
resh old
ĠL o
ĠS C
m an
L C
OL D
FI ELD
c g
RI GHT
4 9
cl a
app ing
g round
d hd
Ġw ant
D ialog
Ġ stat
W ER
Qu ery
de lete
FOR MAT
err no
t cp
Ġs w
SUP PORT
H el
C G
v l
METH OD
D M
Mod ule
sy m
ĠWARRAN TIES
CO UNT
r untime
ĠT E
S k
W eb
w c
U AL
t ed
n i
Ġy y
Ġt wo
ĠR ed
se l
Ġav ailable
KER NEL
pend ing
c urr
r dev
pl us
ate g
Ġr el
ib r
i ver
r am
Ġnot ice
USE D
G A
vide o
H AL
SO URCE
w m
Ġg lobal
ĠSPE LL
CL UD
b utton
fl ush
ul ar
Ċĉĉĉĉĉĉ Ġ
OR M
ĠS H
d up
xff ffff
Ġr out
Ġre q
F lag
Ġth row
PR INT
DE SC
Ġex p
RE SS
SO C
S erver
Dis play
CLUD ING
Ġm achine
Ġpri vate
Ġo w
L ast
F ont
ĠB u
let ion
ĠQ t
ip her
C om
std err
ord s
d iv
] =
4 7
Ġsig nal
ĊĉĉĉĠĠĠĠĠ Ġ
tr act
T ask
Ġs lot
At t
n ation
D raw
Ġm ac
Ġin valid
Text ure
6 7
Ġo ptions
an ch
on ly
res ource
p ad
IT ION
W ID
ĊĊĊ Ġ
e ff
Ġrequir ed
it ies
s ole
V O
M UX
AR Y
Ġ* );
d at
_ )
ix ed
de n
ĠI O
ang u
eat ures
bo ost
S e
S ig
m ux
sc ript
Param eter
Pro to
In valid
w ith
omet ry
Ġd i
Ch anged
PA CK
CONTR OL
set tings
SY NC
W S
N G
al k
SS L
Ġi rq
OR S
nit ion
N AL
Al loc
serv ice
un def
Ġpl atform
t bl
EN C
val ues
F G
b c
Ġc opyright
et r
si ve
MO D
s upport
Ġa ction
Ġ1 3
ĊĊĠĠĠĠĠĠĠĠĠĠĠĠĠĠĠ Ġ
Ġo b
ist ers
LI B
play er
ab ility
Ġre move
ĠV alue
w een
s u
P Y
CODE C
k nown
Ġp ower
Ġd iffer
Ġf d
Ġs m
H W
ĠD B
ĊĊĠĠĠĠĠĠĠĠĠĠĠĠĠĠĠĠ Ġ
A li
B ar
st yle
TR AN
Ġh andler
Ġthe m
9 3
ĠP oint
In st
Ġto p
TA G
PO WER
Ġinter nal
ĠD A
c ell
Ċ Ċĉĉĉ
Ġv iew
Ġli brary
Ġm ark
Ġs ocket
M IT
par ser
Ġdis play
ĠI R
cp p
ĠA PI
Str uct
E mpty
s ure
F r
Ġparam eters
U p
dr aw
.. /
i nis
Ġb ound
rest ore
ĠB it
and ard
ĠF ile
l s
i an
are a
Ġo ur
F unc
Ġen v
fi ll
Ġcon nection
00 01
Ġd ocument
i nation
Ġb us
scr een
u ce
Ċ ĠĠĊĠ
Ġch ild
Ġi o
Res ponse
g ine
Ġm p
00 1
c hed
ĠĊĠĠĠĠĠĠĠĠĠĠĠĠĠĠĠ Ġ
Ġfile s
G e
Ġt imer
con nection
k ernel
ĠB IT
G TH
A CE
L D
ĠU se
B B
Ġrefer ence
S PI
g h
Ġp layer
Con nection
o us
gr aph
ĠM O
Ġret urned
license s
Ġex pected
iter al
ac cess
ep are
/* !
am ily
Iter ator
mm c
Ġp ass
tr ack
req u
p ose
RE A
LO T
Res ource
#### ####
St ack
ĊĊĠĠĠĠĠĠĠĠĠĠĠĠĠĠĠĠĠ Ġ
v ma
id s
ĠLO G
S ON
Ġ(( (
Ġ LL
T C
Ġv m
tr l
Ġact ive
angu age
xff ff
Ġc p
ĊĊĠĠĠĠĠĠĠĠĠĠĠĠĠĠĠĠĠĠ Ġ
D est
ver se
S ocket
Ġ ),
En abled
ĠO pen
Ġ head
At tribute
um my
G raph
Pr e
G RO
CO M
a ded
pix el
n ames
CON ST
ar m
ĠN ote
ĠHA VE
ĠS tr
ĠP ri
g t
Ġl abel
Ex ception
Q ueue
y cle
rap per
FRA ME
RE SET
Ac cess
ĠĊĠĠĠĠĠĠĠĠĠĠĠĠĠĠĠĠ Ġ
qu al
ĠSt at
Ġg tk
= (
LA B
Ġper mission
DO WN
ension s
Ġthe y
ĠH AL
) ",
L ink
f ull
ed ia
er ial
Ġto ken
PH Y
mi x
Ġfield s
x ml
Ġcon nect
Ġsy s
Ġd own
Ġl icense
m anager
sh ift
L INK
Ġoper ation
c a
MP LE
g le
IN PUT
ith m
Ġtime out
ĠT IM
OP Y
se arch
count er
Ġs ample
O ver
PRO TO
l x
ch unk
Ġp ut
ĠG FP
Ġre al
ut able
i str
LEN GTH
-- ;
Ġ2 55
Ġg en
Ġs ure
F X
C md
Ġbi nary
Ġv ec
Ġst ore
Ġsc an
ĊĉĉĉĉĉĠĠĠ Ġ
ot tom
A udio
St ore
mem set
<< <<
Ġsy mbol
Ġ\ "
si st
ar ning
Ġpar se
Ġfor m
Ġst op
PC I
sh ort
Ġse ction
Ġen abled
ĠN o
STR U
ĠC r
( '
F ailed
Ġstr len
Ch ild
l u
d t
Ġsi nce
ng ine
Ġv is
Ġres ponse
b ers
IG H
o unt
T ABLE
un likely
n f
ins n
Q String
av ed
G PL
pr agma
ĠĊĠĠĠĠĠĠĠĠĠĠĠĠĠĠĠĠĠ Ġ
io ctl
point s
f ont
p b
Ġ et
ur b
Ġde cl
IN DEX
s pi
m enu
Ġtr ack
G UID
il dr
R et
DR V
* >(
I AL
av a
ĠS y
ĠC OPY
not ify
ĠTH IS
B ind
L ONG
Ġf ull
s pell
ĠU INT
Ġ ^
C RE
let ed
C ore
ct or
------------------------------------------------------------------------ ----
Q UE
v p
er nal
Ġs pell
Ġbet ween
mple x
G lobal
e er
dis k
Ġi gn
ildr en
ard ware
Ġsk ip
ĠO ut
md p
fr ag
ĠT YPE
\ \
ef t
o ice
pr et
ĠN um
ot g
g or
ing s
ne cted
P h
Ġp ci
g c
ĠA T
v s
= "
-> _
EN UM
h f
AR RAY
C opy
R eturn
Ġp as
l ass
N I
AD C
Ġse g
ur ing
p o
le x
4 00
V ec
ĠL ess
ĠA D
DE O
s uspend
Ġm at
ĠU pdate
ĠĊĠĠĠĠĠĠĠĠĠĠĠĠĠĠĠĠĠĠ Ġ
", "
r ender
F MT
ĠE rror
Byt es
ĠC L
R ATE
Ġ DEBUG
== =
& &
Ġwh ether
FI L
v ider
R ST
w x
int errupt
end l
oi n
MS M
_ [
I V
pro be
N R
c at
Act ive
Ġend l
> .
Ġ" /
dent ifier
DE CL
h al
c or
Ġde l
s peed
AN T
d f
Con troller
o om
il er
Ġal ways
ĠP ar
reg ion
V ideo
T REE
un ique
Ġun it
Ġk ernel
Ġbo ost
E Y
B its
DEF INE
v a
Ch ange
ap s
čĊĠĠĠĠĠĠĠĠĠĠĠĠĠĠĠĠĠĠĠĠĠĠĠ Ġ
ĠEn able
iz ation
fi ne
Ġ( __
ĠLess er
Cr eature
N L
Ġth rough
Ġm atrix
map ping
ĠTO DO
B ound
NO DE
mat rix
FA CE
UN IT
i nc
] *
p op
Ġother wise
Ġpro c
ĠO UT
ch ain
Ġ loc
Ġs ave
P ATH
Ġab out
ro id
ĠV ector
Ġbe ing
Ġs n
e port
t xt
bu ild
ad ow
Ġs ingle
HAND LE
Ar gs
Ġ defi
Loc ation
sy mbol
ir ed
ic on
RET URN
co ut
ER S
BIT S
b g
( %
own er
CHAN NEL
Ed it
ĠTr ans
de pth
er ve
h a
s v
ck et
e h
ĠS TR
PO S
Ġtrans action
ĠI MP
ĠA C
Ġthe se
i mpl
ĠF unction
n b
en ded
g ing
res ponse
Ġdr m
G LE
Ġm m
am age
Ġn r
Id x
ph ys
st ri
Ġsupport ed
Ġmode l
UN K
SE D
B o
t ri
q p
ater ial
S p
ĠH andle
i mple
file s
Ġd im
nt il
čĊĠĠĠĠĠĠĠĠĠĠĠĠĠĠĠĠĠĠĠĠĠĠĠĠ Ġ
RE AM
gn u
K ind
M sk
P LL
go ogle
M ain
Ġarg v
plic it
I con
ut down
P G
Ġ1 9
Ġwrit ten
Ġne eded
ĠL og
h igh
D i
Ġ1 8
B T
Ġco uld
D T
W OR
lo okup
ro me
P AD
, &
Ġty pes
Ġr x
r ev
Ġass oci
app ed
C al
ITE M
pro p
SE C
ĠO bject
pre fix
ĠO THER
sw ap
ou gh
COL OR
ĠP AGE
Ġsh ow
IT ED
p io
CO RE
Ġ1 000
w q
LI ED
ĠP er
RO W
u ally
Ġ* (
h c
! =
ro s
Ġ1 99
I I
Ġat t
r eport
A F
co ped
ol ution
im ation
* ,
p f
R F
Pri vate
f printf
an c
bo ot
Ġ def
ĠRed istribut
ĠC al
LO AT
ide nt
ĠL IM
Ġst ep
chr on
Ġm is
A ST
P i
čĊĠĠĠĠĠĠĠĠĠĠĠĠĠĠĠĠĠĠĠĠĠĠĠĠĠ Ġ
B ool
cul ate
id le
Ġat tribute
d ig
me d
M R
Ġm ov
u ff
l per
W L
Ġconfig uration
Ġlay er
al ign
ACT IVE
ultip le
. ");
Ġ1 7
tr fs
D ec
P ass
iz er
se mb
Ġind ic
____ ____
ĠA n
d iff
ĠDA MAGE
U ST
Rec ord
Ġm ove
Ġprev ious
FOR M
Ġ' %
AR B
Ġac c
M ove
T ool
er ase
Q t
e ce
Ġrec ord
ĠB UT
US ER
block s
/ ****************************************************************************
Ġqu ery
DIS ABLE
imp ort
cur ity
ĠAR RAY
ist ory
i se
L P
I f
b and
P ixel
net dev
PC M
Ġv er
S V
P LAY
) [
if o
AR M
AT OR
l ua
W ork
i as
Ġc lose
U Int
ord i
de ntry
Ġn s
ĠAd dr
u f
A CTION
ok ie
c rypt
MA IN
Ġbu ild
čĊĠĠĠĠĠĠĠĠĠĠĠĠĠĠĠĠĠĠĠĠĠĠĠĠĠĠ Ġ
ĉĠĠ Ġ
OP T
Ġpri v
st mt
Ġse q
comp lete
Ġp ixel
================================================================ ========
- +
event s
ĊĉĉĉĉĉĉĠ Ġ
Ġr ate
Ġs ign
** *
// !
ĠT o
ĠM ode
G IN
Ġag ain
__ )
ac ity
il tin
ser ial
R M
G ame
row s
Ġcon vert
Desc riptor
Ġw l
ordi n
D L
ĠE VENT
CT OR
ff ers
Ġb r
AT CH
AR CH
Ġse lect
s id
ĠC AN
ĠV OS
Ġdiffer ent
L eft
i i
O ption
Ġto o
ĠPy Object
t ty
ĠIMP LIED
ializ ation
p ost
Ġdoes n
ĠT X
r ep
ĠĊĠĠĠĠĠĠĠĠĠĠĠĠĠĠĠĠĠĠĠ Ġ
c ent
Ġ ..
E rr
cre ment
DI V
P ool
Ġpi n
ro ut
M UL
ĠW rite
m ote
R ate
ĠN ode
n valid
Rem ove
ent ries
//////////////////////////////// ////////////////////////////////
ST A
ĠR em
ĊĊĊĠ Ġ
EN S
ction ary
rec ord
Ġb fd
Ġc op
SP ACE
At tr
g ed
M gr
BO OL
gor ithm
i nvalid
Ġcl k
Ġp m
8 00
ĠN ot
* (
2 11
St orage
T ARGET
EX P
F ind
W orld
pe g
w d
lay out
ĠA p
f ailed
A b
ĉĉĉĉ ĉ
G ui
m aster
P END
Ġem it
ces sing
A A
D own
U DIO
node s
Ġp ack
Ġt cp
Ġc omm
Ġarg c
j o
DI SP
b ad
(" \
ro t
Ġw ould
Ġn ormal
Ġon ce
Ġl l
for ce
b ody
Ġs um
Pro c
Ġa udio
8 000
Ty pes
Ġset tings
F actory
CH ED
el if
writ el
(( (
Py x
fo und
Ġh old
C NT
Ġpro perty
Con tainer
en ces
del ta
ĠI m
ĠTE ST
TIM ER
C lear
C ast
ĠS c
IN ST
A ura
m v
END OR
VI DEO
ĠĊĠĠĠĠĠĠĠĠĠĠĠĠĠĠĠĠĠĠĠĠ Ġ
g pu
D ate
r u
ON LY
ĠLIM ITED
V R
Ġcan not
res sed
Ġr ender
M on
Ġh and
U se
ĠC all
ĠK EY
x is
at io
Ġin sert
In struction
al le
H Y
Ġch unk
g b
ĠS end
En able
CON NE
Ġde lay
ĠU ART
d w
fi es
EN U
pr ec
Ġ3 0
pe er
e loc
D et
CA ST
D omain
Del ete
N ull
ip s
Ġt vb
v cpu
M atch
WA IT
v t
P K
Ġse arch
rec v
F l
pl l
ĠV AL
B I
ess ages
T ab
CA CHE
ĠS PI
Ġn ames
Ġdir ectory
OP EN
Ġre port
v as
SR C
le m
9 15
Ġo s
ĊĊĊĠĠ Ġ
ĠP l
d oc
proto col
cur sor
ter mi
Ġ location
ele m
pr ef
Ġm mc
ILE D
Ġint eger
H I
Net work
Ġcontain s
st a
! !
En v
M X
Ġt p
Ġv ir
Temp late
b f
proto buf
A SS
ĠM SM
Ġ ĠĊĠĠĠĠĠĠĠ
H S
Ġpos sible
ĠS o
p fn
m g
' r
'r e
VAL ID
OUT PUT
if orm
channel s
Ġc ap
G r
bit map
r v
i nv
Ġalloc ate
ST REAM
str act
Ġh w
ĠS Y
Ġchar acter
d x
um ns
st er
Par ent
t act
E ngine
B C
Ġd raw
Pro file
V ENDOR
ĠF LA
I nd
ĠG O
Ġres ource
S ample
if fies
MB ER
s up
() ),
ex ception
i us
H ER
} }
ĠP O
ĠĊĠĠĠĠĠĠĠĠĠĠĠĠĠĠĠĠĠĠĠĠĠ Ġ
C ID
rit er
B R
C LE
sh ot
H IGH
ENABLE D
Ġat tr
ition al
Ġp ages
Ġ č
code d
V ariant
ir ect
E num
ĠU SA
Sy nc
xx x
Ġw ord
FIL TER
---------------- --------
Ġsc ale
Sc ale
ig ned
B i
Ġb oth
ĠLI ABILITY
Ġh igh
st ride
Ġd b
al low
S rc
LE CT
Ġevent s
ol ver
Ġcol umn
ĠP M
Trans action
Ġc ore
P air
F LOAT
Ġm an
Ġdis able
le g
sh ape
ĠIR Q
F irst
not e
t vb
ĠM ake
[ (
Ġb egin
Ġfile name
err ed
Ġpi pe
g tk
Ġu ntil
Ġre lease
Sy mbol
Par se
Ġch anged
Ġl p
pro file
Ġs size
; }
C ell
Ad apter
ĠI nput
U ART
Ġ ĠĠĊĠĠĠĠĠĠĠ
Ġx ml
DI RECT
Ġa ut
n ormal
D ATE
Ġt ri
', '
Con stant
i or
oper ator
Par ser
im al
Ġ( )
g a
ĠStat us
---- --
ĠG ET
V OL
H OST
FE ATURE
Ġb ind
ĠG ST
C LI
Ġ1 28
S creen
ERR UP
cr tc
RG B
val u
ĠM em
L ong
ĠC ol
j son
M ulti
ai ned
Ġin v
ĠĊĠĠĠĠĠĠĠĠĠĠĠĠĠĠĠĠĠĠĠĠĠĠ Ġ
Ġ2 5
GRO UP
Ġdir ect
Ġset ting
C tx
ĠE V
HA SH
ĠF ILE
Ġp c
M at
M esh
Ġpoint s
Ġc ard
ad c
Ġblock s
COMM AND
ic ode
PE G
P TION
ri end
R PC
se m
Ġret val
Ġli b
urn al
j ob
ĠA t
AUT O
inter pret
Ġent ries
PO INT
Ex ec
ol ve
> ,
Ġcor rect
ibr ary
Sh ader
c leanup
Oper and
col umn
RE NT
Ġd er
G P
Ġ ĠĠĠĊĠĠĠĠĠĠĠ
al t
-+ -+
Ġz one
Do uble
E W
M AN
PRE SS
F REE
Ġs z
r ank
AL IGN
Ġassoci ated
s afe
ĠB E
Ġf unc
S pace
s ort
Ġr b
attr s
rc u
ch g
field s
pro t
FAIL URE
Ġinit ial
ĠW eb
pan el
EE E
Sc an
FI LL
e ply
Inter nal
ĠW M
I A
Ġc fg
Ġre present
Ġl ua
RE D
H AS
equ ence
G TK
g sl
s f
ĠB Y
Comp onent
b ss
S ec
FFFF FF
desc riptor
I mp
US H
WID TH
Bu ilder
čĊĠĠĠĠĠĠĠĠĠĠĠĠĠĠĠĠĠĠĠĠĠĠĠĠĠĠĠ Ġ
Ġ__ _
Ġe ffect
Ġb ad
ĠD ev
Ġargument s
v i
* >
ĠF IX
Ġinst ead
Ġa void
Ġconst ant
int eger
o o
ĠRT C
Ġu pd
ORM AL
TH READ
Ġmem cpy
key s
ex tra
++ ++
t age
Sh ape
ir on
FI FO
Ġh ow
Ġwh at
ĠD ATA
ur ed
ĠD esc
Â µ
Col umn
ON T
Ġ// !
IN TR
sk ip
r eply
IL D
R oot
ri ve
Ġg u
ĠInt errupt
ur i
T F
act iv
ĠP R
Ġw ay
" \
Ġal ign
CHAN GE
OP TION
ed ge
ch anged
Ġcr eated
ly ph
B e
medi a
Ġd uring
IN LINE
Ġex ception
Ent ity
EQ UAL
ĠSt art
t itle
F W
000000 01
Ġst ill
Ġ" );
ĠA uth
u art
ĠR X
Ġde c
V ariable
b rowser
Ġ4 0
Ġfail ure
Ġset up
opt s
ac y
a h
TRA CT
lo or
Pro xy
res ume
. ",
Pr ev
ss l
Ġalloc ated
Ġr ect
ss ert
pol l
e ch
v id
Re ce
text ure
5 12
Ġm ight
z z
Ġi eee
WARN ING
Ġ ĉ
QU I
RAN GE
Ġ" ",
Ġreg isters
d si
UE ST
ac c
TIME OUT
H z
w eight
P lay
Ġsc ript
inter val
U CH
vol atile
ĠP ORT
M edia
Ġs printf
Ġc b
A uto
m ware
Ġsy nc
SS AGE
comp onent
P ower
Ġrout ine
PI X
u ne
ĠL IC
ĠS I
ĠS ET
AT ED
ed it
net work
Ġo cc
he ap
ĠCon fig
per iod
Trans form
AUT H
ateg ory
n a
g es
čĊĠĠĠĠĠĠĠĠĠĠĠĠĠĠĠĠĠĠĠĠĠĠĠĠĠĠĠĠ Ġ
Ġcontain er
ĠM E
r ule
as ync
Ġbase d
ST OP
Ġc ell
cap s
n x
S lot
D ocument
B AD
%%%% %%%%
ht ml
l v
Ġ ERR
Ġre mov
ARG S
en a
Ġp ool
m achine
[ "
CON F
00 3
ĊĉĉĉĉĠĠĠĠĠ Ġ
TI F
r ece
Ġelement s
is p
b at
Ġv ideo
ac ing
LO B
Ġdel ta
ĠLIC ENSE
Ġd omain
! \
h ing
it r
T op
he ll
Ġad ded
Ġp id
il t
S l
th ing
er ic
SC AN
FA ILED
ĠAddr ess
ĊĉĠĠĠĠĠĠ Ġ
l g
f m
Ġh ap
di ct
Ġm on
L im
d ai
ADD RESS
s ql
op code
() ))
ĠM SG
a ut
~~ ~~
Ġt rigger
H CI
R ight
Ġd ma
ĠS ource
I ME
T ex
s q
Ġli ke
Ġdocument ation
R el
S ave
NO WN
Ġ ĠĠĠĠĊĠĠĠĠĠĠĠ
util s
add ing
un register
atter y
Ġneed s
Ġnet work
irq restore
T ON
I LL
si b
he ma
l ap
at al
Ġe very
ĠP r
IF Y
ust er
Ġpas sed
res pon
RE C
STRU CT
Ġ3 1
I Z
Res et
G C
TR IB
ys ql
N on
Ġ Â
Ex p
Ġ/// <
CA M
Ġch ip
Ġ Ã
Ġ ĠĠĠĠĠĊĠĠĠĠĠĠĠ
2 64
ĠS ER
Ġ ]
c x
čĊĠĠĠĠĠĠĠĠĠĠĠĠĠĠĠĠĠĠĠĠĠĠĠĠĠĠĠĠĠ Ġ
pro xy
ro ad
Ġd iff
Ġt ab
CT X
WIN DO
si n
ĠB ase
Ġme ans
TL S
Ġs im
C lose
ĠT ime
it ive
r w
ĠĊĠĠĠĠĠĠĠĠĠĠĠĠĠĠĠĠĠĠĠĠĠĠĠ Ġ
Ar ea
Ġs uch
b fd
Ġ* _
Ġs s
ip v
ALL OC
Val ues
B r
ot ion
ĠC R
Arg ument
Ap plication
Ġcomp onent
ĠC A
' );
Ġe p
al pha
Ġbe low
ĠC an
S urface
Ġp t
item s
Sc alar
R elease
T ING
de t
G en
mp t
ĠA r
Ġorig inal
b ed
Ġg pio
Ġ ĠĠĠĠĠĠĊĠĠĠĠĠĠĠ
Pro gram
b io
O pt
Ġbut ton
p k
ĠH T
HEAD ER
Ġr aw
al et
Read er
Lo op
Ġsh ared
Sh ow
D F
res p
gr p
end or
se quence
Util s
P ID
em u
Pol icy
im g
WOR K
Ġex plicit
ĠSD L
ĠO p
Cur sor
Ġlo ok
č Ċĉĉĉĉ
Ġ_ ("
Ġsh ift
Sele ct
p v
ĠV ersion
Hel per
mix er
t un
ost on
ol ate
ĠD CHECK
ĠInt er
G rid
Ġimplement ation
Ġ*) &
S QL
** /
ĠN ame
pl ug
Ġr ad
r p
Param eters
m id
igh b
ĠR CC
BO X
S F
en gine
W ord
Ġ0 211
Ġ ĠĠĠĠĠĠĠĊĠĠĠĠĠĠĠ
V ID
Ġd iv
Ġ5 0
Ġs ervice
Ġreg ion
ĠQ u
ĠB oston
Ġr hs
čĊĠĠĠĠĠĠĠĠĠĠĠĠĠĠĠĠĠĠĠĠĠĠĠĠĠĠĠĠĠĠ Ġ
P B
LE TE
:: ~
Ġ ec
Ġ2 56
an el
CLA RE
ul ation
ĠP aram
LE D
l c
ĠW hen
fr ames
h dev
c am
Ġ Ċĉ
Ġproto col
Ġ! (
ĠM AC
Ġvol atile
PL Y
C ap
ap shot
T ri
cla imer
IST ER
Ċĉĉĉĉĉ ĉĉĉ
Ġw r
ĠE nd
ma il
see k
ĠĊĠĠĠĠĠĠĠĠĠĠĠĠĠĠĠĠĠĠĠĠĠĠĠĠ Ġ
ist ics
. _
ĠCon trol
M ark
n n
ĠCOPY RIGHT
Ġse quence
th on
ers on
c amera
1 01
SC AL
t im
čĊ čĊĠ
AP P
R ed
St op
j or
N ames
Ġ ERROR
ĠM od
Ġdesc riptor
Sele ction
G tk
aw n
: \
Stat s
Ġse nt
t ile
R B
at om
pt e
rt c
ĠS E
ag ic
ul ate
Ġmax imum
as sign
st orage
W ait
ĠF ind
I DE
R UN
ĠLo ad
ct xt
ĠC ode
C U
m ult
O rig
Ġne g
ĠEX T
t rigger
ĠD IS
Ext ension
M ouse
A X
co very
comp r
Ġspec ial
a z
c lo
++ ]
ex ist
Ġ el
L iteral
mit ted
Ġo k
ĠB ASE
V er
CK ET
Ġ ON
ĠT emp
Ġnode s
Ġa uth
UN USED
L S
Ġm apping
Ġpre fix
ne ed
Ġcall er
ro ss
C N
NE W
dir ection
arg c
T CP
ĠNum ber
ic ro
Ġg over
ME SSAGE
RI PT
rem ote
Ġse lected
V ol
B l
mem ber
Ġv a
pr ite
Ġexpr ession
E V
con tainer
fr ont
u v
r pc
LIC ENSE
Ġs ql
m ulti
and s
Ġf ont
3 00
ul er
) /
iron ment
} },
D im
ĠL ist
ĠA c
t ick
Ġf ill
alet te
Ġex tra
8 99
ĠL oc
2 000
ter n
drv data
Ġb trfs
ok e
ic en
PRI V
ut f
lo ur
U V
C ase
Re port
lic k
ip hy
N ORMAL
Ã Ĭ
Ġk now
UT F
Ġact ual
ct p
t g
p ayload
ĊĉĉĉĉĉĠĠĠĠ Ġ
Ġm ultiple
de code
Ġdis claimer
M AR
e ver
. </
Ġ" ../
Ġ2 8
ĠĊĠĠĠĠĠĠĠĠĠĠĠĠĠĠĠĠĠĠĠĠĠĠĠĠĠ Ġ
s age
ĠD ef
Desc ription
OP ER
Ġp ending
A Y
r en
ib ility
y g
LAB EL
G B
arg ument
c v
m nt
Ġde ntry
ĠY Y
N ormal
Ġcon s
Ġobject s
Ġdir ection
C SR
p ub
Ġf inal
ĠOut put
seg ment
SE LECT
Ġcount er
N A
Ġfor ce
ĠS QL
H al
STAT IC
m etadata
f ast
CO PY
ele gate
it ed
war ning
dir ty
] ))
S ING
ĠT CP
m fd
S upport
EN TI
at i
St ep
L V
tr y
INTER FACE
Ġwith i
Ġwithi n
Ġan other
ath er
sc si
VER T
Ġf s
pro d
comp at
. "
ĠInit ialize
ĊĉĉĉĉĉĉĠĠ Ġ
Ġn l
Ġn fs
ĠK ey
| |
O V
B S
xFF FFFFFF
TEXT URE
To String
ar ation
X ML
Or der
s urface
E FAULT
c fs
E LE
IN CLUDING
as ses
lock ed
Ġare a
h and
Reg ion
Ġ Ð
Ġed ge
AC CESS
ak es
ic ally
Ġex cept
ĠRes et
Ġ< /
m eta
Ġy et
D atabase
buff ers
W allet
VO ID
ĠSy stem
MO VE
Ġ" -
LOC AL
co ver
S equence
[ %
clu ding
comm it
Re al
ac l
Ġ% %
Ġmem set
p ow
d ge
AN Y
ĠS ele
d k
v ariable
Ġs peed
Ġ url
Ġ ĠĊ
gener ic
Ġdi ag
Ġdis abled
de p
EN CE
h cd
fi nit
Ġs ort
r f
S w
Ġwrit ing
ĠX ML
MI X
Ġinclude d
t ool
m gr
x hci
Ġ& (
CL U
ĠR ef
Ġcurrent ly
g ame
Ġ* =
war n
MA CH
ĉĉĉĉ ĉĉ
Ġi dent
fix ed
w eb
Ref erence
ĠAl loc
Ġ es
ĠRedistribut ions
V ED
ri er
m u
Ġuse s
Se arch
ĠĊĠĠĠĠĠĠĠĠĠĠĠĠĠĠĠĠĠĠĠĠĠĠĠĠĠĠ Ġ
ĠW indow
Ġch ain
on d
O w
Ġ*) (
en s
C LO
M eta
Ġd ynamic
ã ģ
Ġk eep
Int eger
Ġd w
Ġg st
Ġ2 6
Ġdistribut ion
IT S
Ġrun ning
Ġlow er
RA W
res ize
ĠA s
act ers
ĠDev ice
int el
Ġw idget
Ġob tain
f a
INTER NAL
Ġap ply
r m
+ =
SIG N
res erve
sl ice
irq save
C AN
s plit
Ġh al
Ġpro duct
C AL
BE GIN
f ifo
ĠE vent
f amily
ut ed
S eg
en coder
50 9
Ġ arch
ĠA ws
Ġm s
pl ane
Ġ1 024
ĠPoint er
ĠO S
IG HT
ĠA rray
a u
Ġsuccess ful
Ġf inis
ST ACK
S ection
P ack
Ġg e
G ER
ext ent
omm u
xffffff ff
th reshold
em it
Ġ nt
const ant
Ġ5 1
un map
Ġc leanup
ĠV al
e es
A UDIO
ĠI tem
es ses
Ġst yle
Ġcall s
A uth
Ġs ide
co i
IS ING
ĠC MD
trans action
ĠM ax
" :
] ));
Ġc urr
Pro perties
ĠC or
Proto col
Ġh ardware
Ġcor respon
IP S
Point s
D elegate
In v
B UT
arg er
Ġsm all
us age
n se
C ommon
ac on
ĠA pp
an ces
ĠV M
D Y
Ġ2 2
ĠN L
p wr
MEM ORY
SN D
A cc
Ġtr ace
al ance
UNK NOWN
t uple
F eature
vert ex
pl ugin
CON D
Ġex ample
ER O
ME DI
X Y
Ch ain
Ġc s
h p
support ed
Ġpre sent
D AP
ATTR IB
set ting
H C
Pl ugin
ir d
io c
g u
On ly
B G
ĠS IGN
L T
ref erence
Ġin struction
ĠP FN
Ġm enu
ĠC lear
bo se
ul ong
Un known
requ ency
iv es
G uid
Ġre ason
Ġs uper
Ġinit ialize
ĠU nit
Ġd ump
ĠN ew
ĠD O
Ġcomp lete
nt ic
to k
Ġreg ulator
H DR
H O
Ġp op
ST ER
m ar
= -
sl ave
os s
CON TEXT
ps z
Ġle ast
ĠDAMAGE S
00 2
J S
Ġas sign
Ġ endif
second s
Ġp s
Ġf ix
RES ER
low er
O b
coi n
Ġf p
Ġs up
. *
sk ill
Ġt s
eg ra
B D
Ġow n
W i
Con nect
and id
sect or
Ġt imes
ent ity
ĠD el
Ġper form
ul k
RE SOURCE
Ġ2 1
Ġdis k
Item s
Ġtrans fer
MA G
oc us
N ON
ext ension
ĠA UT
Ġf mt
ĠIN CLUDING
pr epare
Ġs creen
pro gram
IN S
g y
int r
Pro vider
Expr ession
Ġb ox
Ġ{ {
Ġse c
ST EM
Ġ2 3
m esh
ĠI F
Ġitem s
B egin
u de
s oft
a ux
SPE LL
** */
G T
De pth
N one
ID X
G UI
eg r
cess ary
f eatures
ces sed
p ng
Ġse ns
Ġ2 7
PA SS
ff f
Ġdev ices
] ]
LI MIT
" ).
Ġc lo
ĠS N
ng x
ĠRem ove
AN I
Ġline s
Ġcon troller
Ġst ored
O ff
Ġm et
ĠS V
tl s
UP DATE
Ġthe ir
ĠAR M
Ġp lay
H Z
Ġ6 0
fi nis
Ġmd ss
il li
Ġhap pen
( ("
Ġg int
Ġdefi nition
ĠST M
Ġg uint
n ic
si z
i net
he lper
, %
ĠPri nt
BUS Y
Ġseg ment
Ġ~ (
SI S
d ist
MUL TI
AME TER
Ġp air
att le
čĊĠĠĠĠĠĠĠĠĠĠĠĠĠĠĠĠĠĠĠĠĠĠĠĠĠĠĠĠĠĠĠ Ġ
line s
Ġ equal
L icense
Ġiter ator
Ġerror s
sist ent
ST D
Ġc ert
čĊč Ċĉ
00 02
ĠT ARGET
fl ash
Ġd ig
Ali gn
time stamp
ĠA P
M ON
Ġac count
Ġgo od
Ġal pha
SET TING
ĠPRO VI
ĠO ther
CI AL
trans fer
M is
Ġde pth
os ition
ur pose
s leep
av ig
Ġ4 8
Ġw i
Ġfr ag
ac count
or iz
X T
m ach
E FF
ĠW IN
Ġvariable s
Ġap pro
ĠS ize
ĠĊĠĠĠĠĠĠĠĠĠĠĠĠĠĠĠĠĠĠĠĠĠĠĠĠĠĠĠ Ġ
ĠS pell
Ċ ĠĠĠĠĠĠĠĠĊĠĠĠĠĠĠĠ
Ġne ver
QUE UE
ĠS ub
GEN ER
sched ule
ĠS HA
istr y
w allet
per f
ĠT C
h id
res erved
File Name
ys ical
m ul
um ask
Ġp kt
Ġint el
Ġper f
Ġc ommon
S cene
ĠC RC
Ġbu ffers
Ġo map
O VER
pe ar
d u
R ad
un ion
D RI
(__ _
X G
D es
Ġrequir e
ic ient
W ITH
DE LAY
ain ing
Ã Ħ
) +
yt e
/ >.
Ġr ing
Ġch anges
bu iltin
S um
not ifier
cr ed
Oper ation
t b
ĠFIX ME
Ġll vm
E F
CONNE CT
Ġcon n
O G
a ud
Ġi tr
ĠEX PRESS
Ġr ule
S cope
ER N
B een
) &
A IN
Ed ge
ĠH FILL
I m
ĠC Y
ac ed
i ed
con vert
ĠPROVI DED
ĠSH ALL
Ġg raph
i er
SE QU
Ġmem ber
ĠK IND
Ġt ake
D river
] ),
TR IG
con troller
RT C
F ull
at ely
l m
il ities
fi nal
Ġl anguage
l at
as ure
l cd
PRO G
Sc roll
o am
Ġfr ames
un ch
if ace
DI AN
dis p
**************** ********
ĊĊĠĠĠĠĠĠĠĠĠĠĠĠĠĠĠĠĠĠĠ Ġ
et s
Ġallow ed
ist o
g ain
Ġf ixed
pr ed
N EXT
čĊ čĊč
f aces
M IC
B ody
s ol
A v
D V
C LOCK
) -
T otal
ĠU S
Ġj son
CON T
qu ot
C trl
4 000
Ġpar ser
trans port
WI SE
can cel
Con st
m al
Ġm alloc
Ġcon f
ĠS SL
V A
Has Been
SH A
Ġ* __
S ign
comp are
h l
Ġrequest ed
Ġresult s
CR Y
road cast
l an
> ();
reg ulator
Ġ" .
R out
c group
cp us
> \
) },
EX PR
pl an
ĠS UB
ĠM MC
ĠGL int
ol l
ĠJ S
pro tected
E qual
ĠST AT
ĠĊĠĠĠĠĠĠĠĠĠĠĠĠĠĠĠĠĠĠĠĠĠĠĠĠĠĠĠĠ Ġ
ENS OR
att ach
Ġremov ed
Ġen ough
čĊĠĠĠĠĠĠĠĠĠĠĠĠĠĠĠĠĠĠĠĠĠĠĠĠĠĠĠĠĠĠĠĠ Ġ
Ġac cept
p or
dev ices
con s
ĠSIGN AL
ĠW HE
Ġ" ;
ad v
icen sed
desc ription
Ġk vm
r tx
ex pected
Ġr q
ĠL i
t ot
G S
1 30
ĠThe se
Ġde t
d ialog
om ap
App end
Ġd at
dr m
Ġ ----------------------------------------------------------------
ĠS W
Ġ EN
HasBeen Set
Ġbl k
ENT ER
ĠLI ABLE
Ġpol icy
ĠB T
si m
ati n
U rl
Ġv ia
r ag
f eature
ĠDef ault
Ġp ref
ĠM C
co s
IT ER
Ġg ot
ĠWHE THER
nd er
WINDO W
ĠW LAN
Ġf b
G U
Ac count
ĊĊĠĠĠĠĠĠĠĠĠĠĠĠĠĠĠĠĠĠĠĠ Ġ
L ER
ch rome
Count er
ĠCON TRACT
Ġc ast
// #
s cope
Ġign ore
Ġr andom
sing le
Ġ( ;
Ġd id
arg i
u ed
Ġm ulti
h ub
MA LL
k ind
Ġm ost
MM C
M an
ĠC S
HA VE
SE Q
ã ĥ
v ed
Ġr ot
ĠAR ISING
Ed itor
Ġalloc ation
C or
F ULL
B rowser
Tr ace
Ġ ##
At tributes
Sh ared
z alloc
m er
Ġap plication
] \
F IN
ĠM B
v irt
m x
I t
c ut
c si
Ġext ension
Ġm any
LE FT
ter m
res ources
ĠD BUG
Ġp ush
Ġat omic
he lp
Co ord
th d
se curity
O ne
F ail
content s
T itle
čĊ čĊĠĠĠĠĠĠĠ
C lo
he me
Ġbe st
S LOT
Ġb ig
LOB AL
medi ate
Ġs er
d rop
SING LE
Ge ometry
ĠA rg
ter nal
Ġc atch
c ert
Ġb t
g g
Ġnot hing
std io
F REQ
ĠF ROM
ĠC C
Ġm utex
BUT TON
EN DIAN
r sp
IO C
Sig nal
AT T
at s
ĠD WORD
M etadata
ĠN one
ĠH W
1 024
l b
al ing
ĠA L
STAT S
rypt o
T OP
UT ORS
B IG
Ġre mote
ĠRes erved
ĊĊĠĠĠĠĠĠĠĠĠĠĠĠĠĠĠĠĠĠĠĠĠ Ġ
tain s
čĊĠĠĠĠĠĠĠĠĠĠĠĠĠĠĠĠĠĠĠĠĠĠĠĠĠĠĠĠĠĠĠĠĠ Ġ
Ġerr no
Ġ5 9
ut ure
REQ UEST
str len
IN UX
v d
D ONE
ac cept
ENO DEV
Ġw arning
---- -
N ative
argi n
Ġst orage
ĠO per
Ġt ile
ĠĊĠĠĠĠĠĠĠĠĠĠĠĠĠĠĠĠĠĠĠĠĠĠĠĠĠĠĠĠĠ Ġ
Ġre main
p attern
Ġw ere
etr ic
c q
ble m
port s
ĠB U
EG ER
Ġconst expr
Ġsy n
Ġf f
b asic
Ġp eer
VI EW
Ġr tx
ĊĊĠĠĠĠĠĠĠĠĠĠĠĠĠĠĠĠĠĠĠĠĠĠ Ġ
dir ect
ĠF ield
" .
I dentifier
ĠM D
Ġw ake
ĠT RA
ĠT ext
ĠG tk
Type Def
Ġfl ush
Ġ2 9
REG ISTER
Ġa mount
di ag
Ġ READ
ho ok
ĠCON TRIB
DE CLARE
ic ast
ĠDE FAULT
Ċĉĉ Ċĉ
af ter
nt ax
Ġv ert
EX IT
f actor
en gth
ee k
ST O
eq uest
---- ---
Ġ" [
Ġcal ling
P ost
ã Ĥ
ORD ER
straint s
5 00
Ġlay out
Ġpri ority
I MAGE
it es
CUR RENT
T ick
ĠCONTRIB UTORS
cond ition
O LE
m k
D AC
sn printf
v fe
ĠI ndex
Ġ stats
ĊĉĠĠĠĠĠĠĠ Ġ
lic it
G RA
u ite
Ġd atabase
ĠS LOT
Ċ ĊĉĠ
Ġm aterial
io v
CLI ENT
ne g
unk nown
L ow
ĉĠĠĠ Ġ
R ule
Mem ber
Ġc nt
con sole
Py Object
param eter
Un iform
d om
Bu ild
(" [
19 2
n ux
jo urnal
Ġne cessary
Ġcur sor
Ġtext ure
Ġg char
ĠTh ere
S ys
word s
A ng
pri ority
Ð ¾
int f
Ð µ
rit ical
P ref
ializ er
DAP M
Ġbit map
Ġd ist
ĠM T
am ma
ĠCh annel
iv ity
ys is
RE EN
run ning
ĠGL enum
PF N
Vis ible
ĠC FG
ĠOTHER WISE
rt l
Ġp g
Ġen sure
Ġp p
ĠN et
P WR
ĠC ont
ix er
Ġde termi
S ound
ĠP layer
F LOW
pro m
un used
ĠDe fine
Ġsi mple
yg on
hd mi
f actory
om at
Ġc c
alloc ate
mit ive
ĠT ORT
MD P
F ROM
2 02
Node s
UB LE
Ġ" <
ĠBu ffer
D oc
PLAY ER
Ġcomp at
Ð °
ĠC opy
ĠS YS
Ġap plic
ĠĊĠĠĠĠĠĠĠĠĠĠĠĠĠĠĠĠĠĠĠĠĠĠĠĠĠĠĠĠĠĠ Ġ
S US
p x
l ang
čĊĠĠĠĠĠĠĠĠĠĠĠĠĠĠĠĠĠĠĠĠĠĠĠĠĠĠĠĠĠĠĠĠĠĠ Ġ
S er
R U
sy n
Render er
ĠV IR
Ġsock addr
] +
or es
Ġcomp ute
Ġp ost
Ġj ob
ipher al
ENTI AL
ten sor
Ġr untime
Ġcop ies
H eap
R aw
Ġg fx
ĉĉ Ġ
X ml
clu ster
Ġdest ination
j oin
error s
t ol
pp ed
P ush
Ġun ion
Wi n
he ntic
orig i
Del ay
u dev
S LI
IN C
et ype
Ġf riend
i um
M e
origi n
c u
si nk
part ition
d ap
I MP
ĠPFN GL
k ill
Ġt ick
V ert
Sc hed
/ ****************************************************************
fo o
is Empty
b m
ifi es
Ġpro file
Ġgener ate
Ġc out
ne x
.... ....
ad get
CO D
X P
ĠS ND
Ġb ar
Ġr v
M F
c ar
ĠM PI
d ot
Ġcontent s
ĠR ender
Ġme di
ĠA F
Ġadd itional
Config uration
W riter
RE SH
d n
M ake
a ff
P ULL
se lected
val s
Ġpl ace
k control
or ary
Ã Ĳ
m ath
Ġkey s
alle l
ĠOn ly
L ight
l ation
1 02
Ġchar acters
CA SE
etr ics
VER IFY
REA CH
01 00
e place
ll vm
bo ok
m r
Code c
J son
Ġp ayload
s uper
Ã ĸ
rib e
Op code
ĠPro cess
G F
Ġ ****************************************************************************
B M
t sk
Ġcode c
j ection
Dir ectory
ud a
Ġab ort
Ġad apter
K it
pe at
l ers
g ui
ĠL ibrary
Ġlo okup
ĠH D
ĠF orm
Lim it
end point
T er
s printf
V C
Ġ( -
ir es
Ġb ody
r eplace
ĠR ec
ĠCon vert
c dev
T T
; \
um b
Ġs plit
Ġf eature
Ġs afe
J ob
B AR
Att rib
ĠU I
j s
is on
++ ,
ĠS K
ĠA udio
Â »
r andom
W LAN
l t
Lo okup
str dup
Ġoper ations
ro ute
t id
a led
g fx
Ġp attern
Ġt ty
Ġpri or
Stat ic
i os
ĠB lock
en code
Ġrece ive
Dest roy
ĠP HY
ĠS i
m ouse
Ġper iod
IO CTL
t le
av ing
n str
In sert
{ {
SPE ED
ir r
Ch unk
f h
read er
T uple
ĠD W
======================================================================== ====
Ġsy m
si p
ĠSt ate
ĠM ap
p info
li ance
Q uest
i ommu
if s
M aster
pack ed
AT OM
trans form
Ġc ause
var s
Ġp ix
Ġat tributes
Ġad just
le gate
ig en
Ġp ad
ĠF F
ĠP ort
// ----------------------------------------------------------------------------
PAR AMETER
Ġse lection
EX CE
SY STEM
Content s
ut ation
d ummy
s ound
ĊĊ ĊĊ
xf e
= \"
h z
LA ST
ĠDis able
Ġact ually
Ġ --------------------------------
R S
d y
M U
Ġacc ord
SUPPORT ED
p ic
P op
M utex
ĠM IN
99 99
PO ST
Ġb oot
######## ########
o stream
ax is
P N
j iffies
ab ilities
ir mware
ĠL ay
g id
E IO
c li
e i
6 00
Ġse par
V S
A sync
... )
Ġm aster
Ġin cluding
d ay
ĠM essage
ĠW h
SS ION
Ġnet dev
FOR CE
param eters
W rapper
R ot
n fs
AL I
ID LE
U A
Ġsw ap
Ġpro p
T V
Ġh dr
Ġm esh
ĠJ SON
C Y
ri ct
Ġp a
Ġm essages
TRAN S
11 0
ĠC lass
lim its
i eee
M ENU
oriz ont
Ġ extern
ĠO MAP
DE P
Print f
xFF FF
ĠĊĠĠĠĠĠĠĠĠĠĠĠĠĠĠĠĠĠĠĠĠĠĠĠĠĠĠĠĠĠĠĠ Ġ
d uration
v f
S END
s bi
r ase
pr ess
Ġpro ject
Z ERO
Ġexist s
CP P
Ġat om
m ic
bri dge
non atomic
PRO P
N X
it al
Ġup per
ĊĉĠĠĠĠĠĠĠĠ Ġ
Y Y
Ġf low
e ve
= '
Ġwe ight
r eloc
ĠPar se
R W
Ġb asic
Con dition
sub stream
SD L
g rid
INST ANCE
Ġp ng
ar ator
g uid
Ġneg ative
SER VER
w atch
co mplex
C omm
Ġdis sect
f etch
se lection
Ġgener ic
m map
Z ero
CRE ATE
XX X
MAT CH
GL enum
con t
pro perties
Ġd t
ĠIm Gui
IN ED
ĠF A
Ġsn printf
ĠO K
isto gram
FLA SH
Ġinit ialized
DO MAIN
al ias
Inter val
ERR IDE
P attern
Ġter min
EX EC
c lip
iz es
ĠP IN
Ġ DEF
s uccess
s mb
Ġcon t
L CD
cre ase
] (
ĠH OLD
G o
INT ERRUP
Ġph y
group s
Ġre ply
SPE C
ĠE xt
L AT
Ġext ent
Ġs coped
UR A
PACK ET
Ġs cope
d v
ĠP TR
d sp
Ġst andard
b ank
b atch
std lib
Ġg ame
r on
R est
ict im
> <
CON N
ordin ate
E MP
ĠE TH
T ile
sc roll
Ċĉĉĉĉĉ ĉĉĉĉ
Gener ic
Dir ect
D AT
M G
s mp
U int
SH ARE
RESER VED
to uch
Ġm lx
d ynamic
mm u
NU MBER
Ġm erge
li sion
Sh ort
oper ations
c plus
ĠS pec
H B
li es
Ġl et
RE SP
R x
h ot
čĊĠĠĠĠĠĠĠĠĠĠĠĠĠĠĠĠĠĠĠĠĠĠĠĠĠĠĠĠĠĠĠĠĠĠĠ Ġ
D WORD
t f
PO INTER
wake up
comp letion
D iff
Ġtime stamp
Se cond
al igned
C DC
n id
Ġc trl
Ġf req
b attery
Ġto ol
as et
ĠBO OL
co okie
ch ildren
SH ORT
Ġp sz
u uid
MAR K
C MP
ST RI
J SON
Ġi b
bu cket
CL R
ĠN ET
Graph ics
Ġcase s
Ġorig i
Ġmethod s
Ġmac ro
Ġv ertex
ab ort
g est
E nc
Ġdesc ription
ce ed
SI C
ĠF UN
Ġorigi n
READ Y
Ġgr ant
ex cept
Ġa st
ĠCh ar
b ottom
H igh
899 4
E TH
OLE AN
__ ((
ĠC P
Ġcorrespon ding
ĠAp ache
size i
Ġop code
n y
Ġf all
Ġcon structor
Â ´
Ġsens or
IP V
/ ************************************************************************
k b
ĠS P
Pro gress
Ġopt im
ĠO V
COMP ARE
r hs
Ġread ing
process or
Sele cted
Ob server
i no
Ġet c
ĠT REE
}, {
Ġover flow
n or
S m
X FF
ifi ers
Del ta
TE MP
Ġgr pc
Ġre interpret
Ġ201 0
e ffect
INE T
c n
25 0
TR I
ĠĊĠĠĠĠĠĠĠĠĠĠĠĠĠĠĠĠĠĠĠĠĠĠĠĠĠĠĠĠĠĠĠĠ Ġ
ĠM i
BYTE S
Gener ator
Ġbe h
gle w
orizont al
Ġret ain
om eth
B IND
sh utdown
Ġgener ated
List ener
ss id
I W
nc mp
k s
s fr
Ġoption al
ĠCO MP
: "
ĠG o
Ġf n
ĠI EEE
AT TA
up lic
ometh ing
Ġs erial
co st
expr ession
Ġder ived
LA PI
cla im
c ipher
up per
Element s
ale nt
ĠV K
e ason
Ġm id
G NU
Ġp index
K EN
ĠB SD
ĠDesc ription
eh icle
ĠB A
log y
Hel p
Col lection
un ref
ĠRes ult
k vm
li er
Ġc v
Ġ ul
ĠCo unt
W h
ĠG EN
DO UBLE
Ġchannel s
spec ific
Ġpacket s
cplus plus
Ġexist ing
UN I
i nstr
S peed
:: _
Ġpr ec
Ġus age
ĠG TK
co me
BO OST
que ues
Ġis n
Ang le
ĊĉĉĉĉĉĉĠĠĠ Ġ
23 4
Ġn v
con nected
Ġrec v
Ġp thread
sl ab
SC R
ĠB US
d h
DI G
, (
p n
Ġv ma
W arning
pe ned
Ġdest roy
av ctx
c rc
" ]
ĠD on
S Z
X F
Ġpermission s
ĠIn valid
m q
C lip
ĠI mage
S ort
An im
ĠN E
ĠP ER
v es
bd a
Ġun known
pen dent
Ġin sn
r and
' .
ne s
pt s
ĠC LA
si x
a e
H P
RE V
an al
PI PE
r eason
K ernel
Ġs aved
ct ure
Ġcontain ing
_ ("
De fi
Ġe ar
age ment
av ior
mis c
Ġs b
G LOBAL
Ġid le
Ġwi n
Ġf il
Ġre place
B asic
a its
Ġth ose
Ġrequest s
Ġen gine
S MP
Q T
de nc
C amera
Ġg boolean
av ailable
i nf
Ġle ss
16 0
Ar ch
p w
Bit map
ĠO B
Ġi x
//////////////////////////////////////////////////////////////// ////////
for ward
b w
F ill
CLE AR
ĠSele ct
C ustom
st ed
S eq
ev t
R P
string s
Ġp erson
vol tage
ific ate
pr es
Ġ3 6
Ġap pear
Bound s
on es
ĠF L
(& (
T ensor
ip h
col s
m f
Ġcon version
ER Y
Ġst mt
Pro p
ri p
ĠL CD
av g
11 1
ap ply
L ib
Ġw ell
w iphy
Ġpart ition
sh ader
ĠS IG
lo aded
TA SK
Req u
N OP
ĠĊĠĠĠĠĠĠĠĠĠĠĠĠĠĠĠĠĠĠĠĠĠĠĠĠĠĠĠĠĠĠĠĠĠ Ġ
Ġdirect ly
e pi
Lo ader
D LL
ĠM P
BO ARD
Ġbo ard
x fs
Ġf i
ĠT A
Ġ** /
alloc ated
anc ed
Orig i
Ġre stri
Origi n
semb ler
Ġm t
RE LOC
ĠAUT H
pro gress
ĠUS ART
init ialized
ĠNO TE
fr m
W D
? ?
Ġsub ject
of s
com ing
s size
Ġm o
Ġr ound
Â £
ĠPRO C
init ial
Ġn b
e et
Â ·
ver age
i w
Ġin et
MAG IC
H R
ĠC ommand
connect or
Imp ort
Ġd oc
-- )
Ġpro b
v ir
000000 02
ĠF rame
ex port
C lock
ver ify
le nd
Ġl arge
ig r
z ip
Ġm dp
ĠC urrent
L K
ĠF rank
F ace
it ude
B IN
rc v
EFF ECT
w b
Ġ201 2
DRI VER
Ġext ernal
si mple
01 0
andid ate
ighb or
ĠRE T
HT TP
ĠCON D
ai ro
c y
Ġreg s
J ECT
V D
St d
00000000 00000000
OK UP
' \
F AT
00 4
ĠDI SC
d ocument
Ġmod ification
oper and
ad just
for ms
Ġd ue
Ġoper and
v en
B LE
ĠC WE
v if
NAME SPACE
amp ler
q t
Q P
ĠTh read
cpu freq
Ġen coding
F inis
V P
V OS
PK T
Ġc f
Ċĉĉĉĉĉĉĉ Ġ
D SP
Dir ection
ign ore
o ok
ĠR ight
ĠR equest
mon itor
Ġass ume
Ġd istance
Ġ ut
U sage
thread s
c enter
Ġcomp letion
he et
Ġinter val
ur ity
PRO PER
VE C
------------------------------------------------------------------------ ---
eap on
al ity
t w
ver s
VE CTOR
am bda
g ent
H ttp
PRO M
Ġv p
cr eature
quir e
aw s
13 01
ĠV er
n one
/ %
Ġinterrupt s
av ail
n ost
IT CH
ĠOther wise
CALL BACK
vol ume
ĠM I
ĠGL uint
ĠC G
Ġimp ort
he x
Ġcon tribut
C ut
comp ute
E VER
U G
Ġsql ite
if th
Ġpro perties
Ġst ride
Ġow ner
Ġset s
Di ctionary
ĠA LL
R ING
E A
D b
F low
Ð ¸
Ġthread s
RE LE
TIF Y
SA MPLE
ĠS e
Ġexpr ess
ĠS A
ic ate
Ġ201 3
* -
sample s
ĠR A
ele ments
ĠST D
amp ling
ĠF irst
iver s
Ġhe ap
ret ry
back end
An imation
fi n
for med
Not ify
S witch
Ġpro cessing
Ab stract
Ġex pect
over lay
Ġm etadata
ĠA CTION
finis h
t ex
Ġ) {
net if
Dis able
Ġ201 1
ph ase
Ġ3 3
A xis
Ġf requency
St mt
ĠĊĠĠĠĠĠĠĠĠĠĠĠĠĠĠĠĠĠĠĠĠĠĠĠĠĠĠĠĠĠĠĠĠĠĠ Ġ
Ġc group
th r
Ġ[ %
n dev
se cs
PRIV ATE
Ġend point
ĠFrank lin
MI SC
Pro ject
Vol ume
S imple
d og
f v
Ġ elf
ĠF loor
r atio
ĠL IB
AN G
Ġpro tected
g ot
work er
Ġ201 4
Ġf ast
anag ed
Ġmod ified
uct ion
RO P
Ġ ENC
Comp are
ĠVAL UE
Ġs leep
CT P
ac pi
ĠMem ory
H PP
I CT
Ġ ngx
AC CE
Ġd c
Ex it
sh are
Ġin dent
auth or
und le
F M
Ġf ace
Ġ* >(
L i
w rap
D ep
sc all
k i
Ġupd ated
ĠW ait
Ġd rop
Set up
Ġsecond s
init ialize
SY N
be fore
er ator
A ssert
IO S
T rigger
H L
Ġ* >
vl an
r ic
Ġcal cul
D st
read l
co eff
Ġd ummy
v sp
null ptr
temp t
D istance
xF E
table s
M PEG
S Q
per m
C fg
Ġpro per
Ġ0211 0
aa aa
and roid
Pi n
Ġ ĠĠĊ
C OR
Event s
Ġc ycle
o y
Ġan al
Ġd hd
sum er
) "
AN K
rel ax
ail s
d le
iv ely
at tributes
Ġre st
N e
ĠL ine
c apture
sc ore
Re ply
Ġbi n
th row
cl one
A nal
or ing
Ġcommand s
i ally
ĠW orld
ĊĉĠĠĠĠĠĠĠĠĠ Ġ
________ ________
Ġsh ape
D at
Ġin side
g db
os ite
ry ption
Pri ority
Ġ3 5
Ġde code
STO RE
FI RST
Ġc ustom
ĠU ser
ĠP ACK
ar p
Ġt cg
v dd
Ġr s
ĠF ifth
Time out
D K
Ġp o
order ed
G u
ĠR un
b lob
Ġhand ling
Ġstart ing
dap m
con v
SS ID
Ow ner
ĠB FD
PE D
ĠG r
ass oc
Ġt im
ĠSPE CIAL
ĠDISC LA
Ġb and
In str
ec ode
xa a
L B
Pi pe
ou ch
NS String
bound s
A mount
SO CKET
Ġpr ed
set s
ĠN ow
Â ĥ
Ġd ate
Ċ Ċĉĉĉĉ
W eight
IN SN
ĠT imer
ĠDI RECT
Ġ angle
m ay
ĠN EG
Ġs cr
part y
to String
y pes
SE G
<<<< <<<<
C apture
Ġa xis
b ig
Ġpoint ers
pth read
t or
) ]
S ingle
line no
GL uint
J O
Ġstring s
EXT EN
ĠEx pr
R ep
Ġread y
Ã ı
m erge
Ġrequir es
h int
writ ten
000 4
Ġ3 4
nd o
Ġun ique
B F
o me
Ġper mitted
ĠR eal
Ġent er
1 0000
Ġs pi
2 10
p Mac
v reg
SU M
S uccess
ĠP C
Ġmedi a
u ous
que ued
mb hc
Ġ est
c ycle
ĉ Ċ
sh a
Ġsc si
ph one
R V
Ġc lean
() :
Ġ čĊ
Ġg rid
Ġt itle
ab ab
bi as
A URA
PH A
F actor
N ING
F ixed
io mem
Ġse curity
con tains
IS R
SCAL E
Ġde al
SUP PLY
WA KE
ĠM DP
Ġm ount
Ġun used
wh ere
Ex ist
ĠF l
Ġimplement ed
render er
LE EP
Ġk zalloc
Ġcpu freq
R andom
LI GHT
struct ions
Set ting
Ġm ult
ĠCon text
scan f
Ġf actor
DEC REF
SH AD
Ġfor ward
File s
API ENTRY
Ġhe lp
v endor
L IT
Ġm ouse
m ost
G X
pro ject
Ġpl ugin
ĠN UM
bus y
g adget
ĠSER VICE
Block Index
TE CT
*) &
Ġn la
Â ½
ĠH RESULT
ĠN V
Ġcomp are
b est
C lick
Ġalign ment
wh ich
ordin ates
MPL ATE
BU ILD
E B
PFN GL
chron ous
ĠA nd
S CHED
c ached
Ġ" ";
bu ilder
de tail
ĠX XX
Ġac pi
Seg ment
valid ate
Ġrow s
activ ate
ter min
Ġm b
Ġh ig
SC SI
Ġapplic able
) ");
Ġk ind
e k
ript ors
Ġ200 9
fail ure
Ġp y
us ion
rg b
d wc
SEQU ENTIAL
dir ectory
MO V
r mi
Bi n
Ġpr event
Ġc a
< =
cl ick
c ss
Ġt urn
crypt o
Â ±
ĊĉĠĠĠĠĠĠĠĠĠĠ Ġ
al g
Ġfor ms
Ġsched ule
p md
ĠF S
Ġret ry
Ġwe b
ĠĊĠĠĠĠĠĠĠĠĠĠĠĠĠĠĠĠĠĠĠĠĠĠĠĠĠĠĠĠĠĠĠĠĠĠĠ Ġ
writ er
RE QUI
ov ed
Ġwr ong
ĠT x
de tails
Window s
s aved
le af
Ġk gsl
w alk
enc ed
US R
IN V
Type Id
D lg
G N
im ate
n ative
ab ly
-+-+ -+-+
11 11
dis c
BO OT
min or
k obj
Ã İ
Co uld
Ġappro pri
T mp
Ġ" ");
us ic
ENT AL
F ocus
Ñ Ĥ
Ġ2 000
up d
L F
cal c
se ud
Ġ equ
por ation
ĠW ith
Ġs g
_ ##
C ert
YS QL
> =
OW ER
ĠSc ript
b att
AS M
BO OLEAN
P WM
mt d
Ġinit ialization
delay ed
p wm
sh adow
v r
F ITS
s cene
ĠIN DIRECT
č Ċĉĉĉĉĉ
Ġmin imum
ĠG st
ro tt
ĠDB G
ĠC V
/* !<
Ġcheck s
ĉĠĠĠĠ Ġ
Ġmaterial s
Ġ200 8
GA IN
=- =-
pro g
et ime
r ans
x fer
ĠHOLD ERS
ER A
*/ ,
Ġd uration
Ġtable s
ĠCor poration
ari es
Ġaddr esses
INIT IAL
Ġpro gress
Block s
Ġit self
ap ache
D X
load er
go od
c ustom
h h
Ġs q
Ġsl ave
LE X
U ME
avig ation
MEDI A
Ġlo aded
Ġver ify
Ġs urface
md dev
A MS
ĠAuth ors
P AN
Ġim g
SI X
ST S
Ġ/* !
DO M
8 0000000
T M
ĠSN DRV
ĠG C
* );
Ġnot e
ak ing
Co ins
h r
id ual
ĠAlloc ate
Ġh d
Al low
get Type
rid ge
ä ¸
Ġbr anch
ĠQ Variant
++) {
ĠA RE
Ġq p
ĠC M
Ġsc alar
Ġh id
de tect
PER M
Ġapp end
P ix
G LAPI
Back ground
ĠD AC
Ġcl uster
& )
j ava
. )
33 33
Â ¼
Ġsig ned
allow ed
ÃĬ Ã
Ġm k
lo p
ĠS EC
ho me
ĠM atrix
RI PTION
ĠA li
S n
ĠP acket
ak en
A ws
ĠGL sizei
Ġs omething
f ault
Ġstate ment
de coder
eat er
bi nary
AT TER
M aterial
DR M
ĠCOND ITION
TH RESH
ĉĉĠ Ġ
P PC
ĠW R
w rapper
cast er
RE L
ch o
Ġn or
Ġcr e
SC RIPT
čĊĠĠĠĠĠĠĠĠĠĠĠĠĠĠĠĠĠĠĠĠĠĠĠĠĠĠĠĠĠĠĠĠĠĠĠĠ Ġ
G PU
ag ick
av es
Ġhal f
Ġcon nected
Ġres ources
Al pha
ĠH OW
Ġ8 0
Ã ĥ
compr ess
DE L
E lem
RO OT
Ġd x
Ġ ath
POS ITION
Ġm anager
ĠCON SEQUENTIAL
Ġ[ [
Ġd m
p le
P ending
cmd s
ĠM ask
Ġx hci
head ers
// ****************************************************************************
rest art
ĠP LL
Ġre ally
Ġ} },
ĠO ffset
d istance
Alloc ator
MO TE
ELE MENT
Ġa f
Ġ" :
ĠĊĠĠĠĠĠĠĠĠĠĠĠĠĠĠĠĠĠĠĠĠĠĠĠĠĠĠĠĠĠĠĠĠĠĠĠĠ Ġ
Ġth reshold
& ,
ĠF IF
SI M
INT EGER
R CC
Ġwait ing
AL OG
Ġs ctp
str ncmp
ĠLoc al
12 7
K P
Ġcr eat
00 7
Comp lete
ĠM EM
FO UND
w char
Ã į
DI E
num eric
Ġ Ċĉĉ
. %
D W
TRIG GER
ĠD T
Ġf w
F ound
ent ial
Ġi dentifier
GEN CE
Ġme an
ĠF E
DU MP
I dent
ĠPRO FITS
ĠM S
Ġch an
ag ing
Ġb p
so ap
si red
RE AL
function s
Ġ" (
Mon itor
prod uce
* )(
Ġr d
Bo olean
Ã ĵ
P ART
[ ],
L ower
Ġ5 12
++++ ++++
x mm
CLO SE
ĠR et
l un
Ġ ENABLE
Z one
Ġp Mac
C nt
vis ible
LI GENCE
dis abled
" %
Ent er
D ist
MM U
C V
LO OP
Ġhe lper
Ġvol ume
Pl atform
DEF INED
AP B
RA P
IB ILITY
3 90
ĠNEG LIGENCE
ver bose
LO OKUP
N PC
ay s
Not ification
Ġj iffies
ip i
PRE FIX
s ue
ab c
ĠLO SS
ĠP A
Ġh ci
SS I
R ole
Ġph ase
DISP LAY
ip c
ĠAC PI
00 8
ak er
h u
Ġcomp liance
dent ial
ri eve
m ysql
Co lour
xf c
us r
ĠCL K
ĠA b
M SC
LAY ER
Â Ĥ
HER E
ATOM IC
ĠSTR ICT
Ġc ar
DI P
Ġaut omat
ĠP OWER
In formation
CO UN
on line
OT G
H int
f un
Ġign ored
Ġocc ur
P aint
Ġ) .
VERT EX
W nd
IN CLU
ud p
ai ling
put s
Ġj s
ĠP RI
Ġbound s
Ġcomp iler
Oper ator
J OR
M achine
Ġg fp
li ct
REG ION
ĠW L
ALL OW
ul se
ad j
ĠS TA
Ġtrans form
Ġsk ill
Ġ*/ ,
Ġ3 30
at ype
l ace
ĠP WM
(" -
pass word
T G
Ġr tl
g gle
er ences
Dis k
File name
FO REACH
Ġt m
Ġo ps
p ull
oper ation
PROPER TY
st it
ren o
br anch
M y
valu ate
md ss
en coding
V irtual
ai se
ĠPr e
Ġcons ider
Ġb ottom
D ynamic
A CC
act ual
Ġus ers
Ġc amera
mt u
z er
> "
Ġdefine s
Ġc i
Ġi con
ut or
Ġs v
sp an
Ġcomm it
) ((
File Path
char s
Ġcal culate
ĠEX TI
x pr
CR C
over flow
W r
ĠMode l
p adapter
ĠH ow
Ġ END
ĠĊĠĠĠĠĠĠĠĠĠĠĠĠĠĠĠĠĠĠĠĠĠĠĠĠĠĠĠĠĠĠĠĠĠĠĠĠĠ Ġ
Pre fix
ĠN e
ur st
er ature
XX XX
ĠPl ace
ĠL icensed
ĠSi nce
stream s
ee prom
debug fs
clu sive
SIG NAL
Ġsample s
Con vert
fir m
, },
Ġk nown
Ġl hs
x cc
yy vsp
Ġsh all
g em
it tle
L atin
ST IT
pri o
sys fs
S em
Di ag
Ġ201 5
OD S
h ip
case cmp
b dev
ub e
An y
Ġpl ane
TRA CK
option al
Ġex tract
čĊĠĠĠĠĠĠĠĠĠĠĠĠĠĠĠĠĠĠĠĠĠĠĠĠĠĠĠĠĠĠĠĠĠĠĠĠĠ Ġ
ĠS UCH
Ġaccord ing
MA STER
er ation
CID ENTAL
ĠTRA CE
Ġt ANI
prec ated
T AB
CNT L
O ld
dis patch
QU ERY
State ment
Ġex act
ĠStr eam
inst all
object s
Ġf irmware
ĠAR G
Ġany thing
Q ual
D ict
ĠCol or
M PI
5 64
Ġ 99
Ġget s
55 55
Ġhead ers
ĠIN CIDENTAL
rad io
Ġg cc
Ġg c
ST EP
Ġd ot
w p
ĠT ry
")) );
ar ison
Ġ} );
12 0
Ġcr eature
ac cel
P atch
D one
mg mt
w eak
Bi nary
Ġ quest
Ġhttp s
Ð ½
02 0
ĠQString Literal
Ġp urpose
ĠV ER
SC II
par m
PU B
Check ed
h ist
ĠL P
URE MENT
Â ¹
AL PHA
w orld
Ġcon sole
ĠGL float
Ġb b
Ġ4 5
std out
ĠINT ERRUP
ind ices
Con straint
eloc ity
ma jor
ver ter
x p
ĠS m
sd io
ĠDel ete
ĠWindow s
Ġli m
ĠA ct
ĠFIF O
INTERRUP T
Ġcon struct
Ġgover ning
D uration
l hs
De coder
M V
ar b
w er
r ession
ĠM ac
ĠS L
h old
S MB
Init ialize
ĠAuth or
cp umask
sup ply
SER IAL
Ġ ĠĊĠĠĠĠĠ
Bo ok
ead er
B est
ĠCr eature
Ġg fc
ĊĉĉĉĉĉĠĠĠĠĠ Ġ
Ġpro xy
Ġtest s
set Text
im m
Ġmat ches
ĠC F
SY SC
IME D
ĠCr eated
Ex ternal
*/ )
Ã ĳ
ĠT able
BL K
= */
SY M
Ġvis ible
Ġm eta
ĠC OL
Ġde ad
U GO
Ġc are
~~~~ ~~~~
Ġrel ative
AT IVE
ad ing
ces ses
ĠU RL
Ġ0 0
, ___
Ġdetermi ne
ĠP h
At om
ĠM UX
S im
INE SS
ear ly
A IF
VAR I
S ir
H it
en ame
G SL
Dis patch
Ġdir ty
Ġd ialog
Ġre produce
w ind
ĠBu ild
alloc ator
qu ant
m agic
Ġ ĠĠĠĊ
02 00
000 8
FI C
ĠIN VALID
Ġgrant ed
ĠU sed
Sh ift
TO M
as y
STIT UTE
A fter
IL T
ateg y
ĊĉĠĠĠĠĠĠĠĠĠĠĠ Ġ
ĠA SN
seud o
c us
cm os
ĠM ove
c ed
)) ))
XG BE
Ġappropri ate
Ġc x
ĠFLA SH
A E
O ID
15 0
Byte Array
ĠT F
tra its
**** *
packet s
th ird
Ġnum bers
> *
ĠDe bug
Ġtest ing
6 000
OR ITY
a jor
Ġ" _
Ġc ut
ĠĊĠĠĠĠĠĠĠĠĠĠĠĠĠĠĠĠĠĠĠĠĠĠĠĠĠĠĠĠĠĠĠĠĠĠĠĠĠĠ Ġ
ro ma
a id
ar ant
pl at
Char acter
FA ST
ĉĉĉĉ ĉĉĉ
tl v
d ns
ĊĉĉĠĠĠĠĠĠ Ġ
Ġallow s
ĠMO DE
J NI
DI F
cap acity
ĠMod ule
%%%%%%%% %%%%%%%%
Ġs u
ĠA ssert
Ġremain ing
VI SED
Ġm ysql
@ @
ĠE lement
Ġhe ld
MA JOR
NO TI
Ġar ound
C XX
Ġhandle d
ĠEV EN
p at
ĠQ List
Ġv ery
Field s
Ġdistribut e
Ex port
ph an
P anel
Ġin crement
Ġb io
o h
Un able
ĠT S
N AM
ax i
m es
F etch
A ut
Ġs pin
//**************************************************************************** *
v ariant
Ġu c
i ate
ST M
Ġ DEFINE
ĠP i
F n
line ar
L e
Ġc m
REG S
ĠComp ute
exec ute
k it
ĠEX E
ri nk
Ġprint k
] :
SS IBILITY
ĠB o
P OL
B us
ĠP F
Ġlo ff
} );
Ñ Ģ
FAT AL
Ġ(( *
ĠBY TE
ĠW AY
10 4
he st
Ġ" "
Ġal gorithm
ĠS ave
ut es
list en
ist ic
' ll
Ġcom ment
x mit
ĠBA SIS
ĠM ethod
Ġh dd
DEP TH
ĠH E
ĠV ec
PIX EL
Ġpixel s
D HD
PRO CESS
part s
Rece ived
Fr ag
Ġ... )
Ġc enter
Sw ap
S LEEP
Ġdefi nit
ĠI XGBE
ĠAD VISED
Ġd s
); \
leg al
S ink
Ġd ict
; )
B SD
nt h
q os
ĠC lient
Ġregister ed
al s
ĠSTAT US
Ġno except
g st
qu are
Ġt ol
ĠP I
Ġn ative
Ġu art
ub Key
ĠR O
pm u
ĠCONDITION S
a unch
ĠSERVICE S
s ame
DE ST
se ss
St ub
w pa
A K
ĠH el
ĠPO SSIBILITY
Ġd amage
INT EL
> ;
em on
n cpy
pa int
Ġ4 4
IP HER
D ig
S ENSOR
SE SSION
VI C
sh ould
PO LL
unc ate
čĊĠĠĠĠĠĠĠĠĠĠĠĠĠĠĠĠĠĠĠĠĠĠĠĠĠĠĠĠĠĠĠĠĠĠĠĠĠĠ Ġ
Ġar m
ĠV is
er c
ĠCal led
Ġspec ify
Ã ©
ph ba
L INUX
ĠS witch
sub dev
Ġp aint
ĠHOW EVER
d yn
Ġin str
ol ved
ab fd
Ġre loc
Ġoffset of
ĠQ COMPARE
result s
hal f
Att ack
Ġs sl
L ite
Ġ ĠĊĠĠĠĠĠĠĠĠĠĠĠ
SA FE
Key s
ĠGO ODS
ag ent
ĠA ST
R untime
ĠP L
() [
C ard
ĠE nt
N s
<< "
ĠLi nux
z on
Ġc rypto
Ġt i
ĠM y
ĠG raph
ĠS uite
Ġ{ };
spin lock
Ġg uid
ĠForm at
Row s
Ġde leted
ĠPROC UREMENT
ad r
CH IP
U MP
ĠTHE ORY
( {
Ġm ade
rout ing
am ount
Ġp atch
de mux
ĠDE CL
SA VE
D amage
ĠBUS INESS
UN LOCK
U pd
ĠRedistribut ion
T eam
ĠSUB STITUTE
Ġ\" %
istr ation
ĠSet s
MPL ARY
ĠA CE
st s
bl ank
ĠNS String
ND ER
Â ¸
A ss
ĠRe ce
CH G
D SI
SUS PEND
Ġn one
SHARE D
b x
ĠU LONG
n ner
Ġ --------
Ġdesc rib
ĠEXE MPLARY
Ġgo ing
ĠD raw
ĠA DD
Ġcol umns
Ġat oi
tag s
D er
ĠStr eet
ĠCA USED
ĠMA SK
sect ors
Ġnot ify
de s
ic mp
g be
Ġmis sing
Ġcop ied
Ġq emu
os er
======== ====
ĊĉĠĠĠĠĠĠĠĠĠĠĠĠ Ġ
Object s
enc il
Ġs r
dis connect
Ġv i
le e
h istory
al gorithm
ĠDISCLA IMED
Ġlimit ations
Ġ ack
Ġto uch
ĠS M
ĠN T
D rag
Ġf eatures
A UX
Â ¿
Ġpart ic
if p
str cpy
G ATE
ade on
st age
Ċ ĊĉĠĠĠ
B AND
de ad
Ġbu ff
i nner
B P
DE S
ĠInt ernal
Ġs f
ĠCON ST
ĠINTERRUP TION
ĠMA CH
Ġli ght
gr een
A pi
Ġen c
ĠV AR
di e
Â ¶
ĠL ED
com ment
P RES
le v
Ġent ity
gn ore
TO OL
! ");
() {
Ġcheck ing
I CE
ĠLO CK
medi ately
Ġso ap
ĠG ame
Ġw on
ud c
TYPE S
EXT ERN
action s
p et
1 80
Cr e
Ġ' ,
Ġc lip
H and
EXCE PTION
D N
ĠO ver
ĠTr ue
ĠE E
un ic
S i
O k
1 16
HD MI
COMP AT
map ped
Ġ6 3
en ch
Ġ@ {
Ġs mb
SER VICE
PL AT
Ġre store
Ġph ysical
C String
TE MPLATE
ĠC UR
LA CE
TH ROW
) ].
end ian
I mm
DE LETE
ĠT arget
Ġinput s
Ġrel ated
return s
ge ometry
EMP TY
p Ad
Ã Ī
offset s
Ġ= >
Ġe lem
Ġle g
ĠĊĠĠĠĠĠĠĠĠĠĠĠĠĠĠĠĠĠĠĠĠĠĠĠĠĠĠĠĠĠĠĠĠĠĠĠĠĠĠĠ Ġ
ĠG lobal
ĠM ark
Ġco eff
LAN G
S LA
t n
Rem ote
Ġ/ =
Ġt ail
Ġ ĠĠĊĠĠĠĠĠ
Com bo
Ph ase
Ġto k
ĠUN IT
MPLE MENT
pro ps
Ġwork s
R AD
Ġ-- -
i op
ĠDe cl
is h
UT EX
Ġm uch
not ation
ĠP G
Ġmatch ing
ĠCON NE
Ġpro blem
ĠP lease
D ump
1 99
d printk
scr atch
ĠP NG
Ġ DEVICE
Pr ed
stat es
Ġch ildren
n il
Ġ ĠĠĊĠĠĠĠĠĠĠĠĠĠĠ
(( *
x i
ĠP art
t od
130 7
R R
r ates
f name
co mb
t ers
Ġh it
on y
h ba
Ġ3 7
as c
cur ve
Ġs Log
ĠG e
ibr ation
Ġ200 7
E mit
g reg
V B
Ġr adeon
ĠD est
S ensor
ro pped
se ed
Data Type
l ut
pixel s
Ġagain st
de pendent
Ġt v
IR UGO
ĠEx ception
S elf
Ġre start
n and
MIX ER
ĠP RE
Ġh i
Ġc ached
Ġad v
ĠD et
Ġc li
h older
ri ns
t imes
c lean
64 4
ĠCH AR
Ġm apped
ur f
pe ated
P AL
Ġbound ary
lo pe
MODE L
ĠH ost
Un icode
Ġl at
Ġstr cmp
56 7
SET UP
n orm
vent ory
ap ic
mplement ation
struct ure
i li
- (
ĠT I
M apping
I EEE
Ġrc u
Y ou
ĠI ter
P TO
dim s
Ġexec ute
ĠC om
relax ed
Ġback ground
US ART
Ġst uff
Vertex Attrib
ATTRIB UTE
ĠF ailed
d uc
xF C
Tr ue
n m
un ce
ĠC lock
i ation
Ġl aw
Ġre v
comp iler
Ġlong er
Channel s
Ġm v
Ġ4 3
Ġ4 2
" >
ĠO FF
R N
pc ie
c id
0000000 4
ĠO PT
or se
Can vas
Ġr pc
e val
Trans fer
freq u
PRI ORITY
ĠM at
k p
NO RE
L M
ar se
Ġcomp leted
ĠEx ec
input s
g uint
fil p
Ġ@ }
q q
TO UCH
Ġsupport s
c uda
ok ed
Ġd uplic
Ġpack age
ient ation
il ar
Ġc t
rece ive
Â ³
G FP
U sed
Bu ffers
Ġv os
l on
Ġd y
Ġact iv
RI X
right ness
Ġstart ed
PROTO COL
ul ated
r eed
host name
Defi nition
Ac cept
Ġ er
Ġg db
Â ¬
Ġse ctor
ASS IGN
r tp
wh at
ĠM M
ĠEx p
pri mary
St a
Ġt c
ĠH as
Ġdim ension
C enter
S ID
finit y
Ġal igned
EX TI
IS O
ĠVer ify
Message Box
Ġt egra
Sec urity
ur ther
tr ap
T D
ĠST ATE
ĊĉĉĉĉĉĉĉĠ Ġ
Con f
ph i
map s
d rive
ar es
[] )
TO KEN
cs r
3 86
Loc ale
co ord
ĠM X
spell Info
ĠMi n
d q
ĠP P
ĠN ON
Ġrestri ction
TH IS
ĠCOPY ING
ĠA M
ĠSTD METHOD
Ġd yn
Ġt ensor
SE CTION
APIENTRY P
pr ep
Ġfinis h
Ġfl ash
As sign
Ġh ton
[ ];
N ote
pro duct
Id s
pa use
Ġ1 01
col umns
ĊĉĠĠĠĠĠĠĠĠĠĠĠĠĠ Ġ
ĠĊĠĠĠĠĠĠĠĠĠĠĠĠĠĠĠĠĠĠĠĠĠĠĠĠĠĠĠĠĠĠĠĠĠĠĠĠĠĠĠĠ Ġ
+ (
S ep
Ġm x
D om
SUP P
ĠG F
Sl ice
COMP LETE
o ose
ĠM ENU
Ġp j
IC AL
TA IL
a o
IT OR
Ġfail s
AC PI
cor rect
Down load
) |
Ġ200 6
Ġi wl
u char
S SE
PRO FILE
ar n
H ex
Ġw m
COMM ON
ng e
M ID
w ifi
ĠTemp le
Ġc mp
Â º
semb ly
Ġsign ature
Ġw allet
b alance
' ))
Ġproduct s
Ġ ĠĠĠĊĠĠĠĠĠ
SI L
m vm
Ġde tect
Fr ames
Ġ5 6
o ct
ĠF loat
pi cture
sys ctl
Ġw orld
RE P
on us
ation al
SIGN ED
Ġs uspend
& );
ĠO r
ĠVal id
------------------------------------------------------------------------ -
En coding
ĠC ore
m ore
nost ic
db s
ext ernal
form ance
ĠD i
COUN TER
D iv
ĠE C
Ġcon tact
For ce
v fs
D DR
uf fix
ĠDis play
Work er
Ġf uture
T ip
ific ations
ap plication
Ġwh ole
Ġr ank
sc alar
12 3
Ġpro t
irr or
ĠF ilter
Ġind ices
Ap ply
u k
FL USH
Ġ0211 1
Result s
M K
Ġd l
Ġpl an
HE IGHT
Ġp data
W H
t egra
Act iv
P EN
Ġ ************************************************************************
ĠUn ivers
ĠM Y
Ġdefinit ions
back ground
04 00
Ġre cur
) ];
ĠAl so
sr v
Ñ ģ
ĠD C
ĠV ol
Read y
slot s
Ġcan cel
Ġfr eed
Ġinclude s
Date Time
ĠG PL
im ize
Ġp adding
C ARD
00 5
Ġp d
Y UV
gr ad
Ġlock ed
Ġ7 0
Ġtemp orary
Get String
loc ale
al ways
< >
Con tact
" (
ĠS im
w e
Ġn pc
ĠM ain
g f
Ġindic ates
Ġ urb
2 24
comp ressed
PRINT F
ĠG roup
(" /
st and
ref resh
P ut
M ock
as n
ct r
pr eter
SW AP
b order
Av ailable
Struct ure
REA K
frequ ency
Ġc apture
Con sole
Ġs a
us pen
EN A
ator s
att rib
AL T
C SS
Ġdo ing
{ };
ĠP ower
fd s
Ġi i
ll u
tr x
id i
ĠC T
ĠR C
H istory
hentic ation
q d
o logy
Ġ' /
EN V
Ġn orm
Ġ ĠĠĠĊĠĠĠĠĠĠĠĠĠĠĠ
prev ious
b ulk
Ġbu ilder
Ġag reed
ĠL E
ĠV k
ĠHT TP
L ibrary
\" :
Ġw char
08 00
**************** ****
Sc hema
bl ue
EX PECT
A MP
Ġ200 5
Ġc y
B and
check sum
ĠN PC
COM PI
Ġh r
N B
// ----------------------------------------------------------------
C opyright
F older
ĠSo me
RO LL
let on
Ġlp fc
Ġbet ter
Ġt uple
use c
M SK
ĠL ink
Ġn d
Ġmon itor
on ical
n op
11 4
Ð¾ Ð
Ġ1 27
Ġim mediately
Ġt id
ĠPro ject
Ġsh ader
CO VER
Ġu id
g it
ĠC B
Ġ== >
as is
yn os
0 16
ri ent
Ġun lock
ĠH ID
ie ce
Ġip v
ĠA uto
ĠP osition
Ġm c
Ġqu ot
k lass
Ġd p
x fd
Ġde tail
' ve
' ",
m peg
T W
Ġgu arant
pol y
ĠNet work
Ġp anel
GR P
ĠĊĠĠĠĠĠĠĠĠĠĠĠĠĠĠĠĠĠĠĠĠĠĠĠĠĠĠĠĠĠĠĠĠĠĠĠĠĠĠĠĠĠ Ġ
F i
ac er
ĊĉĠĠĠĠĠĠĠĠĠĠĠĠĠĠ Ġ
Ġsc roll
I o
h ard
F ast
ĠRight s
ms r
ĊĉĉĉĉĉĉĠĠĠĠ Ġ
Ġf it
Ġf etch
Ġh ard
f it
Ġpart s
B ANK
ĠH ash
l ru
al c
10 5
//---------------------------------------------------------------------------- -
38 4
SS IP
Ġab s
Ġbu g
Can not
gener ate
Ġf t
ĠCal culate
h ave
Ġpri mary
exist s
st ub
o urnal
ON A
is olate
RELE ASE
Ġbu cket
I MPL
- %
ĠG T
WID GET
Ġgover ned
ch or
l n
ĠD SP
ĠSk ip
W ire
Ġtrans ition
ĠO ption
Sk ip
Â ¡
ra de
pl t
ĠB yte
ref s
ro le
Mark er
Ex tra
Over flow
Int errupt
erv ices
UR I
ĠW i
ĠR x
ĠB G
bind ing
ro ke
ĠSt op
H dd
Sh adow
Ġread er
čĊĠĠĠĠĠĠĠĠĠĠĠĠĠĠĠĠĠĠĠĠĠĠĠĠĠĠĠĠĠĠĠĠĠĠĠĠĠĠĠ Ġ
Â ¤
AB S
Align ment
ne eded
per i
HT ML
Trans port
Ġf c
Can cel
Ġ& _
NO S
ĠSet up
Ġpart ial
c sd
11 5
RO T
Ġear ly
000 3
Ġcon d
G rad
Ġde tected
ĠWR ITE
pro b
RO ID
Ġ5 5
rt w
ĠI B
nd x
ĠC E
Ġg ive
ĠRes ource
ĠSI ZE
Ġtask s
inter p
sum mary
Reg istry
U ns
Ġ3 9
/ ********************************
op a
Ġfinis hed
Ġb atch
Att ach
AD IE
s pr
CAM ERA
m otg
Ġtrans port
Init ial
sign ature
Ġread l
illi seconds
tensor flow
Ġ3 8
Ġch arge
Ġp e
Ġ** )
mode s
fo cus
Ġpro mote
B reak
R SP
( ("%
Ġs ol
M UTE
Dec ode
Ġindic ate
b trfs
Sele ctor
G st
ĠT RI
FIX ED
ĠT oken
fir mware
Ġc tl
b ot
I MM
ĠP ol
sub str
Sched ule
Ġ(* ((
Ġslot s
Ġsend ing
get Value
C b
Ġsi mp
ĠQ T
Ġk malloc
E ST
R oam
ĠM edia
ma zon
D ot
Ġ[ ]
F oundation
Ġ" )
Ġin ner
xf b
ĠB LOCK
r al
pon ent
Ġs ound
Pl an
Ġrad ius
ĠU Int
x ec
pa que
Ġed it
Ġp te
ce ptions
] ",
HAND LER
ĠP lay
ns ure
Ġcheck sum
// ============================================================================
g pr
Ġw atch
ang ing
ĠAc cess
ml me
exp and
ĠUn less
ĠRec ord
fe ed
Ġre m
m utable
ĠT ensor
a dev
g i
ĠP K
H ID
component s
ĠC lose
h it
e hci
l r
Mod ifier
r ess
() (
Ġpartic ular
pen denc
ĠL ength
INTER VAL
Per iod
Sign ature
ro om
Ġ ĠĠĠĠĊĠĠĠĠĠ
Ġn il
2 40
Ġcontribut ors
Ġ> ::
ly ing
t ml
ar c
orig inal
Ġb g
Ġ2 40
f id
pro vider
VI RT
10 8
Ent ries
Ġ5 00
Ġ4 6
P V
ch k
Ġ ĠĠĠĠĊĠĠĠĠĠĠĠĠĠĠĠ
io cb
ĠC K
G OT
AB ORT
Ġco st
ĠF I
Ġ ----------------------------------------------------------------------------
C ost
THRESH OLD
Ġstr cpy
ĠĊĠĠĠĠĠĠĠĠĠĠĠĠĠĠĠĠĠĠĠĠĠĠĠĠĠĠĠĠĠĠĠĠĠĠĠĠĠĠĠĠĠĠ Ġ
Ġun less
Ġ>> =
s data
Ã Ķ
k eep
IS P
n h
ï ¼
ED TLS
Ch at
PER IO
Ġt w
c err
Ġin structions
ĠP S
00 6
PAR M
EXTEN SION
Ch ildren
Ġ9 0
Ġ- *-
sib ility
ON ENT
p itch
Ġ ĠĠĠĠĊĠĠĠ
Ġj ump
SW ITCH
os h
Pro duct
ext ensions
Ġ6 5
Ġun its
Ġ(( __
Ġfrag ment
QU IR
PEND ING
ĠA DIE
Ġpro be
ĠCh ange
ĠAPI ENTRY
fix up
Ã Ĵ
ut ing
ĠN AME
Ar ena
Ġ ĠĠĠĠĠĊĠĠĠĠĠĠĠĠĠĠĠ
TR FS
e interpret
ĠE MC
ĠN on
-------------------------------- ------------------------
U C
M erge
Part icle
Ġa ble
SC REEN
v o
f ops
P t
Ġ esc
sh ake
Ġt un
l ab
M IPS
Fail ure
ĠQ Object
ffff ff
S erial
RG BA
ir cle
ING S
PLAT FORM
p as
ĠPACK ET
Ġd om
O ther
ĠPy thon
ol ute
S plit
P eer
Ġwork er
Ġdecl aration
SC I
UST OM
IN O
Â ²
A MD
Ġfr ont
T ouch
s pe
NAM IC
em ap
ĠR elease
IN GE
ĠQu ery
ĠSh ould
N F
se nse
N ow
P ubKey
ĠV T
G AME
Ġ ĉĉ
UL ONG
x l
Ġ ĠĠĠĠĠĠĊĠĠĠĠĠĠĠĠĠĠĠ
AD AP
Ġ20 16
Ġt akes
compat ible
nex pected
Ġ Ġĉ
ĠM AP
co gn
St andard
Ġt ex
ĠSt ore
ĠB its
Ġm ail
Ġ// !<
pi ndex
is a
ĠIO RESOURCE
ĠC SS
B PF
l k
ident ifier
Ġd a
v oice
ĠA S
oc ation
ar ing
yy val
log ical
Ġ ĠĠĠĠĠĊĠĠĠĠĠ
Unit s
12 5
s as
PAR AMS
{ }
Ġif def
Ġexec ution
Model Index
Ġun def
Ġa m
ĠRET URN
G I
qu ad
Ġh y
Ġd wc
test ing
ĠG N
ĠIn st
> ("
Ut f
Ġas n
Process or
Support ed
ume d
Ġ" #
Cl uster
For ward
ĠCon struct
wl an
k o
ĉĉĠĠ Ġ
E AR
Y NOS
lat ency
CFG R
st andard
ed itor
Ġm er
ĠOV ERRIDE
Ġ ĠĠĠĠĠĠĠĊĠĠĠĠĠĠĠĠĠĠĠ
pref s
ME MBER
config ure
sd p
s hell
ĠC ommon
CO MB
Ġres pon
ST E
Ġ4 9
Ġe ff
Ġ ata
r nd
Ġstruct ures
//////////////////////////////////////////////////////////////////////// ////
J ava
Ġg lyph
pd u
()) .
A ES
Ġ* ((
C ached
Ġr o
FF F
ot or
Re ason
s li
sp s
ER ENCE
Ġex port
Ġpol l
angle s
Ġio ctl
Get GUID
Ġter m
d atabase
čĊĠĠĠĠĠĠĠĠĠĠĠĠĠĠĠĠĠĠĠĠĠĠĠĠĠĠĠĠĠĠĠĠĠĠĠĠĠĠĠĠ Ġ
Ġpro cessed
ĠM YSQL
sub sys
Ġ1 02
A gent
12 4
(_ ("
control s
ĠD RM
NE ED
db us
ĠHD MI
W atch
frag ment
Ġsuccessful ly
ĠL ock
cr et
Sk ill
Ġpass word
align ment
part ial
g uest
Ġse ed
gr e
s ctp
ĠPro gram
CC R
go ing
de legate
h b
cl if
Ġi mpl
D ST
t ip
ch arger
ĠE FI
ĠOP EN
rom ium
ere o
ĠF P
lock s
A bs
eal th
S CHE
11 2
Ġautomat ically
CH O
W RAP
R ank
ON SE
J IT
spec ial
Ġ200 4
Requ ired
ultip lier
S UR
R sp
opa que
25 4
g boolean
F amily
ĊĉĉĠĠĠĠĠĠĠ Ġ
Ã Ĺ
Ġb rowser
ing roup
Ġmac ros
e of
EX IST
st ick
M ath
sc ape
Ġco mplex
over ride
S afe
L SB
Ġsh adow
Ġ ĠĊĠĠ
C ategory
ĠW A
Rec v
leg acy
b roadcast
AT ER
Ġatt ach
Ġk mem
Ġde sired
Ġp k
ar ity
AG AIN
um es
ser ialize
map h
T UN
E BUSY
Ġout side
func s
Ġcheck ed
Ġs uc
ĠFA IL
con struct
h ide
Ġt g
Thread s
oot h
si nfo
Ġw alk
VI R
rad ius
ers hip
tol ua
tim ing
Ġle ave
ar row
PER F
ĠF ill
c ategory
ci i
ĠInter face
ur as
ĠGener ate
ĠO pt
B g
D EN
d amage
ng er
H dr
log i
Ġ2 04
ro l
CALL TYPE
Ġcomp let
## _
CH P
Ver ify
Ġin s
Pass word
Tr aits
Ġa x
band width
Ġph ys
Ġp fn
vm x
ĠS IL
F inal
Ġ' -
n at
ct ype
ĠP PC
B ss
ce eded
Ġi w
et ooth
D rop
00 10
D ROP
ç ļ
Ġ1 20
mp i
Ġsh are
ar ations
Ġa ux
W B
89 21
ĠG LE
Ġtrans mit
ĠPer mission
ĠM L
OPER AND
32 0
Ġi mm
çļ Ħ
CRY PT
ĊĉĠĠĠĠĠĠĠĠĠĠĠĠĠĠĠ Ġ
S ide
Name d
ĠR F
ĠFUN CTION
k gsl
Ġnot ification
Back end
V F
ĠB asic
Ġlog ical
S OR
desc r
ĠCon stant
P ad
et ic
Ġ^ =
UL ATOR
Ġho ok
W rit
Ġ5 4
GENER IC
0000 7
WN D
Ġth ings
g m
ĠCO MM
ĠĊĠĠĠĠĠĠĠĠĠĠĠĠĠĠĠĠĠĠĠĠĠĠĠĠĠĠĠĠĠĠĠĠĠĠĠĠĠĠĠĠĠĠĠ Ġ
ĠF RA
w t
Mac ro
rott le
000000 10
SO FT
[ -
B ad
ĠB e
DU CT
uspen ded
n struction
j ump
S CO
Ġf urther
i nstruction
Ġand roid
FR INGE
window s
Ġb order
Det ails
Ġv irt
Ġs oc
ĠP age
Ġt b
d ac
B order
Âµ ÃĦ
ĠCONNE CTION
l as
he el
Ġv tk
Ġas m
ĠI nd
ENC Y
ĠB ad
Ġ ĠĠĊĠ
ward s
S prite
Ġalloc ator
ĠW ORD
be acon
ĠQString List
ilt ers
V tbl
O MAP
Ġh ot
ĠI nfo
an si
i k
r each
p alette
Ġscr atch
APP LE
ev ision
Ġ ER
w nd
r einterpret
000000 20
Ġis l
Vis itor
mi nal
SR V
BU ILT
Id le
B REAK
ĠIN IT
F alse
Ġbegin ning
Un ique
ĠU t
char set
rem aining
g lyph
x attr
In s
mm io
10 3
el t
Ġclo sed
ENO ENT
mem cmp
tx q
U GIN
ST OR
Ġgener al
ab ling
ĠAn y
Ġrout e
ĊĊĊĠĠĠ Ġ
Ġg f
S oftware
io stream
alloc ation
VOL UME
Ġs at
Ġ ));
O rient
ĠW ork
ĠC omm
44 4
ĠM an
ut ter
WN ER
n pc
Ġa md
Pl ane
bi os
ĠF W
M UTEX
ĠComp are
requ ired
Ġend orse
Sc ore
10 6
Ġconfig ured
x ef
is c
LIC Y
Ġexp and
P a
Z ONE
ĠD SI
work queue
COD ER
Ã Ĩ
for k
b ond
Ã Ń
col lection
T AL
ĠR est
Ġvol tage
Ġvis it
ĠU int
Ġcl asses
ĠU TF
t eam
Ġcomp ile
Ġw ords
Ġ ĠĠĠĠĠĊĠĠĠ
Pol y
čĊĠĠĠĠĠĠĠĠĠĠĠĠĠĠĠĠĠĠĠĠĠĠĠĠĠĠĠĠĠĠĠĠĠĠĠĠĠĠĠĠĠ Ġ
Ġ4 7
Ġstat es
Co i
ĠB C
UD P
iv alent
DISABLE D
Ġet t
MI PI
war f
Ġf ault
arg ing
24 5
ĠA B
Ġwrit es
Sh utdown
Ġas ync
emp lace
13 4
Coi n
] -
ĠG URL
Ġmem bers
xB F
base d
b n
RE NDER
s at
Ġ1 15
Ġt eam
V ehicle
FIX UP
Pix map
is Valid
con tact
ĠT ri
Re place
************************ ****
Ġm akes
ĠB B
Pre sent
if a
ro ken
Ġi de
ĠD ig
I CON
> </
m ips
B lob
AL G
st m
Ġal ias
Ġdev e
is l
que nt
sn apshot
ĠS upport
Ġpar sing
O ps
ie ve
Ġco okie
al i
)) {
enc rypt
I ZE
gu ard
Ġcert ain
Be fore
CONNE CTION
state ment
ĠM ulti
Ġline ar
ĠP ath
link s
REC ORD
f ence
Â ¾
u ation
M ult
ĠD river
al th
s pl
Ġp info
erc ial
Ġenv ironment
13 9
ap er
00 20
A HB
Ġh ad
IN F
Ġal tern
0000000 8
ĠIP v
sk top
Ph ys
MALL OC
mi ne
ar ound
Ġext ensions
un ded
m ag
O LL
Ġc d
IP H
siz es
dential s
w cd
ĠH OST
ĠPRO P
Ġsl ice
Ġbo olean
GNU C
Rad ius
quot a
Ġp v
AS N
ĠM achine
ĠInt el
urr ed
Ġ200 3
C aps
Ġdriver s
Ġav io
B atch
ĠS w
Ġ"\ "
send er
SLA VE
VID C
Log ger
D em
pr m
tl b
R ew
Ġx fs
j it
list ener
Ġ ef
B lend
t wo
L eg
Ġ6 55
se p
C urr
Ġ{ \
QUE ST
ĠHow ever
MO UNT
N P
Ġversion s
E VT
ĊĊĊĠĠĠĠ Ġ
prec ision
N eg
Th reshold
buf s
b ut
) ==
vector s
ĠG UI
ict ure
ĠUnivers ity
rece ived
Ġprovide s
STA MP
ur al
ĠA ction
Ġ' .
ĠĊĠĠĠĠĠĠĠĠĠĠĠĠĠĠĠĠĠĠĠĠĠĠĠĠĠĠĠĠĠĠĠĠĠĠĠĠĠĠĠĠĠĠĠĠ Ġ
ĠA RI
mark er
pi ns
mod ify
s vc
Ġc os
Ġtransaction s
T ED
bt n
27 0
12 34
Ġhandle s
rt imer
C IPHER
Function s
name d
Pri mitive
R aster
ok ia
xb f
Ġi l
Ġg ain
register ed
off s
16 8
CA PT
VER B
Ġde coder
Ġbeh avior
on s
is o
Ġ ****************************************************************
Ġcal c
Ġhere by
SK IP
FI ER
ĊĉĠĠĠĠĠĠĠĠĠĠĠĠĠĠĠĠ Ġ
get Name
Ġadd ition
0 40
D H
x cb
ch at
Ġstart s
NET WORK
ĠF lag
Bind ing
iv ing
Per mission
ĠM V
M ov
FRINGE MENT
it ect
W P
76 8
insert ion
Ġco ordinates
ap sed
Ġu v
ans wer
\ ",
Ġ(* (
Is Valid
ĠI PC
WAR D
) ?
ĠB CHP
i dev
ĠW LC
Un lock
Ġdown load
rins ic
ĠU sage
Ġatt ached
ĠL abel
Ġp f
Cur ve
P en
2 20
Ġi r
Ġ9 6
ĠB ack
Ġsymbol s
em s
M AL
ĠLay out
S ent
CR IT
Ġprocess or
ĠT cl
Ã ĩ
Ġ RESERVED
Ġhe x
B SS
us hed
ĠS DIO
e verse
Ġ1 04
P et
Ġb s
ĠQ Widget
Ġh istory
Ġg pointer
xF D
ĠS erver
Ġgroup s
config uration
B ROW
ĠC AM
mt ab
Ġn p
sy scall
( ::
res olve
ATTA CK
UT IL
gr pc
sc hema
char acter
Ġge ometry
ĠB ut
ms leep
Ġqp np
Ġ5 2
IN ER
a j
ĠPro to
maph ore
Exec ute
B ottom
ĠA TA
G M
Ġo ct
q com
at ively
Ċĉĉĉĉĉ ĉĉĉĉĉĉĉĉ
Ġrece iver
++ );
ĠV iew
is ing
NO TIFY
Fl ush
Ġroutine s
s am
R PM
Ġj oin
ĠF B
Ġv ch
() -
1 32
DI SC
sm all
ĠM ust
ĠQ VERIFY
ĠM ay
st p
Ġprob ably
ĊĉĉĠĠĠĠĠĠĠĠ Ġ
ĠJ ava
Ġw rap
ĠTIM ER
Ġv s
ĉĠĠĠĠĠ Ġ
sql ite
ĠP T
CON TA
le ave
us ers
Ġa i
ĠS ig
M otion
alar m
RO UND
ph rase
g d
s ch
apt ics
Ġv c
ĠD ir
Ġin f
Q gs
RESP ONSE
. ";
Ġth d
http s
ĠA ss
I PC
Track er
Ġpar allel
pe l
ĠA PP
logi n
L anguage
Ġ5 7
ag ed
ĠB ool
ref count
CT R
_ ),
PH YS
det ach
n an
SP R
set Value
ĠR S
Ġpr epare
Con v
S pin
ac le
E O
her it
Rece ive
Ġs izes
back up
Ġa ud
Pol ygon
m et
EE K
Ġcor r
ĠR PC
li ke
čĊĠĠĠĠĠĠĠĠĠĠĠĠĠĠĠĠĠĠĠĠĠĠĠĠĠĠĠĠĠĠĠĠĠĠĠĠĠĠĠĠĠĠ Ġ
Get Instance
gl Get
P lot
N AND
v addr
OP CODE
Ġoffset s
1 40
ill a
Ġevery thing
Z ONA
ĠCR Y
ĠP J
ĠARI ZONA
4 20
IN FRINGEMENT
log ger
click ed
ans ion
Ġh ub
Ġwh ose
r everse
hd l
Ġfile system
B attle
ent s
Pl ace
end s
GRA PH
Ġ ĠĠĠĠĠĠĠĠĊĠĠĠĠĠĠĠĠĠĠĠ
MA KE
Ġs cene
(* (
am d
Ġh int
Ġp b
Sy m
Ã ĭ
u delay
ĠF r
ĠI W
Ġ> (
g fp
par a
Ġen coded
I ER
Ã Ģ
IC S
mo oth
Argument s
ĠS MB
ec c
ĠS p
k a
ĠQ Latin
ug gest
Qu ad
ED GE
ĠĊĠĠĠĠĠĠĠĠĠĠĠĠĠĠĠĠĠĠĠĠĠĠĠĠĠĠĠĠĠĠĠĠĠĠĠĠĠĠĠĠĠĠĠĠĠ Ġ
Access or
Ġre pl
Ġwrit er
Ġo l
RE PORT
Ġas signed
Ġcallback s
IG NORE
M Hz
par ms
Ġconfig ure
Ġat tempt
Ġ200 2
Ġinst all
Ġs oft
ĠB y
un link
Sample s
Ġpubli sh
er ies
Ġb nx
b cm
Ġj ournal
Ġstr error
ch arge
vert ices
irq s
Reg s
Ġgr ad
cl r
Ġmark ed
und o
ĠLay er
TH ON
PRO T
SH OW
ĠConfig uration
ĠChar acter
igr ation
E qu
ĠB L
Ġa way
st or
Ġsc ore
ĠC ALL
Ã ī
Ġt aken
Ġin crease
f atal
str casecmp
MAC RO
y ear
Ġ čĊĠ
are st
Ġx mm
sub mit
ĠLL VM
ĠV ideo
Ġ ĠĠĠĠĠĠĠĠĠĊĠĠĠĠĠĠĠĠĠĠĠ
ĠD eter
Ġdis patch
ex tr
ĠIn sert
Error Code
v out
8 25
ener gy
ĠGener ic
argument s
Act or
Ġag ree
Ġ" '
DESC RIPTION
down load
Ġcorrect ly
Ġd d
Ãĳ Ãĳ
Res erved
B W
Ġf amily
el et
A UD
ĠL OC
Ġsup p
Ġgr eater
ĠP IO
Ġlist en
N eed
Ġper ipheral
Comp letion
C AT
v dev
Ċĉĉĉ Ċĉĉ
PAR SE
x dr
ĠSh ow
l anguage
Ġb ank
ed ure
is r
Ġlink ed
S ql
Fr ont
cs um
Ex pected
------------------------------------------------------------------------ --
H older
Ġal c
an im
U s
Pro cessing
AI LAB
Ġrot ation
as ing
ĠC PP
ĠI M
d ss
al led
ĠF lags
Ġext ended
Run ning
Ġ erase
un ist
Ġcomponent s
Ġcont ained
Br anch
Ġg n
INS ERT
W eapon
Ġprec ision
si nce
SYSC ALL
gr ade
ĠE D
Ġ ĠĠĠĠĠĠĠĠĠĠĊĠĠĠĠĠĠĠĠĠĠĠ
Ġhold ing
ĠStr uct
Ġw eak
can vas
Ġ6 6
ĠR GB
su f
present ation
Ġd rive
H EX
ĠS PR
file system
PROG RAM
Key board
RE N
ĠI mp
S ee
Pr ess
EM U
CONST ANT
ele ss
P ayload
Gtk Widget
12 2
ne sted
to ggle
Ġ% "
DA I
ĊĉĠĠĠĠĠĠĠĠĠĠĠĠĠĠĠĠĠ Ġ
PM U
B RO
i np
Ġre verse
reg isters
CAPT URE
Ġ arr
DI M
ĠI DC
Finis hed
Ġpar sed
ĉĉĉ Ġ
AD V
tot ype
N N
Ġ' "
level s
> ");
ĠT ABLE
g amma
ĠA UDIO
ĠSO CK
xf a
R atio
I CK
Ġse l
p al
ĠG PU
čĊč Ċĉĉ
W ill
Ġ6 8
Ġde legate
] ==
Ġent ire
Ġ4 1
Ġ" =
gener al
AN E
Ġ! !
CO LL
Ġwake up
ĠN ext
Rout e
Ġh da
TH E
err ain
ĠO MIT
â Ķ
AN GLE
p Data
ale nd
Ġf ar
ĠDo uble
el ong
Ġreg ular
WA YS
bind er
Ġst age
set Enabled
Ġde pend
End point
SO CK
file Name
Ġres ume
g pi
r st
QUIR K
ass oci
dr ag
ĠB V
TE M
DE AD
dig it
Ġv id
St ride
Pri v
ir eless
Ġt ell
Rot ation
rade on
Ġrefer ences
Ġ@ @
Ġstat istics
put ime
Ter m
L ua
19 0
Ġ ĠĠĠĠĠĠĠĠĠĠĠĊĠĠĠĠĠĠĠĠĠĠĠ
Ġac cel
G PR
Ã ³
Ġi ov
ig rate
b pp
ĠAUTH ORS
ht ool
interrupt ible
Ġtrigger ed
FL T
ĠSC SI
x af
Ġatt ack
GE ST
ex tract
ĠM IX
un its
PUB LIC
d addr
p adding
Ġp ow
Ġport s
Ġr ather
Ġc fs
s dev
Ġen coder
ĠF C
g ers
CONT ENT
r ew
Ġb link
an ity
T im
sib ly
Ã ¤
is or
ren ame
ĠC l
C X
ĠĊĠĠĠĠĠĠĠĠĠĠĠĠĠĠĠĠĠĠĠĠĠĠĠĠĠĠĠĠĠĠĠĠĠĠĠĠĠĠĠĠĠĠĠĠĠĠ Ġ
ĠS U
Ã Į
Ġimp licit
Com ment
l iteral
alend ar
Ã ģ
H DD
ĠSD HCI
Ġrender er
ĠS ervice
und er
Ġnot ifier
Ġc am
pp ing
SLI M
Head ers
DE ON
Ã «
Ġopt s
Ġ9 7
or b
Ġcre ation
ĠC AP
Ġth ree
is k
2 25
/ (
Ġ** *
, \
0 80
f ac
dd y
Ġ5 3
K O
k l
BI AS
ĠG TEST
ĠV ariable
ĠArg ument
ĠJ NI
Ġres olution
Ġload ing
t ap
xb d
FRA G
Ġac comp
F ee
unist d
Ġlist s
ĠD ec
ĠB i
Ġb n
e covery
gr ee
Ġf open
se nce
s un
cap ability
n crement
ne igh
0000 01
mp ool
Ġ ĠĠĊĠĠ
Ġhd mi
on al
Error s
Ġen code
11 3
x ce
un ix
j peg
ĠSTDMETHOD CALLTYPE
ĊĊĠĠĠĠĠĠĠĠĠĠĠĠĠĠĠĠĠĠĠĠĠĠĠ Ġ
I SE
Ġ*/ ;
Ġres p
es p
i ncrement
eed back
EN G
est ure
r ecovery
Ġk ill
list s
bl ack
un pack
u V
V L
INITIAL IZ
Ġre p
Dep en
F eatures
ĠN R
ĠL evel
al ive
[ _
BROW SER
ĠPro perty
AT I
TER M
ml x
i ated
AND ROID
ĠCO DE
ĠParam eters
Ġf oo
ĠO ne
ens ity
m box
Ġ ĠĠĠĠĊ
ME SH
sh m
Ġw rapper
out er
Ġassign ment
Ã ħ
OPER ATION
Comm it
Ġl arger
ĠS cal
Ã ¶
Ġproper ly
M Y
TL V
ĠT ag
Q Object
Ã ¨
V ictim
sock opt
suf fix
Ġ200 1
reg map
select or
v x
m argin
x ac
Orient ation
ĠK C
ĠNe ither
ll d
trans late
Ġwx String
ĠCh romium
Ġlock s
Ġcol lection
tri m
ĠDE SC
RE MOVE
Ġc rc
TO S
AILAB LE
Ġ1 0000
Ġvar ious
ĠP ass
E l
Time stamp
ad ap
ĠH Z
A CL
og gle
ĠS S
K ILL
ĠA X
hid den
s addr
Ġ linux
Ġsh utdown
PO OL
mplement ed
uint ptr
con straint
Ġr dev
it ches
Exist s
Ċ ĠĠĠĠĠĠĊĠĠĠĠĠ
ĠAl low
Bu ff
p sy
dis sect
H IST
MI I
ĠF N
ON CE
g mail
Ġ0 644
Tex Coord
567 89
Ġcreat ing
ALI AS
Ġ ********************************
Ġm td
SI O
ĠPri vate
ch roma
I p
pe ek
Ġ7 5
M etrics
E K
Ġa ffect
DI C
co cos
ĠS imple
ul ly
mat ches
E ff
DY NAMIC
u ck
ĠS R
Ġis olate
Ġadd ing
---------------------------------------------------------------- ------
Ġ ))
Ġpol y
Ġo v
Ġ ĠĠĠĊĠ
T imes
Ġp ot
ĠT ool
ig uous
Ġstr dup
CA PS
ĠRef erence
S ame
J oin
Ġ čĊĠĠĠ
//////////////////////////////////////////////////////////////// ////////////////
ĠCr eat
li ve
me l
Ġa pr
p ag
ĠE igen
il ation
callback s
i ni
Ġs low
ĊĊĠĠĠĠĠĠĠĠĠĠĠĠĠĠĠĠĠĠĠĠĠĠĠĠ Ġ
path s
Ġhig her
m usb
Ġh a
ĠO bj
rec ur
S UN
Line s
01 2
err un
ic ult
xx xx
PO LICY
Ġperform ance
ĠEX IT
AX IS
s md
ĊĉĠĠĠĠĠĠĠĠĠĠĠĠĠĠĠĠĠĠ Ġ
un i
x s
Ġupd ates
Ġc g
On ce
Ġcp us
Ġoper ands
14 7
ĠG CC
Bu cket
Ġmark er
ap es
Ġ% [
, _
f older
ĠN VIC
Ġcon straint
Ġse ll
Ġconstant s
å ı
OP S
Per cent
Ġqu ant
rel ative
ir c
v port
ĠX FS
V K
ĠS CTP
H OR
ĠB NX
Ġpos itive
oper ands
ain er
ET CH
Ġc sr
G RE
gram mar
Ġp ick
PI C
S MALL
A SYNC
Ġsys fs
Input s
x be
s ite
Ġw iphy
w dev
Ġ3 00
cl s
Ind ices
ble nd
ex ample
H OT
ĠM ock
Env ironment
Ġdet ection
com bo
Ġv ariant
Pop up
t z
Ġn f
ob server
ĠD P
Ġ ĠĠĉ
Ġis sue
if est
Frag ment
ĠH CI
) =
id den
Ġ6 7
Ġprevious ly
all back
Ġd g
gdb arch
PRE C
ĠP E
TI LE
0 30
Ġa ura
Ġsq rt
Ġrepresent ation
ĠV I
ref ptr
F ONT
ar ena
SK B
PRO DUCT
x ab
Number Of
riter ia
Ġpr ep
Ġin c
LI M
l ates
ĠL ANG
ĊĉĉĠĠĠĠĠĠĠĠĠ Ġ
ĠE nsure
P USH
89 60
ĠI PT
Ġsi n
PL US
Ã Ĥ
Ġcode s
Ġb f
ĠCon troller
ne my
istribut ion
m tx
ject ed
Ġ Ġč
ĠR B
ĠCall back
hot plug
MAT RIX
UR ATION
Ġin coming
Ġsn apshot
PRO BE
ĠF D
v sync
Ġix gbe
ELE M
BO SE
Con nected
C pp
p ch
Line ar
P W
SE ARCH
mark s
11 7
t gt
block ing
G ST
ĠE ach
W IP
Proc Address
egr al
Ġal t
Ġout er
Ġb lob
p j
ĠFLA G
O O
ĠQ U
Ġst a
pr ee
Ge o
8 0000
li de
s coped
ĠĊĠĠĠĠĠĠĠĠĠĠĠĠĠĠĠĠĠĠĠĠĠĠĠĠĠĠĠĠĠĠĠĠĠĠĠĠĠĠĠĠĠĠĠĠĠĠĠ Ġ
Th row
f ps
Ġper mit
th resh
ĠR UN
Ġvert ices
b k
Ã ł
pro x
get Operand
Ġexec uted
Anal ysis
ul int
n la
er k
201 2
ĠA ura
se par
b link
UN SIGNED
Effect s
RO UT
B LA
aud it
j ack
ĊĊĠĠĠĠĠĠĠĠĠĠĠĠĠĠĠĠĠĠĠĠĠĠĠĠĠ Ġ
command s
mid i
Ġs af
LOC ATION
cl ang
ĠT LS
Ġvector s
Ġf e
hw nd
ĠC LI
c info
Ġreturn ing
xE F
ĠE d
Ġed ges
; //
ub yte
ĠS l
C AR
m n
MC S
Ġf un
trigger ed
TRI ES
3 10
T MP
Ġc ent
FR ONT
FI ED
stri p
. */
b v
Co mplex
ĠIn struction
Ġfloat ing
DI FF
s x
ĠSe arch
Ã ·
test s
k mem
dest ination
Ġf old
q h
Ġ" +
} \
is hed
Ġname d
Ġ7 2
Buffer Size
s prite
con straints
I ES
Ġf act
PROG RESS
bss id
Get UInt
Ġmode s
now led
01 1
Ġp ast
S ol
Ġread s
ĠSh ared
Ġm agic
Ġdelay ed
Ġr p
7 00
n od
Ġ ask
n api
80 64
Ġdebug ging
Ġdi ctionary
__ ;
section s
2 32
Dest ination
Ġst ub
cm nd
Br ush
Ġm icro
DE TECT
Ġm g
g cc
MS R
reach able
Ã ¡
est ed
I MPLEMENT
ĠM K
xb b
DIP SETTING
x cd
G lyph
Ġr ole
Con n
q s
Ġi oc
asure ment
b am
eg l
Col umns
Â ¨
PRES ENT
Â ¥
b um
ma nt
f lip
Ġbus y
p st
lp Vtbl
ĠF rom
ĠPi n
der ef
FL D
ĠParam eter
Ġcl one
ĊĊĠĠĠĠĠĠĠĠĠĠĠĠĠĠĠĠĠĠĠĠĠĠĠĠĠĠ Ġ
on ce
OV ERRIDE
201 3
Ã ļ
Ġl cd
SHAD ER
ur ge
PAN EL
Ġab sol
ĠVol ume
d pd
ĠL IST
)) ->
per cent
ms d
Ċ ĠĊ
c grp
ĠOper and
ex pect
Ġfil led
Ġcomp arison
task s
Ġhappen s
sub sc
Ġl ittle
RU LE
GO OD
count ers
Ġ) (
Get Data
Ġe val
ĠO rig
Comp ute
S hell
Ġ% .
able s
ĠTA SK
dis card
Get Position
Ġmay be
Q Widget
ĠC D
======================================================================== ===
ĠSTR ING
Ġ uri
li ver
Ġth ough
ĠGo ogle
Ident ity
Gener ate
fl at
Ġ Ċĉĉĉ
e pt
ĠA fter
t sp
bar rier
ĠE P
Â ª
A SCII
AN GE
V DD
U MENT
S el
up ort
R SA
Last Error
Log ical
Ġ201 7
ĠMB EDTLS
pp c
Ġ xt
i sed
m otion
lp fc
Ġs pe
c atch
Sn apshot
xb c
ĠMD SS
ert s
GLE W
W rap
COMP ONENT
n dent
Ġg pr
Ġf actory
ACT IV
Ġle af
ĠS ec
COL UM
RE AS
Â °
Ġauth or
CH AIN
ver ti
W eak
ĠJ son
mac ro
code s
Dir ty
Ġu char
cp i
Ġ ur
Ġwindow s
sq rt
P X
x en
IW USR
ĠD ate
Ġn id
compr ession
Ġsepar ate
P alette
Char s
Ġsimp ly
Qu ant
10 9
ap ps
Ġlimit ation
xF B
INCLU DED
Ad v
NE G
ĠE OF
nt l
Ġ' :
hd a
ĠG R
S pan
ed ges
MIN OR
View Controller
RO UP
x dd
E OP
Res ize
ST Y
Ġ utf
I SH
k er
Ġdesc riptors
arch ive
Ġi on
ĠT EXT
w hen
pd f
H ealth
ri s
ap ed
Acc el
e alloc
ep s
Vis ual
Ad just
p Adapter
UI Kit
St age
Ġne sted
ĠSt orage
ĠSt ack
sk i
ĠE ntry
SI Z
Ġrelease d
Ġs mp
TRAN SP
ĠA mazon
ĠB PF
Ġc airo
En coder
ĠS PD
i j
v g
ĠEE PROM
C y
H ARD
Ġcr ed
E LL
Ġf use
14 4
ĠT ask
Ġb cm
Ġco ver
mo b
m ust
Ġman agement
Ġport ions
T EX
ĊĊĊĠĠĠĠĠ Ġ
Ġr oom
Ġcl ang
ĠP ut
Al gorithm
IF S
N M
ĠĊĠĠĠĠĠĠĠĠĠĠĠĠĠĠĠĠĠĠĠĠĠĠĠĠĠĠĠĠĠĠĠĠĠĠĠĠĠĠĠĠĠĠĠĠĠĠĠĠ Ġ
AL EN
K B
================================ ================
Ġle d
H ook
ĠRE QUI
AG ER
MI SS
Ġmov ed
Ġl a
dig est
CHANGE D
Ġf g
it ory
Ġ1 08
as oc
Ġl d
Ġstr chr
m ute
arch y
//============================================================================ ==
sc m
Ġe valu
ĠL ast
er ance
cc cc
os itor
iv idual
20 4
ĠIn stance
ĠC OR
r um
ĠV ID
ĠCO RE
RUN NING
ul a
UN C
variable s
x ad
ĠSY SC
Ġmin or
Â ¢
ĠM atch
Ġnt o
ĠP ixel
istribut ed
Ġspec ifies
u ge
Ġoutput s
n pos
m ing
Ġ5 8
P VR
proto c
ĠE LF
= >
su ng
Ġ( ));
PRE F
Ġ<< =
init data
AB I
module s
Ã ¥
ĠH eader
il led
CONT IN
dim ension
*) "
TR L
not ification
R AT
x cf
l and
<< (
sc aling
< _
RT L
ĠA SM
Up per
packet Len
w ant
sy ntax
o ob
DI SK
The me
tun nel
ne on
ĠD HD
ext ended
C pu
ER E
Game Object
E PERM
L at
ĠJ ust
Ġo pened
16 4
Ġ1 80
ĠE num
ĠM SR
BO UND
bed ded
is Null
Ġrec ords
ch ant
l ator
View port
n sec
Ġp ic
30 4
ase s
ue l
Ġcon straints
201 5
__ ))
H X
Pack age
Clo ud
Ġp ll
V LAN
Ġb h
st able
can not
Ġloc ale
D RAW
x ee
201 4
23 1
DESC RIPT
ĊĊĊĠĠĠĠĠĠ Ġ
mb ed
am l
Ġ ĠĠĠĠĠĊ
ai nder
Ġtag s
Ġ ĠĠĠĠĠĠĊĠĠĠ
Ġacc um
ĠCLA IM
ĠAp ply
F req
P ING
ĠQ ModelIndex
co pi
Ġdis card
clo sure
Ġsignal s
Ġtarget s
Lock ed
mi i
xy z
ĊĉĉĉĉĉĉĉĠĠ Ġ
ĠI E
i ndent
Ġ eth
ĠN FS
(! (
hal t
K HR
Ġtry ing
ĠE mit
Ġc aster
E DED
th ers
F un
Finis h
k m
Ġ199 9
32 5
L DO
Ġ7 4
ĠPR INT
Ġinst ant
c airo
if etime
ĠU p
ĠM IT
ll x
xpr t
Action s
ĠS er
SU ME
ic ator
con sumer
final ize
A ck
D UP
ĠC apture
Ã ²
9 00
ĠSQL ITE
DE T
ĠH lo
r ealloc
ĠV ar
rout er
Ġapp lied
ĠN AND
he l
Ġ-------------------------------- ------------------------
ĠIN PUT
Ġav ctx
ĠDE AL
pree mpt
IM G
) _
Ġon es
C USTOM
ĠOP TION
ack ed
12 1
d ll
ST AND
if e
ĠT RAN
Ġco ordinate
ap r
Ġg uest
Ġ1 14
čĊ čĊĠĠĠĠĠĠĠĠĠĠĠ
BUILT IN
01 01
Ġcl a
Ġg p
ĠSm all
IRQ n
T LE
if r
ĠRE AL
ĠAT TRIB
ĊĉĠĠĠĠĠĠĠĠĠĠĠĠĠĠĠĠĠĠĠ Ġ
String s
M ail
ĠG DK
m ipi
Ġ1 11
ADAP TER
ĠB ER
peri ment
/**************************************************************** ****
block size
Dis abled
Co eff
Ġcan vas
ĠNON INFRINGEMENT
m ock
pm ic
Ġse en
Ġreg ard
CH RO
EN R
config s
ĠN eed
ĠT T
0000 0100
Part ition
Ġ( ))
ĠI d
Cal ling
L R
tod o
xt ure
Ġt d
x eb
WOR LD
Ġvalid ate
Ġ å
čĊĉ čĊ
Ġb elong
str ncpy
ĠExt ension
or ph
std int
Al location
Ġdr v
B ig
DI ST
ĠHE AD
ff s
BO T
w eapon
Ġrequire ments
ee ded
V oid
sn ap
10 7
Ġres pect
V IS
ĠQ Point
get Num
ĠA cc
vi n
," %
ĊĉĉĠĠĠĠĠĠĠĠĠĠ Ġ
nt o
Ġdid n
15 4
is m
g ap
Ġi c
se quent
Ġ(; ;)
H RESULT
ĠFE ATURE
pack age
si lon
Ġstr ong
sched uler
Ġr atio
Sl ider
Ġth r
ĠEx ternal
O US
NOT SUPP
rot ate
PO SIX
s si
Ġh ref
Ġr m
ĠMax imum
bound ary
load ing
d uce
def s
37 6
cnt l
ad reno
Ġ9 5
Base d
col ors
STOR AGE
ID s
AV AILABLE
n om
BIN ARY
S heet
ĠĊĠĠĠĠĠĠĠĠĠĠĠĠĠĠĠĠĠĠĠĠĠĠĠĠĠĠĠĠĠĠĠĠĠĠĠĠĠĠĠĠĠĠĠĠĠĠĠĠĠ Ġ
_ *
ĠC ur
=== //
Ġpath s
Ġli ve
Trans ition
ĠST ART
) (((
z d
O THER
IL Y
Ġ' )
PH ASE
G ain
x ed
add Widget
Ġ1 16
at ial
ut er
Ġsub stant
COD ING
Ġhold s
000000 7
ATTER N
Ġ6 2
ĠConfig ure
/**************************************************************************** *
5 000
wallet Main
D Q
A rt
Ã ĺ
need s
Ġ1 50
method s
BIT MAP
W REG
Ġse ver
DO UT
SH UT
Ġ<< <<<<<<<<
NO TE
ust ed
ĠS EEK
ĠO ptions
80 58
Ġm utable
li brary
Ġiter ation
Ġo mp
Ġobtain ing
w as
Ġi e
Ġun defined
PL UGIN
Second s
user name
reg ex
PC IE
ph p
Ġo cfs
z oom
) >
Ġcon tin
Get TypeId
ĠR OM
phys ical
ĠS UP
C aster
Ġrule s
ĠT ech
ĠH igh
Std String
Ġconnection s
PA C
k w
Ġsort ed
Ġse nse
tick s
ĠRe port
00 40
Print er
ĠT G
2 16
Ġv b
bit r
Ġsmall er
T wo
In clude
az y
ĠPRO TO
a head
seg ments
ARE A
j mp
C WE
Ġsi nk
13 5
ĠC Wallet
um a
ĠO MX
Ġ<<<<<<<<<< <<<<
Ġ ĠĠĠĉ
r anges
ĠDEAL INGS
ĠG en
po sed
dev s
Ġsee k
Sum mon
Ġ" --
ĠPy Err
ĠG P
ĠSh ape
P ick
Ġback end
ĠH AND
LE SS
rot ation
ro am
vis it
handle d
Ð »
Ġl ate
Grad ient
P icture
ĠF alse
CH K
Ġvir Domain
ĠDW C
ieve ment
reg istry
File Info
Dim ension
nt r
Ġbind er
Ġr w
opt im
OPTION S
ĠS EQ
a es
Ġ"../ ../
Ġ{ -
Combo Box
m data
rig gers
Ġcol lect
col lect
Ġl iteral
Ġpl ug
F ix
Pixel s
q c
PERIO D
ĠPr epare
S ite
OPTION AL
Ċ ĊĉĠĠĠĠĠ
Ġwh om
Ġwork ing
ĠK ERN
Ġgener ator
ĠI TEM
ro py
G Y
DI AG
Ġexplicit ly
xd a
T p
Group s
0000 1
pp os
q emu
h ere
ĠA MD
xb a
kt op
Ġconvert ed
" )))
g int
ĠTYPE ID
ĠM ixer
icult y
msg s
CO ORD
uple x
Ġhand lers
Co okie
mis sing
ĠM PU
Z oom
_ %
ĠS G
am i
rout ine
Ġst rict
D ER
ĠL ONG
ra id
Ġclear ed
pg d
Ġ" <<
Ġr f
Ġr and
_ ));
ĠS IM
3 000
our s
ĠR ange
Ġ ];
v ch
Ġ< >
80 5
q i
AL C
ee per
Con version
Ġcur ve
ĠK ER
Ġarray s
sp d
ĠS ync
Spec ific
Ġabsol ute
ĠM on
Ġ(" %
j om
h dd
Ġre ached
Ġcp umask
ut ions
Ġ ----------------
Ã »
Ġsd hci
Ab ort
Sm all
AL WAYS
st ar
SETTING S
FA M
Pipe line
ĠP ost
Ġth us
xd f
SO UND
Ġob server
Dev ices
N ER
ĠP IX
EX TRA
co ef
ĠCreat es
Ġaction s
str to
Res ources
m ad
invalid ate
Ġcap acity
b rightness
Get Current
ĠAl tern
30 3
Ġv fs
ib ling
Inst all
Hdd Ctx
ĠFunction s
Ġv f
4 01
4 22
Ġle x
b al
u ng
Ġf our
at ern
ĠD L
z en
d word
Menu Item
Ġan im
S o
ing leton
run ner
(" <
S DIO
Ġm ixer
Co ords
her ent
UN IF
ab li
v q
Ġp dev
ĠS erial
ĠA LI
IT LE
ĠAV ERROR
RE TRY
g over
... \
MG MT
CONNECT ED
sens itive
Ġj int
or th
sk y
T ry
Ġt t
cl asses
graph ics
MS B
Stat es
request ed
19 7
mp p
r n
ĠG u
lo ok
m ime
Ġ( ~
Ġs olution
Tick s
E OF
att ack
token s
Ġref resh
Max imum
Ġp lease
DO T
Ġocc urred
Ġdis connect
rev ision
FIC ATION
Ġ1 12
SE COND
hw mod
Ġ\ \
File System
as cii
Ref resh
Ġequ ivalent
mult icast
ĠAr gs
ush ort
Test ing
M argin
ĠĊĠĠĠĠĠĠĠĠĠĠĠĠĠĠĠĠĠĠĠĠĠĠĠĠĠĠĠĠĠĠĠĠĠĠĠĠĠĠĠĠĠĠĠĠĠĠĠĠĠĠ Ġ
ari ance
13 6
ĠA BS
ther mal
N ATIVE
pos sible
urn ished
e claim
ar io
HE AP
ĠKER NEL
Ġsystem s
Ġp name
Ġ1 000000
trans ition
weight s
CUR SOR
S up
Ġc lick
et t
ĠL ow
Ġ ĠĠĠĠĠĠĠĊĠĠĠ
M ULT
REQUI RE
im ages
T B
S pe
Ġtime val
Ġ1 92
x FA
ĠS ign
ĠP os
xFF FE
dec imal
ÃĬÃ ½
pan ic
Ġper formed
h ardware
Ġg sl
atter ns
Ġd f
MO USE
Ġ(! _
ĠW CD
ĠProto col
er ate
D RA
r eclaim
VIRT UAL
doc s
log ging
Ġf ew
Ġu pon
Option al
Ġpart icle
ĠInit ial
MP U
xA A
sup p
Ġad j
Get Value
PA IR
8 001
Ġ6 1
Ġsubstant ial
Ph ysical
ĠRece ive
ĠATTRIB UTE
12 00
ĠSYS CTL
uff le
ĠR AM
Ġsys ctl
Ġ1 10
Ġi v
E AGAIN
play back
mod ified
Ġduplic ate
read only
J PEG
fore ach
Ġh aving
Ġinter faces
itect ure
ĠC SR
3 02
Â£ Â¬
Ã ®
Ġ4 00
use s
Ġbuf len
vl c
ab uf
ID GE
xd c
ĠP B
M agick
Hal f
In line
t fm
Ġ6 9
Ġperson s
AL E
Wire Format
Ġ1 25
56 5
ph ere
BACK END
Ġf ake
Get Name
ĠCLA SS
ĠScal ar
Ġlo st
ĊĉĠĠĠĠĠĠĠĠĠĠĠĠĠĠĠĠĠĠĠĠ Ġ
el s
Ġcomp ression
Ġtr ap
Ġ eq
x db
Ġdiffer ence
// ===
Ġc txt
M Q
ĠTr ack
LAN K
con version
REF ERENCE
Ġf close
UN IX
Con d
Ġcomp ressed
I ENT
Ġg pu
VI SI
rule s
n z
target s
Ġp et
Ġ( '
EOP NOTSUPP
u zz
un ordered
Ġsend er
)) .
ĠQ ByteArray
Ali as
ĠT y
out b
un icode
P ublic
ab i
Ġif ace
Ġsim ilar
-------------------------------- ----------------
i et
RES OL
g test
ĠA LC
Spell Info
ĠG E
> ()
signal s
eg round
3 60
Col lision
ĠL PC
. ;
CH R
ĠF ix
M ER
Ġg imple
Ġm ux
f cp
Ġgener ation
čĊ čĊĠĠ
cur l
ĠH eap
S CTP
STRI CT
cr a
ĠS ection
pol ation
> ",
ĠB TRFS
ĠP tr
Ġf ocus
Ġst ri
Ġb c
Clo sure
er m
de nce
DB us
sec ure
TIM ING
A uras
Ġph i
Frame buffer
state ments
de sktop
: ",
M essages
DIG IT
ht able
V elocity
ident ity
ex e
et y
ful ly
B N
17 0
B ank
sc b
ri ev
me an
FL G
Ċ ĠĠĠĠĠĠĠĠĠĠĠĠĊĠĠĠĠĠĠĠĠĠĠĠ
PF C
W CD
Ġ7 6
PA USE
CH UNK
f z
arg est
domain s
d id
m essages
Ġm ag
ĠLo op
ĠE QU
14 6
Ġdescrib ed
Ġq t
Return s
Comp iler
Ġinv oked
Acc es
C ANCE
ĠFUN C
Ġex tr
ĠE ngine
Tool s
Ġr i
ĠGet s
Ġor g
STY LE
Ġim ages
l w
Ġ(_ ("
Ġp ull
request s
ĠR FC
R ound
fi ler
=-=- =-=-
ĠW rit
U UID
Ġ ĠĠč
BL UE
Ġlog ic
E st
Ġ queued
ARG UMENT
-+-+-+-+ -+-+-+-+
Alloc ate
ĠC X
ub ble
8 01
Ġresult ing
WA Y
ĠCO DEC
ĠQ Action
per mission
PRI M
Ġinsert ed
AR C
lib c
26 3
m dev
andid ates
SI F
` `
finit e
uc ed
a us
Ad ded
e load
reg ions
dig its
e ax
JNI Env
h ow
e peat
() +
ĠP AL
US AGE
addr s
exp ires
ob ot
ĠText ure
3 30
M s
k r
Ġd ay
ql a
gener ator
ĠDeter mine
Load ing
S leep
Con verter
format s
Cast Spell
g char
ĠT i
res olution
ad ded
ializ es
Ġs ur
Ġf ifo
Ġs uffix
Ġm aint
ut ility
Ġrepresent s
N an
yn chronous
ĠB N
c alloc
ĠT AG
GRO UND
ai o
DESCRIPT OR
ĠS EG
ĠSy mbol
PR T
ĠA ES
stat istics
ĠWi n
PN P
Ġdis p
G CC
| .
ĠS B
Ġm bed
p W
r pm
D NS
CO S
Ġk object
PE T
Handle TypeDef
Ġr ace
Ġ9 8
ĠPython Qt
Ġret rieve
16 9
ms s
ĠN GX
R Q
s low
Rect angle
Ġcoeff icient
P NG
im ag
ĠH AS
GL int
Over lay
ĠV irtual
Or g
ic sk
Mod ified
Z Z
>> >>
ĠSt andard
d vb
18 8
Ġse ct
r eload
3 64
Ġper cent
ĠC BlockIndex
String Ref
Ġ7 8
20 6
sub tree
PRI O
f riend
ĠGL ubyte
Sc heme
CE LL
SCHE ME
Ġp x
Ġ7 9
Ġsc aling
ĠM erge
Ġid s
IM R
l vl
ĠW DI
z y
block ed
PM IC
ut ls
Ġc ross
finis hed
Ġc ategory
f use
ĠĊĠĠĠĠĠĠĠĠĠĠĠĠĠĠĠĠĠĠĠĠĠĠĠĠĠĠĠĠĠĠĠĠĠĠĠĠĠĠĠĠĠĠĠĠĠĠĠĠĠĠĠ Ġ
mat erial
Lo aded
Ġanal ysis
Ġr tc
Ġcr ash
Ġs ublic
BL END
rel ation
Ġbu ilt
iz ing
fl t
ĠD es
ĠN ormal
ac ct
cr ete
Ġch anging
Ġ8 4
(" ");
)* (
Ġend ian
Ġ8 8
__ ));
r ss
ĠF ail
b ine
WI DE
Ġsublic ense
AUTH OR
plan es
comp ile
IC R
ĠS ys
TO O
ĠC ache
Ġany way
Ġ ĠĠĠĠĠĠĊ
, *
Ġm map
Ġred uce
Ġwh o
Ġ DEV
Ġtoken s
P hy
p addr
mple ments
ĠA CK
button s
G D
Control s
tx n
V oice
Ġchar s
L PC
Ġres erve
CRY PTO
ty p
P DU
fr a
per cpu
Sm art
Ġvert ical
J oint
ĠSt ep
Ġs id
Ġunder lying
tool s
ĠD ecode
Ġ40 96
Ġsyn chron
ĠDE CLARE
n ers
ĠH ttp
L U
12 6
pri m
Ġcount ers
sib ling
Ġ1 03
List en
tr uncate
A W
Cl ause
AD J
/ ****************
Ġstop ped
ĠGtk Widget
TA GE
gover nor
ĊĊĉ Ċ
se n
FI LEN
ĊĉĉĠĠĠĠĠĠĠĠĠĠĠ Ġ
N FS
Ġpro tect
REAS ON
Ġdiv ide
B ATT
Ġlat ency
SO LE
S coped
Over ride
Ġdim ensions
################ ################
Ġcycle s
Ġtol ua
t ake
V X
FA LL
LV L
Ġcomp uted
atern ion
ĠB M
Ġoccur s
ĠV G
Ġre ach
ĠF X
Ġcompat ibility
xa e
Init ialized
r epeat
ug ht
12 9
Vert ices
Mis sing
unic ation
Move ment
Ġs me
clo ud
anch or
hand lers
Qu ick
At omic
COND ITION
m si
MON ITOR
ffff fff
DA MAGE
Ġsection s
ac o
E val
l ane
ve loc
Ġexact ly
om ial
widget s
ĠApp end
sc aled
quir k
ĠOB J
ĠLo ok
l ain
Ġs it
Ġg ives
D G
Min imum
sh ost
tv buff
Ġk Instruction
â Ģ
Ġhton s
GO TO
ites pace
WINDO WS
Ġ" $
ĠP ush
Ġaccomp any
// **
) <<
Ġ8 5
xe a
dl g
ATTA CH
SU MM
Ġsupp lied
A U
p ick
Ġ8 2
max len
fil ters
EE PROM
ad b
ĠCH IP
Ġo thers
ĠE M
may be
4 30
ĠExpr ession
watch dog
Ġ10 5
Ġtim ing
Ġc e
al er
ĠI T
00 80
Value Type
14 5
Ġsp an
pres sed
VER BOSE
Ġan imation
place ment
ip a
ĠK VM
li min
H U
99 9
mode m
mem cg
CT S
m etrics
res ched
SH OT
Ġshould n
Red uce
26 5
ri nfo
Prev iew
ĠN C
str cat
p mem
s ce
SPE CI
x de
r ng
ge om
Ġl icensed
ch anges
Tag s
ĠP ID
im x
Ġrt w
cre ated
INT EN
As sembler
H i
AD ATA
ĠL td
w string
M o
SP A
v n
ip es
DI ALOG
Ġ ng
ĠT IME
Ġr anges
Ġr nd
Q OS
Ġwl an
stat ion
f ake
Pri mary
AC Y
Ġdr ag
type of
__ (
Ġb attery
cal led
Arch ive
ĠAT TR
co g
chron o
mb us
Fl ash
x or
qu it
å Ī
Ġ8 3
Im Gui
Ġtrans f
Ġm ajor
/**************************************************************************** ***
ĠCon nect
C ycle
ED IT
Ġaccompany ing
ĠC RE
X EXP
24 8
Ġ' ;
ĠUn icode
LI KE
q up
Ġinst ances
Ã ±
UT ION
Ġ( ),
p B
Ġ8 1
ĠP LAYER
ĠB yt
O SC
is er
Ġr gb
an on
Ġf ully
Rad io
Run ner
an imation
ĠU nk
SEQU ENCE
\" \
Ar e
Ġsched uler
li ned
Ġw c
Ġat temp
D ock
ĠN okia
AR K
ĠAdd SC
ĠQ ueue
Sy n
Ġen crypt
ĠCOL OR
COLUM N
u control
def group
Ġe i
L N
RE PLY
t os
pd y
Ġ1 23
Spell Script
Out come
Ġres ize
000000 40
Ġj object
ĠID S
Ġp Item
ĠS can
Ġb d
Ġw cd
b oss
L ang
ob s
From String
Get ProcAddress
Sep arator
IS D
ĠML X
MB US
ĊĉĠĠĠĠĠĠĠĠĠĠĠĠĠĠĠĠĠĠĠĠĠ Ġ
ĠEnt er
201 0
Ġh p
C ar
Ġd si
ĠCon nection
MI B
CH ARG
ĠTh at
Ex ample
St encil
ĠL im
Ġp w
ur er
b eta
RE CTION
Ġpr ess
ACCE PT
Basic Block
ENG INE
Ġamd gpu
FAM ILY
co uld
ĠĊĠĠĠĠĠĠĠĠĠĠĠĠĠĠĠĠĠĠĠĠĠĠĠĠĠĠĠĠĠĠĠĠĠĠĠĠĠĠĠĠĠĠĠĠĠĠĠĠĠĠĠĠ Ġ
atal og
ip ient
Ċĉĉĉĉĉĉĉĉ Ġ
ĠL isp
global s
Ġth ing
se gs
ĠR equ
U i
view port
Con structor
con structor
ol ation
Ġde pendenc
N amespace
Cal c
j k
ĠCon structor
Ġmid dle
SI DE
Ġcon v
w a
it able
ĠH DA
Ġh s
ĠR el
!! !!
w ide
ar ily
P OP
ĠS ample
AR GE
Ġgr ub
Ġde pending
UL K
ĠT ree
wh ite
Ġ" __
20 7
L aunch
Ġseg ments
ĠS CB
lo ff
Ġ[ &
T AP
X M
l ambda
U nder
ĠDIS P
Lay ers
ĠNO DE
ĠE lf
ĠP urpose
ĠP CM
Ġn c
ĠB rowser
Ġget ting
Rece iver
m fc
n av
ab stract
Ġbl ue
ĠC Tx
cmd line
20 5
min imum
ĠN F
G REEN
Ġarch ive
EL F
ĠS ession
00 9
ĠAb stract
R ing
20 8
Ġco me
ĉĉĉĠ Ġ
x DB
ĠW HERE
out Error
clu st
Ġ( ++
A gg
ector ies
Ġgl ad
F ake
ĠS uccess
Ġ-- >
Ġp al
ĠG RPC
P MD
Ġlog ging
ĠBIT S
IS A
sp awn
REG NUM
X C
j oint
Ġrefer enced
get s
elet on
Pl ug
Ġ{ .
Cor r
s ampling
Ġpl us
Ġtimes pec
Ġp n
Ġw pa
v k
ĠM II
xff f
Ġmodule s
WI FI
fer ence
ĠD AG
* >::
rs si
11 8
ALIGN ED
Dispatch er
T i
Ġqu ick
FO RE
Ġx x
DL S
' '
ĠI SO
writ es
p M
lu etooth
Orig inal
By Name
Ġcol ors
ME T
B eh
ĠS F
soft c
H istogram
sm art
Col ors
Ġb eta
Ġli kely
201 1
DI A
Ġtr unc
scan ner
it ness
SEL F
Ġres olve
DA G
im ap
B ER
Ġdeve lop
Ġch rome
Ġlist ener
ph dr
key word
ĠP op
ĠT CG
Vis it
ĠP D
Allow ed
OR B
ĠT OK
ator y
Ġ(( !
P iece
ĠU SER
ĠD NS
D ay
Ġsc hema
EXT ER
Ġf urnished
Cert ificate
limit ed
ĠP WR
ĊĉĉĉĠĠĠĠĠĠ Ġ
xc a
Ġsy ntax
ĠB r
Ex pect
Ġv cpu
En code
ST K
MC U
Ġre peat
Rest ore
ĠD irect
QU O
Ġeffect s
Ġconsider ed
čĊĠĠĠĠĠĠĠĠĠĠĠĠĠĠĠĠĠĠĠĠĠĠĠĠĠĠĠĠĠĠĠĠĠĠĠĠĠĠĠĠĠĠĠ Ġ
E CC
Ġab sl
2 30
" ].
Ġ2 50
n ss
ĠT L
W U
Ġ ĠĠĠč
Ġp W
Ġpa inter
ĠA ut
ĠINT EGER
Ġch oose
MAN AGER
ne st
sub type
I gnore
Ġb at
SHUT DOWN
LL OC
8 192
Ġsyn aptics
Ġcontrol s
ĠGO SSIP
S FR
Ġl ang
filter ed
ĠNot ify
ubli sh
PL UG
N avigation
Ġtrans lation
pect rum
Ġc ipher
s se
Ġs ources
Ġsi mpl
ld o
Ġ queues
IF TYPE
i q
ĠTrans fer
Ġp st
as io
ĠL GPL
Bound ary
Equal s
Ġpl at
č Ċĉĉĉĉĉĉ
upport ed
ĠD ocument
ble ms
tr an
b urst
S cr
Ġy ear
Ġg t
no ise
Ġs pr
Pl us
pc ap
Ġt f
x CC
//////////////////////////////// ////////////////
ĠR out
lib pg
ĠS em
D ummy
H ardware
ĠE S
TIME STAMP
o mp
4 80
Ġre covery
C mp
arb age
T ail
io addr
Mis c
max imum
Ġmbed tls
lo y
Ġposition s
Ġt l
TH RO
13 7
i ction
SK ILL
mo us
un iform
01 3
FI RM
ĠPro file
Ġp block
ad apt
SP K
REA CHED
s To
Ġconf lict
Cap acity
Ġ7 7
MM Y
pl ain
Ġprot ection
SP C
Ġrad io
co ords
St amp
Ch an
/ >
); }
os d
see com
G LO
add Action
ĠU NU
Ġback up
par sed
start up
H F
Ġsc heme
W X
Ġw s
PER IPH
Ã ķ
Sp acing
ME D
a N
ĠGLE W
Map per
ĠL INUX
ĠUNU SED
HANDLE D
Ġ( --
b ps
Ġclient s
ĠR D
ĠPlay back
Ġdec imal
Ġ7 3
Stat istics
p R
VOL TAGE
22 2
T OR
ĠQ ual
FA CT
ri ction
Ġhig hest
æ ķ
CONTR OLL
Var s
Ġde coding
ast e
Sched uler
Ġgo es
Ġfile Name
v ect
S eek
S olver
Ġpro g
ï¼ Į
Ġa pi
Ġlim its
ĠF O
Web Contents
ĠEx it
Ser ialize
ec ause
ĠUnk nown
++++++++ ++++++++
log ic
2 15
Ġw ide
Ġread only
; "
C Q
Ġsub system
cul ar
ĠI nclude
l arge
ĠF ast
Ġ ĠĠĠĠĠĠĠĊ
Ġ1 24
en ario
cap abilities
u ling
Ġd ie
Col lect
C ritical
an i
Exec ution
ĠM ic
........ ........
ĠB l
to Int
CON V
Ġ" *
cl ause
ang o
Ġdecl arations
Ġm u
Ġcl ause
Get Type
P adding
or ientation
ag g
Ġstart up
ac quire
ĠD M
start ed
A O
as d
LE AR
Â ¯
Com bat
I IR
neg ative
Ġstd err
Ġ1 17
ĠO C
FF ECT
U MB
write back
Set String
000000 80
ĠĊĠĠĠĠĠĠĠĠĠĠĠĠĠĠĠĠĠĠĠĠĠĠĠĠĠĠĠĠĠĠĠĠĠĠĠĠĠĠĠĠĠĠĠĠĠĠĠĠĠĠĠĠĠ Ġ
SF ER
av or
pipe line
tab s
er ated
c lineno
Ġbind ing
Ġp md
f old
rece iver
Ġ1 44
RT S
Ġo paque
fo ur
> :
ĠD own
Ġ um
ĠT V
( [
Ġlook ing
track er
he alth
output s
C SD
P ATTERN
Check er
ĠV P
ĠPACKET VER
S izes
ĠA nal
LIT TLE
Ġstd out
AV A
(( __
N eeded
eg ister
ĠT op
J ump
Pr ep
le s
Ġc url
lo ss
al go
Log i
xA F
ur ple
clo sed
P rec
ĠRT L
> )
ĉĠĠĠĠĠĠ Ġ
Ġdev m
pr td
se en
Ge om
ĠTemp late
Ġf older
ot ype
Ġc aps
ĊĉĉĠĠĠĠĠĠĠĠĠĠĠĠ Ġ
Ġcompat ible
h ig
ump t
aff ic
er enced
w ater
ĠAD DR
rypt ed
TO DO
VARI ABLE
M IS
G pu
Ġ0 000
w ave
ID I
000000 1
vers al
ĠVER IFY
step s
Command s
f loor
S at
er os
le ader
Ġstream s
ling er
CONTA INER
Ġ" {
Ġfor each
] ],
Ġc andidate
ĠK GSL
ĠP VR
p nt
J UMP
[ *
Ġblock ing
23 8
ific ant
Ġcom bin
Ġgl Get
Ġd ns
ĠDe fi
mat ched
ose n
ĠF ixed
Ali ve
frame buffer
01 5
Ġu dev
cor r
ĠSPD X
G FX
r k
Cap ability
Q ue
ĠM IPS
. "));
Th r
od ing
cl usion
Upd ated
Ġint eg
13 1
Ġ util
ĠB AD
ĠIter ator
Ġ16 0
2 14
Ġ art
x AC
ĠPER F
Ġlevel s
ĠWIN API
A nt
Ġp alette
Logi n
Ġown ership
z illa
SPE CIAL
SU ITE
Ġgu ard
wait ing
O GLE
min us
A VE
ĠP Y
ĠHel per
ir it
I SC
Ġbo ok
Ġg ui
Get Item
ĠValid ate
Spec ial
xE E
sc heme
h list
// *
01 4
Del et
ing er
Ġd bg
ech o
LINE AR
Ġs erv
Ġview s
ĠV ertex
Ġf name
Ext ent
Ġfollow s
Vis ibility
Ġre load
Ġb ss
ĠD F
count s
ĠI gnore
en coded
limit er
Ġstat ion
ĠQ MessageBox
b nx
V G
D SS
default s
Ġper m
âĶ Ģ
su ite
SP IN
call s
N IL
G l
ENT ITY
ĠB ind
cal culate
Ex c
H IT
Ġr te
Decl aration
ĊĉĠĠĠĠĠĠĠĠĠĠĠĠĠĠĠĠĠĠĠĠĠĠ Ġ
Ġp ins
Ġp itch
c rop
ĠFI ELD
Ġj ava
Ġn and
EXTER NAL
Ġx en
Ext ensions
RE MOTE
Rel ation
Ġnew ly
ST AGE
get her
E SC
reg no
ĠS ENSOR
ĠFor ce
Gener al
ME TA
G round
== (
nit y
ri v
Ġl ambda
D id
] ];
ext end
plic a
U sing
Ġf ac
m icro
Ġpro cesses
Ġ% #
FORM ATION
n ally
W alk
SHAD OW
FOR WARD
Con struct
B CM
Ġ ulong
str error
d get
Read Write
2 0000000
ang ular
ac m
i ow
Ġw p
Ġp at
th umb
fc ntl
S AS
ĠV LC
ĠDi ag
Ġdig its
Ġf m
Mouse Event
view s
ĠDet ect
' d
lcd c
t urn
Ġauth ors
str l
B K
E p
n os
ĠB CM
WAKE UP
se cret
mon th
ĠSER IAL
al ert
33 5
Ġcount s
SS P
ĠT eam
W e
ithm etic
ĠS AY
ĠL e
Match er
w all
Ġun do
Ġ{ __
ĠHA SH
" };
H w
J K
20 3
ĠHAND LE
Ġrec ent
ĠGEN ER
RAD IO
Ġh orizontal
h read
Ġdiag nostic
! ",
stand ing
av en
Ġframe work
T ITLE
to ur
OVER FLOW
Ġpos sibly
Ċ Ċĉĉĉĉĉ
c ritical
link ed
ch oice
ĠS ocket
B X
rt s
ĠFRA ME
8 80
Ġstep s
chan ism
termi os
Ġac ross
vol t
Ð º
ĠN ative
rt e
SCO PE
y m
ĠM OD
Sh ould
rest rict
18 5
v si
SV G
ĠMA KE
ver b
Con t
ĠT AB
frag s
an a
Ġne ar
de nd
Ġdestroy ed
ATE G
P kt
H ave
CHANNEL S
e pl
ĠUt il
02 2
Ġgr een
ĠREG ISTER
ĠHT ML
Ġu b
ea ded
W T
Is In
F RE
W K
TR AP
PREC ATED
e cover
os sip
cache p
Path s
comp leted
offset of
Ġa e
24 4
am az
ĠME TH
Det ect
ch arging
ateg or
f an
Sub sc
Ġ RES
P o
buf len
S DC
Res olution
ĠĊĠĠĠĠĠĠĠĠĠĠĠĠĠĠĠĠĠĠĠĠĠĠĠĠĠĠĠĠĠĠĠĠĠĠĠĠĠĠĠĠĠĠĠĠĠĠĠĠĠĠĠĠĠĠ Ġ
her ited
Ġst ores
KE EP
Ċ ĠĠĠĊĠĠ
Main Window
or n
ther net
SI ST
Ċĉĉ Ċ
ĠS um
ĠRE SET
W O
m tr
Bo ard
ĠS Z
ĠA tt
); //
Ġlock ing
Wait For
ff e
SA rray
Ġar en
Ã ¼
stop ped
ĠI SD
G esture
ĠCont act
pk g
pc b
Li nux
y es
ig ure
pp p
NO W
ĉĉĠĠĠ Ġ
________________ ________________
sh rink
PC R
at able
ĠCY THON
Ġfl at
Ex tract
Bg L
g fc
ĠGPIO MUX
Ġfor k
B undle
6 55
Ã ¦
lex er
IP v
ĠZ ero
vel y
TI CK
03 3
De fine
SI R
ĠEx ample
() ");
VI SION
Ġ ĠĠĠĠč
2 0000
ĠEx tract
ĠB us
rit y
ĠP H
Ġm otion
co herent
l st
LE G
cl p
CH AT
B alance
Ġin direct
ĠF ull
Ġse ems
Ġexec utable
av io
32 8
RE SUME
Click ed
th rough
â ĸ
H orizontal
Ġn bytes
Ġh ist
ializ ing
EQUAL S
ĠSe cond
Ġ8 6
ML X
M ST
ĠREQUI RE
fw d
NOTI CE
cell s
ne ver
Input Stream
ĠO TG
m and
ĠH P
Ġsc atter
Ñ ĥ
GENER AL
int ra
11 9
Ġde structor
M HZ
ex plicit
13 8
Ġad reno
ĠD RI
constant s
(& _
ĠTE MP
ĠD ynamic
ĠW NI
qual ity
15 2
d ers
requ ire
fi b
Ġu dp
3 55
ve h
od b
ĠDest roy
ĠU L
A rc
Ġty p
ĠUN I
v ia
Ġ ------------------------
n printf
D bg
EX YNOS
Ġattr s
uf act
S LO
Ġv ehicle
SC ROLL
n Height
ĠThe n
ĠWh ether
de queue
Ġqu al
DIF Y
S OL
END POINT
ĠQ Rect
Ġusers pace
Ġb roadcast
U ntil
Ġo bs
Ġv elocity
0000 0200
Ġformat s
Ġ1 30
_ {
A FE
Ġchunk s
Ġag greg
qu ick
n ump
h ole
ap on
Ġm ob
env ironment
line size
PD F
World Packet
20 16
Ġh ole
or r
part icle
User Data
ĠU DP
ĠIP PROTO
x AB
R SSI
An i
fs g
PE ED
r ices
Ġp res
l ated
py thon
mo jom
x ED
Al t
BU RST
amaz on
MAT H
W ave
ST MT
ceed s
B ot
rc mf
... ");
Ġb ridge
b eat
xB D
ĠI SP
T oggle
en us
string stream
ĠG UID
sort ed
vis ual
v ga
ab b
Co ordinate
Un signed
ĠG dk
c able
rem oved
write b
cl amp
RE COVER
Ġp an
xB C
C leanup
ony mous
ĠN M
Ã ª
PRO XY
N av
ATTER Y
UP D
Ġd vb
ERT S
p ud
rt nl
Ġagree ment
ith ub
C sr
bit rate
PROTO BUF
Ġ1 36
Ġblock ed
Ġreport ed
ĊĉĉĉĉĉĉĠĠĠĠĠ Ġ
ĠGL double
C ENTER
ã Ģ
Ġ1 29
pm c
symbol s
r ecover
N IC
const expr
Ġimport ant
g sm
ab er
arg p
d dr
veloc ity
7 20
R TOS
L ex
UN ET
Ġ ether
Ġcon sist
Constant s
res olved
fr ac
de precated
ĠSY N
Ġor ientation
AD MIN
put c
ĠEV P
Ġ ****************
w k
In ner
ĠR untime
Ġlay ers
ĠCH AN
ffff f
c st
24 3
G ON
Ġ= ================================================================
Ġag ent
ĠS OL
Ġc rtc
ĠBU F
SE LE
Vert ical
An chor
s db
) __
ĠD S
SE CUR
Ġver bose
13 3
ĠC Script
Ġkey board
ex ynos
ĠStat ic
] ++;
ros oft
m rq
ĠIn formation
ai ko
Ġde let
sg i
ĠW I
Callback s
p clk
fs m
CON SOLE
C li
g imple
si an
Ġr a
ĠCO M
b mp
semb le
SA Y
Test s
si vely
ĠQ Test
Ġtick s
Ġp cm
f abs
ime d
ĠAUTH OR
LIKE LY
Ġad c
ier archy
Ġ ĠĠĠĠĠč
ĠS ched
ring stream
n vert
Ġpack ed
Ġtr a
pro cessing
Ġdefault s
B ridge
Ġp ree
Imp licit
==== ===
ĠH I
Ġe ver
Ġmap s
ĠT EG
(" :
ĠN v
Ġp node
msd cc
print er
/************************************************************************ ***
Ġcert ificate
Ġ æ
ag raph
gr ab
ĠF MC
ĠTrans mit
Ref Ptr
ue nt
label s
ĠA CT
Ġtr ailing
red uce
ĠB egin
call er
Ġmis match
RD Y
Part s
Ġkey word
ĠPer ipheral
Ġf h
CE rror
Ġa verage
Call er
Ġv oice
B IO
SP M
p ers
Ġv endor
SA MPL
Ġ0 1
THREAD S
ĠN EW
S ervices
R o
Ġr am
L AND
16 5
Ġ` `
ĠDesc riptor
F requency
01 7
Wr apped
VARI ANT
ĠM esh
D ONT
sy mtab
19 5
Ġbe come
H INT
th eta
Ġlog ger
C a
I Q
str ong
ĠOper ation
BR IDGE
M usic
ĠTEG RA
Ġb al
Ġle ading
Ġover lay
2 17
Sp awn
INT F
termi nal
ĠO b
ĠS eg
ĠIN P
ĠM agick
G ING
adv ance
Ref Count
ff t
dup lic
ĠA I
r aise
Inv oke
; ;
Ġre location
Is olate
REG ULATOR
UNI CODE
Ġbl ack
I METHOD
23 5
Ġc pp
Ġtemp erature
Ġ! _
cycle s
ĠSD Value
22 6
acc um
Ġaud it
pop up
SECUR ITY
ĠCOMM AND
Gu ard
Ġpro vider
ĠPl atform
m time
Ed ges
s scanf
Cr eated
Ass oci
oi se
ĠT ab
Ġq Debug
TH D
ID S
front end
ns ity
alle nge
Ã §
ĠĊĠĠĠĠĠĠĠĠĠĠĠĠĠĠĠĠĠĠĠĠĠĠĠĠĠĠĠĠĠĠĠĠĠĠĠĠĠĠĠĠĠĠĠĠĠĠĠĠĠĠĠĠĠĠĠ Ġ
Â ¦
Ġco ord
200 9
g x
sy ms
de leted
en queue
čĊĠĠĠĠĠĠĠĠĠĠĠĠĠĠĠĠĠĠĠĠĠĠĠĠĠĠĠĠĠĠĠĠĠĠĠĠĠĠĠĠĠĠĠĠ Ġ
Ġs hell
p mlme
15 9
U ndo
m cs
H y
ain s
INCLU DE
Ġnon atomic
ĠM IC
s lim
U K
CY CLE
Ġn i
ele ct
support s
88 88
SI MPLE
201 7
SI MD
ĠP a
PIN MUX
Get Int
) >>
D rv
H ome
~~~~~~~~ ~~~~~~~~
Ġm ic
Ġun able
X L
ĠM VT
Ġprop ag
fir e
01 8
S uper
P ic
Ġ* ));
M SI
25 2
FR M
s ur
T PC
is sue
Qual ity
Ġlabel s
a ic
Ġin correct
HE AL
Ġb roken
X I
Ġfollow ed
Wh ite
M ul
Ġ'\ \
-------------------------------- --------
f bi
Ġh b
Ġwant s
Ġ1 32
key board
Ġrect angle
I l
ĠPO LL
ĊĉĉĠĠĠĠĠĠĠĠĠĠĠĠĠ Ġ
c ifs
ĠGraph ics
co lour
aff s
W ay
RD ONLY
ĠT urn
14 8
Ġd ropped
Ġ ĠĠĠĠĠĠč
TH R
Q R
Ġbe acon
ĠIN CLU
15 7
CB C
ĠSet tings
abc def
DE ATH
Ġar bitr
ĠN ull
bo unce
Ġ8 9
CONTIN UE
back light
Lo ot
T ok
sc i
f eat
d of
r val
66 66
ATEG ORY
ev en
Comp ile
ĠTech no
ĠAt tribute
Ġ ĊĊ
ĠX t
ĠAd v
API C
i ator
V GA
Ġpi cture
prev iew
ĠT P
Res olver
ĠSO AP
4 0000000
ITER AL
HO ME
tab la
Ġcomplet ely
Ġgl m
S ock
SG IX
WireFormat Lite
Ġsever al
Ġh istogram
ĠSig nal
xE C
n ator
ne ighbor
po six
ĠM e
HO OK
ĠPer form
im c
ĠPar ser
am a
P ressed
UNIF ORM
Ġsc aled
task let
defi nition
v ision
pr t
ĠL UA
Ġ1 40
mem bers
ic ates
T BL
al ling
d B
opt arg
MACH INE
af x
Ã ¢
iv ative
ĠExec ute
Ġ2 24
Ġint ern
P MC
ĠI A
LAY OUT
CH ILD
pix map
be h
37 5
n xt
RUN TIME
ad a
Rem oved
Con tains
ĠRE Q
Ġch ance
Colour s
ĠRes ponse
TO TAL
Ġqu ad
Ġr k
ĠD ump
ĠCount er
ĠS CHED
sub ject
View er
ind irect
ĊĉĠĠĠĠĠĠĠĠĠĠĠĠĠĠĠĠĠĠĠĠĠĠĠ Ġ
Ġt ot
ench mark
ĠC ast
ĠI L
ĠOB JECT
ĠIn v
y zer
pro tect
Ġwh y
Ġfall back
ĠNO TIFY
Ġcomm ercial
ĠID s
ĠL et
ĠO PC
Phys ics
18 4
d ro
the me
tun er
Ġwh ite
200 1
egr ation
dh cp
Ġm ix
ĠBi nary
) ";
Ġ& ,
cd c
bu ddy
M ajor
/**************************************************************************** **
Valid ate
fi ni
h our
24 10
Ġ199 8
Ġl u
Act ivity
88 8
sm c
it ter
i nator
ant s
ele port
80 8
is s
SQL ITE
E q
16 6
fc lose
SU RE
ge o
Ġcomp lain
02 1
K nown
i nvert
Ġspell s
_ <
M GR
x CF
In c
client s
Res p
Ġm ips
ĠS rc
AA AA
2 60
Get Player
Dis p
p q
REC V
PORT S
Ġ ĠĠĠĠĠĠĠč
cap able
7 0000
res olver
ä »
PEN DED
h v
Ġ9 4
And roid
z u
B IOS
Ġ7 1
Ġl v
sd c
` .
Ġw tx
å Ĳ
Y ES
K ill
ĠQ Color
Ġselect or
ĠN A
Rel ative
Py thon
W F
V REG
clk s
tr b
ĠC Transaction
Dis connect
RT MP
Lookup Entry
Ġrepresent ing
cr t
Ter min
ĠS IO
ĠSele ction
n ick
L ive
SEG MENT
ĠD DR
ame l
ST YPE
ĠF IR
> ());
80 4
Ġcreat es
ĠAUT O
Ġindic ating
Ġcap ability
finit ions
SUMM ON
XF ER
DB L
Ġre use
S ender
Ow n
s With
th at
vol ution
Ġ0 2
stit ute
Ġind ividual
ĠRest ore
MP S
ĠVis it
ĠA UD
om ux
ĠCPU s
bi ned
sd hci
Ġg id
Ġn m
Ġim mediate
p lot
Ġi a
Ġv x
76 7
ĠRA DEON
XY Z
Is Empty
AN ALOG
Ġf atal
G ate
ĠR ect
ĠGL boolean
)* _
ENT S
Ġc ss
Ġcalcul ated
H H
ĠM F
ĠM enu
activ ity
IMP ORT
P SE
ĠA PR
Request ed
fi nfo
Ġpro blems
Ġs vc
Ġstr cat
O SE
Ġad apt
ep h
yn omial
per t
ĠG D
x o
q e
P ages
Ġter minal
INO DE
Mod ify
Ġf ilters
session Entry
Pa inter
RAN DOM
ĠAp plication
ss h
0001 0000
ĠU RI
15 6
ĠDIS ABLE
Ġg amma
Component s
K GSL
dim ensions
O CT
Ġ8 02
W ide
F IND
Ġl s
Ġv fe
ĠI C
E v
od ate
comp osite
ĠK eep
mp u
ĠF ont
ĠC URL
um ing
Ġu uid
Object Type
p si
decl type
Ġas ynchronous
A PE
Ġmat ched
0000 0400
)) ));
mp z
UN DEFINED
ed id
Key word
net link
QL atin
un less
ĠD er
Opt s
Str ategy
Ġev t
d type
234 56789
Ġr ename
] "
ro ker
Ġe as
WH ITE
G LIB
r an
ĠĊĠĠĠĠĠĠĠĠĠĠĠĠĠĠĠĠĠĠĠĠĠĠĠĠĠĠĠĠĠĠĠĠĠĠĠĠĠĠĠĠĠĠĠĠĠĠĠĠĠĠĠĠĠĠĠĠ Ġ
x CA
ĠA SCII
de init
M ed
lo ut
ri ft
pan ded
n able
Ġh list
ĠS OC
F AR
an it
i h
ir ection
me ga
up s
t sc
GPIO MUX
Line Edit
pect or
get Instance
g ithub
ĠFl ush
quir ks
aa a
AP ON
Aura Effect
32 2
ef x
Ġr r
user data
19 4
17 7
ine s
Trans late
SP LIT
ĠAct ive
Ġs pl
ĠN AS
M id
S izer
******** ****
Ġhow ever
ĠSh ift
frame work
LIC IT
Ġlicense s
Ġ" ")
par allel
bl as
Ġ1 26
ele v
P itch
aph ore
80 7
Comp ressed
pi ece
w ire
lay ers
A rr
LO GE
illi s
C CE
et able
Bl k
() ==
Rule s
Ġs parse
o a
ok ies
top ology
AR P
TO G
UN SUPPORTED
z a
ĠR ow
Ġis csi
H idden
Ġsh a
Ġ204 8
ĊĉĉĠĠĠĠĠĠĠĠĠĠĠĠĠĠ Ġ
O s
J OB
Button s
ĠMA V
OS PEED
TRAN SFER
ĠAs sign
Ġp Data
Bl ue
19 6
Ġ ĠĠĠĠĠĠĠĠč
/* ----------------------------------------------------------------------------
ĠÂ ©
Set s
E H
f ollow
ĠT ra
FT ER
F mt
ĠB LA
ĠF R
RE CE
um an
MA IL
iffer ence
W hen
( ...)
ĠN B
ĠL ib
19 1
Ġg row
FA CTOR
id r
0000 1000
nowled ge
Transaction s
p cpu
ĠN U
do or
ar s
ĠW S
CONTROLL ER
pro cessed
ĠC amera
Ġr oll
ag er
Start ed
Z O
ĠOption al
l pm
duc er
E FI
c andidate
Ġde pendent
QU AL
PA Y
Ġaccord ance
p node
ct ime
P as
PRINT K
sock addr
xD D
Ġpair s
ĠCont ent
Ġmis c
L ITERAL
14 3
com es
Box Layout
Ġc ritical
Der ived
v ial
I mg
Ġband width
ID R
Ġover lap
Ġ1 18
UG H
ad m
85 00
mail box
æķ °
ĠT K
(" .
ĠE GL
Ġo ss
Ġal ter
Ġz oom
op c
Ġho me
Ġp ts
Ext ended
Ġgr ab
ĠR evision
HAL F
t if
Test Case
qu id
ĠQ EMU
Ġg it
x DC
Ne ighbor
a ura
ĠI MG
Ġdecl ared
ĠI mplementation
ĠGener ated
SI VE
Ġbuild ing
Ġpol ygon
is ation
Ġproc edure
Ġsecond ary
ĠD H
čĊĠĠĠĠ čĊĠĠĠ
U CHAR
ĠThe y
22 7
ĠM Hz
p ot
Ġse m
Auth or
S parse
a el
ĠAt omic
Ġar c
Sys Message
ĠC U
Ġo sg
O cc
esc ape
ĠM icro
P LE
Init Struct
Ġg s
Type Info
Ġcap abilities
Ġ// :
br ev
n ice
ĠALI GN
Ġcomp utation
Ġlate st
ĠSM ART
Ġr sp
get Int
lo od
Ġav ail
st h
ĠR ad
200 8
80 3
ur ations
B AT
BT N
SD K
X S
Valid ator
Ġ[ -
cal ib
ĠE ffect
Dat aset
m etric
b undle
ĠDo es
ĠJSON RP
S ampler
SC L
Ġcomp iled
n formation
y z
xD F
p se
ri nt
Command Line
Ġ ĠĠĠĠĠĠĠĠĠč
n len
25 8
Object Mgr
ĠTrans action
ĠPI PE
o sed
un able
Ġinvalid ate
fi li
i nformation
Ġ ì
ĠC ASE
Con s
Ġleg acy
h rtimer
ag ram
ç Ķ
ĠA E
64 0
19 3
23 6
ĠO WNER
PE ER
ĠSet ting
S eed
ĠOFF SET
Des ktop
M ay
ĠE nv
_ |
xE B
ĠFS MC
ĠC ustom
H WND
av id
ĠT rigger
Ġview port
ĠB EG
PAGE S
ĠSpec ial
M ass
decl aration
ĠS RC
smb us
add to
ol or
Gu ild
p wd
e li
ĠDESC RIPTION
Ġm aking
spec ified
Ġgrad ient
mm etric
Q List
EVENT S
Ġ ĠĊĠĠĠĠĠĠĠĠĠĠĠĠĠĠĠ
DIR TY
87 1
000 5
Target s
v ote
wq e
ĠE mpty
ot on
Ġc alloc
Ġex ynos
ĠX m
B AL
Ð ¼
ach ing
Ġmd dev
P OR
Ġdepend s
g as
Ġ// -
k time
Ġ2 48
s ack
Ġh ack
Ġ8 7
Short cut
co v
IB LE
COMP RESS
čĊĠĠĠĠĠĠĠĠĠĠĠĠĠĠĠĠĠĠĠĠĠĠĠĠĠĠĠĠĠĠĠĠĠĠĠĠĠĠĠĠĠĠĠĠĠ Ġ
An notation
DO G
vid c
Ġa nt
-- */
ex act
Ġmult icast
Ġprint Line
Ġf abs
Ġk time
f y
N orm
Ġto gether
s list
UD A
ĠDe ve
ĠL INE
33 3
Ġrepl aced
un aligned
Ġs prite
h istogram
Ġne ighbor
ĠE l
as pect
In crement
q r
Ġnum eric
Ġtr eat
lic es
n oc
ĠVal ues
Ġ1 13
erk le
Ġ answer
I ID
Ar m
ĠB R
ĠW ord
dr ain
Ġg dk
Ġ ĠĠĠĠĠĠĠĠĠĠč
Ġh dev
ĠD RV
W STR
Ġv lan
fi o
Ġ9 2
Ġ ĊĊĠĠĠ
Defi ned
gs bi
ĠMSG TR
Ġcell s
b an
Ġrun s
EN OT
BO DY
Ġi pa
O X
ĠR andom
v bus
ĠC LOCK
Val a
O dm
x CD
proc name
ĠIP V
ĠSYSC FG
ro zen
SV C
N ear
INC REF
SI nt
Prev ious
ĠFl ash
Ċ Č
Ġp wm
en na
iz ard
Ġdig est
Ġi or
ĠW PA
F use
Ġs un
m clk
H OLD
Ġb ond
Ġtermin ated
Ġf loor
S ORT
ĠQt Aws
n u
un ity
Ġident ity
()) ->
ĠTrans form
j i
Ġdig it
P rom
v v
ad min
av ity
ĠB SS
C ERT
MP T
ron ics
Ġm fd
c he
L GPL
so me
Z ip
Ġp en
Ġed itor
K IND
r ace
ĠV ariant
SUS PENDED
ĠE dge
Ch rome
ĠM UL
nt he
check ed
Check Box
ĠH R
def erred
ĠO ff
ĠF M
Ġs x
Play ers
R ev
Ġth ink
MIC RO
os itory
de g
W C
int ptr
Pro jection
Ġin dependent
ĠRE F
ĠĊĠĠĠĠĠĠĠĠĠĠĠĠĠĠĠĠĠĠĠĠĠĠĠĠĠĠĠĠĠĠĠĠĠĠĠĠĠĠĠĠĠĠĠĠĠĠĠĠĠĠĠĠĠĠĠĠĠ Ġ
c w
d pm
f at
W ALL
Ġb pp
40 4
/** <
Ġs ampling
lap sed
ĠM utex
Ġnorm ally
te ch
26 9
M ixer
COMPI LER
ĠJSONRP CError
Ġs olver
TI FF
Ġm secs
troll ers
Ġdec ide
gr ees
Ġweight s
Data Stream
Emit ter
Ġq la
Ã £
C SI
Ġaut hentication
k v
x abab
ĠQ Dom
")) ,
Ġrel ation
Ġ ĠĠĠĠĠĠĠĠĠĠĠč
B oot
ĠS equence
Ġse qu
hu ge
80 6
iz z
Ġre claim
Ċĉĉĉĉĉ ĉĉĉĉĉ
X DECREF
sp arse
p vt
Ġinv oke
Ġto ggle
24 2
M ic
ĠB X
DC S
ĠEQU IP
Ġ**************************************************************************** */
ĉĉĉĉĉĉĉĉ ĉĉĉĉĉĉĉĉ
Ġadv ance
W ATER
ĠSpell Script
V k
go al
d ts
XG I
mal i
22 1
Read Only
DU MMY
Ġa ur
Ġmov ing
F it
C ent
9 60
lap se
chunk s
Ġvar s
C rypto
ĠC md
Open GL
f ab
Bl ack
Ġcar ry
17 6
t u
FE AT
ĠC y
ACT ER
Ġon line
EXCE PT
x BE
Ġm anaged
Th umb
ĠT otal
Ġd h
red irect
ĠU P
Ġon to
sig ma
Ġv ictim
Ġus ually
ĠNE TIF
Al ready
ĠC ell
F action
\" ",
m ass
m igrate
æ ľ
nv ram
28 00
duc ed
Ġse maphore
Ġindex es
f pu
n am
ĠC ould
Ġw arn
ĠH ere
Ġmail box
ut y
ay ment
ĠR o
Ġlink s
(" ",
ĠV OID
ĠS ort
Ã °
if index
T TY
ĠComp onent
Hash Table
ht c
ĊĉĉĉĠĠĠĠĠĠĠ Ġ
connection s
Ġ1 38
JO IN
ĠB P
Ġlow est
Ġload er
//=== ----------------------------------------------------------------------
Ġar ena
tr ast
ON D
n Time
Widget Item
//////// ////
dir s
im ized
wl c
8 00000
DE LE
num a
Ġ1 55
ces sible
Col s
Ġc ifs
In dent
ĠG PR
ĠM ar
dr am
RESER VE
ĠC ap
Ġim x
Ġ ĠĠĠĠĠĠĠĠĠĠĠĠč
//===---------------------------------------------------------------------- ===//
A sc
ĠLoc ation
sw ift
aco bi
8 50
B RA
$ $
Ġthere fore
HE L
eg s
d py
Ġhid den
20 48
> (),
vent ion
Ġl db
ĠI FF
Ġcalcul ation
ĠD R
Ġq false
//---------------------------------------------------------------------------- --
D rive
ap d
Ġx frm
(! __
RO UTE
ĠCon dition
XXXX XXXX
h ang
Ġth er
Ġsp aces
x CE
Ġident ify
o hci
02 5
ĠT B
y ze
Ġsub sequent
QU AD
Ġcol lision
cogn ized
Ġc ir
ĠOUT PUT
ĠSO CKET
Ġspec ification
ĠDo Cast
Mode s
r dp
ad ers
Ġsl ab
ĠC lo
ft s
Ġt sk
Ass oc
abs olute
ĠM AT
oy stick
v tk
V endor
x AD
second ary
et c
Ġen s
ĠA LOG
BA SIC
ĠBit coin
fo ot
FI O
" "
c ross
RE PE
ĠIN DEX
dir ent
li ps
erv ation
ĠCharacter Database
fi nger
Ġm ock
Ġcom es
Ġsh rink
Ġrev ision
Ġsy scall
n ail
ĠM G
Ġde coded
Tri angle
TX T
mod ifier
F d
hel lo
tun ers
Ġtrans late
xA E
Ġde mux
ĠD OT
ĠT M
PRO TECT
Ġu nexpected
ĠLOC AL
E ID
get Node
Ġassume d
ĠCPP UNIT
con tin
ort ex
ĠB attle
Ġbu iltin
() \
SUP ER
LIST EN
avio ur
Debug ger
Pr epare
Ġ10 7
ĠStruct ure
ĠM aster
%%%%%%%%%%%%%%%% %%%%%%%%%%%%%%%%
Ġ ĠĠĠĠĠĠĠĠĊ
Ġlog i
ind x
Ġa u
db c
âĶĢ âĶĢ
ĠEx port
veh icle
Ġtermin ate
DEL TA
un reachable
Ġb lend
or a
Det ail
Enc ryption
34 5
Ġre cover
or er
m cast
SN DRV
Cap abilities
uto ff
Ġ ĠĠĠĠĠĠĠĠĠĠĠĠĠč
Ġoptim ization
EXT PROC
UN IV
Ġ" }
ĠB MA
ll seek
LI P
la unch
co p
Comp leted
Fl at
EN TRIES
Ġ ĠĠĊĠĠĠĠĠĠĠĠĠĠĠĠĠĠĠ
Report Error
EN CODING
0000 0800
rem ap
vert ical
Tim ing
C ross
Track Colours
ĠW idget
Be acon
15 5
ĠEX P
m secs
C ATEGORY
F eedback
ĠMO DULE
Ġd sp
23 3
Sec ret
ĠLO AD
Ġth ird
nc ip
1 0000000
it k
s uspended
de ath
Ġco lour
Ġm es
ĊĉĉĉĉĉĉĉĠĠĠ Ġ
s ampler
Ġp seudo
Pro be
A H
30 6
CR T
Ġbutton s
ĠC ard
ffff ffff
Ġint r
St ake
ĊĊĠĠĠĠĠĠĠĠĠĠĠĠĠĠĠĠĠĠĠĠĠĠĠĠĠĠĠ Ġ
Ġpipe line
Ġp ret
Ġprint er
0000 8000
Ġ ].
ĠCon st
s ptr
/* ----------------------------------------------------------------
1 00000
REQUI RED
ĠK ernel
RES SED
hint s
ĠE Q
U ri
Ġreg ions
' ),
Ġ` %
Ġb fin
Ġav g
DO S
VER SE
Ġc err
handle s
pro f
Ty ped
S me
HE LP
mar sh
Clip board
xE A
ighb ors
Get Hash
Ġco i
Ġass umes
ĠIN FO
pk ts
wh o
ĠG AME
x DA
RO Y
ic ies
Ġpref s
Get Entry
Get Object
H DA
Ġbl ank
), (
++ ];
16 3
Requ ire
As sembly
t st
ular ity
I WL
j j
Ġpro duce
icon s
Ġ- (
yy ch
In ventory
BLOCK S
Ġ// #
ĠNO TI
Ġend s
Ġclock s
24 7
Ġcom ments
32 3
Ġ ĠĠĠĠĠĠĠĠĠĠĠĠĠĠč
BRO AD
s urf
ĠPRO G
r h
ĠArgument s
Ġx fer
log ue
Ġre lev
CON DS
Ġlimit ed
ec es
ĊĉĠĠĠĠĠĠĠĠĠĠĠĠĠĠĠĠĠĠĠĠĠĠĠĠ Ġ
Ġbi as
14 1
R OR
è ¿
Ġno ise
ĠD V
a hd
Ġac cur
m as
k bd
FF S
00000000 0
Ġx cb
SIGN ATURE
Ġ& )
Ġin vert
14 2
} )
Ġadd s
pl et
H ot
ĠComp iler
Ġ1 35
FIN ISH
ort ure
Ġfunction ality
Ġesc ape
s ge
č ĊĉĠĠĠ
Ġf ib
con cat
e fi
ĠN ONE
ild card
Ġapplic ations
A ux
B ATTERY
p ulse
Meta Object
ĠW H
q g
Label s
Ġ*/ )
Un defined
v ha
ĠĊĠĠĠĠĠĠĠĠĠĠĠĠĠĠĠĠĠĠĠĠĠĠĠĠĠĠĠĠĠĠĠĠĠĠĠĠĠĠĠĠĠĠĠĠĠĠĠĠĠĠĠĠĠĠĠĠĠĠ Ġ
v tx
ot a
ĠE thernet
ĠCRY PTO
li very
Ã ¸
rw lock
VE MENT
DE PRECATED
addto group
F ETCH
Ġi ommu
Sy ntax
Ġi mplements
rypt fs
c ms
Ġmp fr
` ,
RO LE
Ġm nt
Ġch oice
p list
Ġ" </
Ġm illiseconds
Ġel apsed
Ġre peated
Ġrender ing
pt p
ĠK o
d g
ĠL eft
Ġquot a
s heet
upd ated
RELE SS
Ġ"\ \
32 4
mon o
Code s
Ġcut s
ĠW ill
Ġmon th
Ġbe comes
ĠQ Text
ah b
xB B
ĠB IO
ĠAl ways
up load
Z IP
Ġguarant eed
ĠP ATH
link age
SE CT
h Wnd
19 8
ĠData Type
ĠF low
Ġde precated
Ġr l
Bu iltin
ref cnt
ĠA WS
ĠQ Size
ĊĊĠĠĠĠĠĠĠĠĠĠĠĠĠĠĠĠĠĠĠĠĠĠĠĠĠĠĠĠ Ġ
f uture
55 5
vis itor
Ġtw ice
p Item
an ded
ĠD IR
Ġvis ual
S ENSE
PL ANE
Ġg ap
Ġlogi n
LAN E
17 5
LOCK ED
Ġt alloc
n bytes
ntr ack
ĠMem ber
ĠAltern atively
Ġ ĠĠĠĠĠĠĠĠĠĠĠĠĠĠĠč
Sum mary
v cc
most ly
Ġz ip
g hi
w av
int val
Ñ ı
DA Y
RC V
. "),
F linger
ĠL D
s vm
**************************************************************************** /
= ",
Tree Node
Ġc eph
ĠImp ort
MO RE
con sistent
P id
S ME
i stream
Ġx dr
ĠIm Vec
CLE AN
18 6
C lean
ĠBEG IN
X IO
RO AM
E lf
ĠC TL
ĠB utton
Start up
apt ured
UST ER
b eg
** )
Output s
disk s
e asy
Ġsub stream
ĊĉĉĠĠĠĠĠĠĠĠĠĠĠĠĠĠĠ Ġ
SC EN
Ġgdb arch
Ġcoi n
Ġ9 1
base s
Ġp ing
l it
01 000000
B V
ĠMac ro
Li n
bu st
vis ibility
Un i
C at
strto ul
Tr a
čĊĠĠĠĠĠĠĠĠĠĠĠĠĠĠĠĠĠĠĠĠĠĠĠĠĠĠĠĠĠĠĠĠĠĠĠĠĠĠĠĠĠĠĠĠĠĠ Ġ
Ġp ub
Connection s
m os
s olver
PRIM ARY
Ġac cessed
rtl priv
B LANK
pri me
Ġn k
Un ion
Re peat
E INT
COMP LE
clust ers
ĠSmall Vector
Ġal arm
T cp
gener ation
deref erence
Ġ[ ](
lo st
Ġcause s
Ġsv n
Ġow ned
ex c
Ġsc nprintf
LE AVE
ĠE INVAL
Ġf sg
ee ping
cc i
ick ness
ĠG iven
Ġo sc
man ent
m six
fil t
2 12
ĠM o
umpt ion
ss p
Ġgo ogle
ĠAli gn
PAR SER
Ġnet if
Ġskip ped
ĠC Block
ĠBo olean
Ġh t
G PS
Set Value
â ķ
Ġfr action
Variable s
02 8
Ġ1 77
Ġcol s
qu ote
ĠTr ace
P hi
DI CT
ring s
Ġwork queue
Ġl b
Ġ ĠĠĠĠĠĠĠĠĠĠĠĠĠĠĠĠč
ĠD LL
r ay
BLA CK
Par m
WE B
Ġc uda
Ġput s
30 5
Ġwx T
Ġschedule d
ĠS MP
Ġem bedded
L IN
18 7
m ot
SE EK
f ld
Mon ey
C W
ĠD at
f trace
ĠApp le
Ġdat aset
x BA
S ector
Ġb asis
P ause
. +
B SP
čĊ čĊĠĠĠĠĠ
Key Event
ĠR TE
no op
9 80
As set
// ---------------------------------------------------------------------------
Ġun register
Ġmo ment
3 01
Depen denc
str m
ER ASE
Ġ{ &
MB HC
ĠS uper
w n
extent s
Ġe valuate
ch ans
SE MB
ĠAd just
Ġv lc
Ġp Src
TA X
UND ER
0000 2000
Ġo pp
Ġsig ma
m irror
he dr
ĠC N
pri mitive
W ords
SB I
A CON
Global s
HL BL
ĠFor ward
t stamp
is csi
Ch anges
ski n
Ġspell Info
Â ł
Ġsub sc
mp c
Ġ ĠĠĠĊĠĠĠĠĠĠĠĠĠĠĠĠĠĠĠ
Spell s
d ock
L ARGE
dd l
ĠR I
t ANI
SE M
Mat ches
Ġse linux
Ġ1 34
sp ca
x res
ret rans
inv oke
oc c
O DI
g pointer
is can
Ġw ater
Ġp lot
ve lope
ĠD iv
^ ^
55 0
Ġcor ner
me mpool
ul us
eam ble
imp licit
ĠS ingle
37 4
ĠL ua
e valuate
15 1
Ġsession Id
Ġwatch dog
ĠHel p
Ġof s
i ence
Ġb sl
ĠE F
o op
VER S
sp ot
ĠW OR
Ch oice
66 5
Attach ment
pd w
STAT ION
Cl k
Ġ ĠĠĠĠĠĠĠĠĠĠĠĠĠĠĠĠĠč
ĠTI FF
equal s
ost ringstream
iter ate
Rec ur
oth ing
c xx
as sembler
ategor ies
( ",
Up load
m anaged
TE GRA
Ġext end
Ġex ponent
En er
ĠEx pect
Agg reg
gor ith
ĠD ep
Sig ned
Num eric
M utable
E THER
ST UB
M N
ĠTime out
ct s
ane ous
NOP M
Ġis su
H ide
D TYPE
d oint
0000000 3
17 9
s mi
S z
> ";
I fc
A WS
Ġ5 000
40 96
g dk
rx q
ĠA TOM
ĠI dent
g ps
IN FORMATION
termin ate
--------------------------------------------------------------------------- */
D ead
Ġreg istration
Ġsign ificant
ed u
ĠI dentifier
Ġn Time
Ġex ceptions
" <<
xC B
Ġn x
ub i
, /*
Ġs scanf
u ator
Ġq real
CRIT ICAL
f lex
O WN
Ġm ass
F RO
pm k
m ut
C IR
ĠN othing
: ;
SA CTION
r dma
Pref s
Ġt bl
al ty
Ġp ause
M YSQL
ff d
Ġ2 08
Ġup b
doint vec
ĠU PD
Ġplay ers
ACCE L
f light
GO SSIP
Sl ave
M icro
Ã ½
S aved
TO K
å ®
INVAL C
ĠT CL
V FE
Pro totype
VO ICE
Ġb oss
Ġ1 64
x id
Beh avior
led s
Im ages
ME L
Slot s
TX D
ol ated
ATION S
c vt
CANCE L
WE APON
Mem bers
Ch ip
Ġ ĠĠĠĠĠĠĠĠĠĠĠĠĠĠĠĠĠĠč
or ation
graph ic
w dt
G G
7 000
ĠCol umn
B ag
Error Message
ĠGN UNET
sv g
cl nt
P UP
ĠGO OGLE
Ġact or
TE CTION
M ime
Re presentation
37 0
CLI P
h ar
Loc ator
CE D
SUPPORT S
H PH
Ġtime d
ĠS cene
VISI BLE
End ian
Ġreg istry
prev out
w ill
Ġc info
JO Y
H tml
Ġp Adapter
pref erred
Ġs ps
ST ICK
str e
ĠString Ref
ĊĊĠĠĠĠĠĠĠĠĠĠĠĠĠĠĠĠĠĠĠĠĠĠĠĠĠĠĠĠĠ Ġ
ict or
Ġtri angle
ĠE SP
. ")
R tc
w mi
pg dat
Valid ation
t tl
d cb
ĠG S
M alloc
grad ient
", __
ĠEX YNOS
act x
y ou
k ick
Ġtool s
alle st
rel ated
W PA
Ġ199 7
Ġcorr upt
Ġrelev ant
tem s
driver s
Ġappro x
ĠReg ion
R oom
Ġm ul
Ġplat forms
AP PEND
CB CR
Ġinter pret
Ġmp z
ĠM CU
CHAR GE
Ġm agma
Ġimp ro
Ġb pf
Ġl m
ĠN LA
ull et
Tool Tip
ighb our
Ġm l
EN SION
Ar row
Ġenc ryption
p block
SPA WN
N r
Ġt ls
gorith ms
recur sive
g ov
ĠD im
car rier
Ġ energy
Ġlo ops
ĠM ath
Ġhdd Log
anc ing
Ð ²
Ġ---------------------------------------------------------------- ------
ARG B
mi b
Ġmean ing
press ure
pp s
L ING
ro i
ow ned
200 7
DE CODE
s ources
Ġ ĠĠĠĠĠĠĠĠĠĠĠĠĠĠĠĠĠĠĠč
en g
FI RE
g mt
CT URE
ĠX M
pro j
N OR
os g
ĠA FE
// --------------------------------------------------------
Ġg lob
I STR
= _
ĠR oot
tim ers
Ġlua L
Ġlo ss
R evision
jo y
p This
Des ign
C andidate
sl t
g lob
p HddCtx
M ar
sh ip
Ġ lot
ĠLo okup
copi ed
Ġ(( ((
16 7
MM IO
on ed
Get Block
IG EN
j a
(" _
TR UNC
Index ed
se linux
att ice
) ::
ĠVI DEO
et ter
Ġun ix
Ġ ENABLED
Ġit k
ĠF IL
ĠSTA CK
ĠCON T
si o
el apsed
25 3
serv ices
Ġdisplay ed
SM ART
K eep
Ġf lip
ĠIN SN
Ġf aster
FO AM
EAR LY
t arg
ĠAd ded
ĠR W
ĠPAR AM
AN A
] ].
M ultiple
Ġ1 48
ĠP ack
Ġv cd
MET ADATA
ĠX X
bu ilt
Ã º
Sh ot
ĠP V
Ġ1 33
M ag
Ġwarning s
Ġorder ed
ĠDI V
Ġdig ital
Get Next
h orizontal
X A
Ġde p
ĠSc ale
v ictim
10 80
ĊĊĠĠĠĠĠĠĠĠĠĠĠĠĠĠĠĠĠĠĠĠĠĠĠĠĠĠĠĠĠĠ Ġ
h op
Ġcla im
Ġg ate
art beat
Ġb m
ĊĉĉĉĠĠĠĠĠĠĠĠ Ġ
ĠM UST
Ġguarant ee
ĠCPU FREQ
k ref
Ġpree mpt
Part ial
() ]
Ġn a
null able
b attle
ret ries
Ġw ave
Rot ate
Ġ(! *
Ġptr diff
Ġis s
26 6
l sp
lo per
exp ire
CAL IB
col lision
IM UM
pc d
x frm
E igen
ASS OC
SU FF
Ġrece iving
AN IM
Ġ ĠĠĠĠĠĠĠĠĠĠĠĠĠĠĠĠĠĠĠĠč
O U
r ho
Time Delta
ĉĉĉĠĠ Ġ
16 2
Ġn n
ĠR aw
sp mi
spec s
Ġhton l
Ġm ut
ĠInt eger
s clk
Ġ9 3
ĠDRI VER
Ġ ****
str buf
U nexpected
Ġr id
ĠA CL
ba ud
Per sistent
ĠBu ilder
Ani Sir
Pro b
Sh are
ĠIN S
[] (
Ġp from
ĠWorld Packet
Ġpl aced
ĠS coped
Could n
g row
S MC
O MP
ĠT W
O ME
tp g
35 2
li nfo
Ad apt
h mac
po ch
R TX
Ġgraph ics
ĠAc cept
Ġet htool
Ġ1 54
Exp and
Ġcl amp
pt ype
DB C
Ġrecur sive
ĠV F
Ġ2 54
32 6
m usic
l z
ĠT D
Ġst rip
Ġcl s
md io
Ġme asure
ĊĉĉĠĠĠĠĠĠĠĠĠĠĠĠĠĠĠĠ Ġ
pro mpt
Ġb ulk
AniSir Global
( ~
ĠCurrent ly
fr action
Ġst m
36 5
ĠO ID
Cal led
Ġg imp
D MI
c db
ĠCLI ENT
m ultiple
ĠRe place
gpi os
29 4
DIRECT ORY
COMM IT
S oft
ĠE FFECT
Ġ10 9
inter faces
ul ative
sn mp
Ġ RESULT
E CD
Pro ps
Ġrot ate
ĊĉĠĠĠĠĠĠĠĠĠĠĠĠĠĠĠĠĠĠĠĠĠĠĠĠĠ Ġ
2 28
read s
rec ords
Ġ1 19
m ci
cu it
Render ing
Ġ ĠĠĠĠĊĠĠĠĠĠĠĠĠĠĠĠĠĠĠĠ
os c
y res
MT U
sl ash
b di
ĠU sing
X E
SE PAR
24 6
OVER LAY
sel ves
pol ling
Ġm ath
Ġm argin
17 8
Ġf id
UN E
DE TAIL
STRU CTION
ĠT SC
ĠL V
clock s
Si S
Con straints
m j
Play back
g w
Ġf ine
he never
Ċĉĉĉĉĉ ĉĉĉĉĉĉ
17 4
Ġex clude
ĠCan not
ay er
ĠF LOAT
A MB
Cl one
0000 03
ĠĊĠĠĠĠĠĠĠĠĠĠĠĠĠĠĠĠĠĠĠĠĠĠĠĠĠĠĠĠĠĠĠĠĠĠĠĠĠĠĠĠĠĠĠĠĠĠĠĠĠĠĠĠĠĠĠĠĠĠĠ Ġ
st ime
ĠP rev
40 5
et ween
COMP RESSED
ĠCON TR
S ENT
G Object
ĠCheck s
R ATION
mask ed
96 5
th rottle
hs ic
di ctionary
Ġpurpose s
Ġ1 98
late st
| =
ĠC lean
p buf
Ġplay back
ĠOPEN SSL
FILEN AME
ĠC PL
QUO TA
ĠDefi nition
Ġs sh
ĠB ound
n w
Ġun supported
AC COUNT
Ġappear ing
o ch
ÃĳÃĳ ÃĳÃĳ
V PROC
h m
ĠT er
DM IC
TL B
ĠCont ainer
CO EF
000 6
Uns upported
ag greg
Ġh c
11 00
pp y
ĠA BI
Ġ1 56
pol ate
Act ual
Hel lo
sd s
15 8
im ator
OUT P
Ġiter ate
d uplex
R FC
CH IE
ht ab
j e
sc p
g si
strl cpy
>( *
Ġ Ċĉĉĉĉ
FRAG MENT
r data
ĠSeg ment
ĠSC RIPT
fil led
TRANSP ORT
p error
ĠG rid
break point
Ġre alloc
Push Button
000 7
OR IG
Equ ip
30 7
periment al
CRE D
ĠP ref
Bar rier
ĠG B
dat um
Ġ ĠĠĠĠĠĠĠĠĠĊ
L ed
Ġ eg
Attr s
S ENS
Ġ} \
POL Y
r epl
M etric
cor es
M ount
of day
Ġj oint
nost ics
c putime
err msg
tr unc
AL K
ĠC MSG
ĠSU CCESS
ĠD istributed
P x
f pr
VERTEX ATTRIB
a arch
C ST
da emon
rid den
Lo ok
Ġbreak point
Ġtrack ing
i ling
AD R
mp s
Ġsect ors
w ell
Ġwe apon
Ġsuc ceeded
32 1
ele e
x DE
ĠI CMP
O WNER
M CR
EN ET
separ ator
ri ptions
U LE
Get Creature
Ġ1 76
D en
(' \
MO B
rol ling
T cl
f ar
Get Map
ĠM eta
Ġb ail
ĠE L
Ġaf fili
SEC URE
cpu id
200 4
cred s
ĠS Q
SU CCE
Ġs ile
Ġret riev
Qu it
Ġarbitr ary
Ġbar rier
g ro
Ġ3 60
im ated
ĠSY STEM
Ġ ĠĠĠĠĠĊĠĠĠĠĠĠĠĠĠĠĠĠĠĠĠ
ufact urer
ĠV FE
Activ ate
M anaged
Par a
b tree
Le af
tr ain
Ġuser name
14 9
RAN CH
ĠM ux
si md
NE ON
bucket s
cf qq
Ġc putime
Trans lation
free ze
interrupt s
b on
i nel
mis s
Ġ************************************************************************ ***/
BOT TOM
Ġm xt
Ġc at
bf a
br k
Ġf ee
s me
GOT REF
he ld
Ġbe y
Work space
sub s
E SP
ä ½
F PU
Ġr ates
DI RECTION
L UT
on a
Ġb alance
======== ==
Ġnto hs
DV B
AT S
Ġo c
ic ation
HEL PER
25 1
Con sumer
Ġ ĠĠĠĠĠĠĠĠĠĠĠĠĠĠĠĠĠĠĠĠĠč
Â §
CF S
Ġactiv ate
temp erature
ĠE A
Ġm tk
str str
ust ers
Ġ% -
ing Box
Ġmer ged
Py Exc
Ġgu ild
ansi ent
end code
æ ĸ
Ġf lex
DEST ROY
W ifi
ĠH C
Ġf imc
len ce
ev ice
Gr een
From Range
Ġr aise
ĠWIN DO
Ġtr acing
WA VE
OD M
Tool Bar
* _
0000 4000
Comp osition
ir ation
ĠOMIT GOOD
Ġd up
sp aces
PA RENT
not es
st ereo
CC M
or phan
tot ypes
C tl
ĠH IGH
nl msg
Ġ*) __
CI SION
01 23456789
St roke
32 7
K NOWN
siz ed
ĠR CU
2 23
et ry
Ġdecl are
22 9
at ives
e ject
ĠN PY
n cr
High light
Event Handler
W all
Ġ ĠĠĠĠĠĠĠĠĠĠĠĠĠĠĠĠĠĠĠĠĠĠč
and box
con firm
ĠF ake
h at
Ener gy
se maphore
Ġred irect
ms b
Info s
M erkle
Ġpref erred
ptr s
mon ic
G UEST
ĠI MAGE
' },
SUR F
Comp at
de pendenc
Ġ(* )(
LL OW
Ġr ide
ĠS ame
ĠQ Label
L BL
p aces
FIN AL
Ġre view
v box
Comp oser
Ġw or
Ġ ĉĉĉ
Ġ1 86
As String
lo ppy
Ġm ultip
Meta Data
ĠP o
ID ER
oc used
MA Y
Ġ(& (
Go ogle
ĠOMIT BAD
ent ities
WE IGHT
N AN
gr ant
f ec
Ġbey ond
un set
conf lict
i ot
d ual
ch ievement
.* _
d ropped
abcdef ghi
R and
an o
t ection
Ġref count
F aces
Ġn ice
y uv
ĠPri ority
Ġsp awn
TI AL
g pl
dec rypt
: ");
Re load
Ġopen ing
čĊĠĠ čĊĠ
Ġqu ality
ĠI SC
si le
Ġc k
dl m
Ġanal og
ĠDIS ALLOW
Ġi os
index es
OL F
Ġ ĠĠĠĠĠĠĠĠĠĠĠĠĠĠĠĠĠĠĠĠĠĠĠč
ĉĉĉĉ Ġ
================ ====
Ġ* ),
Ġupd ating
ĠV C
Ġpol ling
ac ent
Ġb ot
ĠR G
2 13
Ġstr ncpy
Ġhost name
ĠBC ME
Ġd n
or ded
Ġf eed
ĠN IL
Ġnull able
ĠN RF
Get Size
gl VertexAttrib
Prep ared
ĠP red
stri ct
ĠDel ay
AB C
Ġm r
Ġarch itecture
l h
Cell s
Ġen counter
B OR
Ġ# %
Ġin verse
W DA
) %
Ġun iform
Ġcopy ing
Reg istration
S uite
MIN US
ĠL T
MO TION
Ġg fs
mat ic
sh info
ĠAb ort
Ġdraw ing
set Current
MODE M
m ip
play list
Ġb aud
Ġh older
P an
Ġi pc
Ġsepar ator
P Q
Data Size
Ġ> &
ĠB LK
F atal
r sa
). \
Ġ1 39
et htool
) ")
ST AR
Ġ ĠĠĠĠĠĠĠĠĠĠĠĠĠĠĠĠĠĠĠĠĠĠĠĠč
xff c
ĠF LD
/ "
avig ate
P ATCH
ĠL M
DU AL
Ġsu itable
Ġm pi
k g
ut s
Al ert
exist ing
Ġident ical
Field Location
Ex change
Ġarg p
Cut s
Ġm igration
v cd
Ã ľ
Ġ ĠĠĠĠĉ
Ġpot ential
REP LACE
Ġint ro
bat im
Ġover write
)| (
R ay
ĠS plit
normal ize
METH ODI
anal og
ĠS urface
ci a
STAND ARD
mask FromRange
Ġ4 80
Ġsm art
Data Source
Field Value
ĠMA Y
I OP
Ġ1 88
Ġme chanism
18 9
M ore
> ())
info s
init call
Schedule Event
NT STATUS
TR IM
> (&
MOD ER
Ġinter est
C riteria
Ġn ic
2 80
METHODI MP
Ġmod ifier
S X
Ġd warf
ML S
ĠPO SIX
ĠPCI E
p key
Ġsh own
p T
Ñ ĭ
ĠSE LECT
BO OK
W ATCH
() *
Cr edit
Ġexpression s
W EP
Ġf trace
Ġear lier
() /
pg off
an ularity
gener ated
ĠW X
Ġ10 6
fer ior
Ġh rtimer
A sm
ĠM sg
UT ES
IM X
ĠF unc
b map
15 3
f act
l bl
S AM
gy ro
ENC IL
curr ency
@ }
36 6
Ġp pc
c ule
G AM
b onus
Draw ing
DE CODER
// ================================================================
Ġs ite
B one
Ġl ru
ĠSH OW
ĠT ile
pub key
ĠF ound
Ġcon ver
Im mediate
è ¯
St rip
er p
Ġf ft
Ġ ĠĠĠĠĠĠĊĠĠĠĠĠĠĠĠĠĠĠĠĠĠĠ
Ġv l
Ġ lin
Type Name
ĠO ld
ĠI op
Ġd ro
host s
Ġpri mitive
ive c
4 40
ĠByt es
Ġ ĊĊĠ
A FTER
anc y
Ġr n
Ġcon sistent
Ġd lg
TOG GLE
Ex act
t une
R ARY
S ur
ĠX ml
Ġl aunch
inst ant
P KEY
g ned
FO C
ĠFOR MAT
pro files
TIC AL
UN LIKELY
to o
VER TI
Get Id
Second ary
Ġsub mit
Ġ' +
F AN
k ern
R anges
Ġ6 00
nt s
MON O
lip se
Ġn Version
0002 0000
Ġdebug fs
Ġt ries
LOW ER
Ex tr
BO TH
TH AT
c map
3 40
FRAME BUFFER
Ġ" &
Ġtri m
vert ising
CE S
R K
ĠS yn
ĠCON F
Text ures
Ġge om
Aura Script
čĊĠĠĠĠĠĠĠĠĠĠĠĠĠĠĠĠĠĠĠĠĠĠĠĠĠĠĠĠĠĠĠĠĠĠĠĠĠĠĠĠĠĠĠĠĠĠĠ Ġ
Ġh ide
ĠI V
ĠA v
f Lite
REPE AT
Ġ2 09
)) &
uplic ate
Symbol s
= {
ĠOpen FOAM
< (
Ġn op
EV P
Ġcal ibration
Ġo dd
Ġtim ers
Ġman ip
C ENT
Ġnon zero
ere al
ĠN D
with out
tmp l
Re verse
comm ended
ĠĊĠĠĠĠĠĠĠĠĠĠĠĠĠĠĠĠĠĠĠĠĠĠĠĠĠĠĠĠĠĠĠĠĠĠĠĠĠĠĠĠĠĠĠĠĠĠĠĠĠĠĠĠĠĠĠĠĠĠĠĠ Ġ
HAL T
Ġw all
20 9
ua e
CC MR
ĠSEG MENT
phy dev
as hes
Ġback ing
Ġrem ainder
Ġorder ing
it ivity
Ġl ap
str ap
P s
con ntrack
ĠS EL
Ġremov ing
sp irit
dhd p
Dat um
ĠMay be
ou ve
ĠL WIP
G BE
set UInt
o e
ĊĉĉĠĠĠĠĠĠĠĠĠĠĠĠĠĠĠĠĠ Ġ
A f
fd t
] ");
Sort ed
loop back
c sk
IZ ED
EXP AND
oct et
cor ner
ĠL eg
! "
ĊĉĠĠĠĠĠĠĠĠĠĠĠĠĠĠĠĠĠĠĠĠĠĠĠĠĠĠ Ġ
std call
Ġnl msg
INITIALIZ ED
m delay
I ANCE
ĉĉĠĠĠĠ Ġ
16 1
Ġ ĠĠĠĠĠĠĠĊĠĠĠĠĠĠĠĠĠĠĠĠĠĠĠ
TER MIN
å ¤
Add on
load s
Level s
chron ize
RX D
PY X
C SUM
Ġlook s
Ġhot plug
ĠF AST
564 0
Ġda emon
ĠW EB
Ġ& );
ox el
3 50
ĠS CI
Ġef x
ID C
VE CT
Ġan chor
COMPI LE
Ġ1 22
S ingleton
td c
Ġl w
ALIGN MENT
: </
å ħ
Ġ**************************************************************** ****
WD G
ST ALL
p seudo
Ġc n
X MM
fi ling
us leep
ĠR AD
Ġpro jection
k al
EN CODE
n cluding
i ncluding
Ġact ivity
Rest art
Ġv reg
B an
Ġdetermi ned
X fer
Clo sed
Ġ ĠĠĠĠĠĠĠĠĠĠĊ
O id
Widget s
vir Domain
TE AM
ERR NO
sg l
DB US
ĠTest s
B roadcast
RI ER
ĠReg isters
Ġaffili ates
26 2
Table s
get time
ms k
Weight s
str icmp
Ġ ĠĠĠĠĠĠĠĠĠĠĠĠĠĠĠĠĠĠĠĠĠĠĠĠĠč
st l
ĠUPD ATE
28 8
cc b
Ġin o
ro ck
Ġm ach
rot ated
Ġintern ally
de sired
CO EFF
NOTI FICATION
Cre ation
34 6
ool down
ĠNS Object
ch ool
n active
Ġg d
pro blem
ab e
DW C
Output Stream
KEY S
Th an
ĠL AP
Sk i
Ġ' *
open ssl
Ġtrans mission
ĠA TH
Ġt ap
Ġac quire
duplic ate
Y V
b id
G AS
Ġq true
SD A
p urge
Ġp df
ĠQ Vector
u lo
ĠTAB LA
desc riptors
n ct
Ġsend s
Cal culate
p cr
sp u
r lim
Ġmapping s
, {
ĊĉĉĉĉĉĉĉĉĠ Ġ
BA G
Ġmov es
Ã ¬
p Device
S uffix
ouve au
Ġpas sing
ĠC Log
v ty
PACK ED
de al
ex clusive
b gp
Ġin active
1 000000
ot ing
Ġreplace ment
st roke
IN CRE
Codec Context
ĠL ight
ĠPl ugin
rec ent
ĠTH READ
Ġcon current
c rit
pwr ctrl
99 0
sfr s
ase d
pol ygon
Ġr g
mb x
ĠE LE
Ġk Max
I MS
Track s
Ġli br
vm cs
ĠAr ch
ECT OR
ĠS CE
AT ING
Ġv k
EN XIO
d ow
Ġh tml
Ġh is
ub ic
w ap
ad o
four cc
h fi
Ġ" @
ĠRet rieve
m buf
ĠT Y
ĠDig ital
Ġf x
Ġun link
comb i
4 0000
Ġrespon sible
f tp
Ġs quare
ĠSh ader
Ġpl ain
] /
case s
U nc
Ġp Player
SI P
ĠM is
Ġ1 21
ĠR HS
In f
M elee
count ry
Ġl argest
O ct
cla imed
Con tinue
g ather
Ġe ps
m z
ĠU pd
Offset s
d pll
W W
Neg ative
Ġsat is
P J
Ġis p
an not
omet imes
Ġtrans formation
set Visible
am ing
Ġsd io
Ġ( ...)
DIGIT AL
Ski n
io base
R CT
ĠF oam
ĠM ATCH
PC S
high light
Ġman ually
Ġs sid
qp np
Ġaccept ed
EXTEN DED
f open
f allback
Dec imal
Ġoptim ize
ĠW DA
for ced
w ps
ĠA PB
Ġp ch
Ġpack aging
NODE S
Ġpri o
Ġ1 75
rep o
Ġ1 37
ĠJ O
Ġalloc ations
DRI VE
W FIFO
mask s
VI O
Ġconnect or
wifi ex
Spin Box
TRANS FORM
W heel
23 9
Ġgood G
un defined
30 8
PUP DR
URL Request
Ġ14 5
List s
Ġwrite back
Ġf z
ĠV CD
f u
co ff
Ġ1 58
Ġ ----
Ġprint ed
Ġloc ated
U FF
Ġ*) ((
Ġest imate
ff ic
S RAM
qu ared
Task s
Ġo bt
../ ../
cons ume
Ġv t
Ġ655 35
band s
ĠB ig
bind ings
li g
Ġf puts
EG AL
s af
co e
ĠC TRL
AP R
partition s
ex clude
Ġblock size
Ġes p
Browser Thread
CHIE VEMENT
C ube
v ing
5 01
Ġp walletMain
Ġsuper block
X FS
c str
ĠF REE
s mem
ĉ Ċĉ
Ġb w
Sem aphore
G amma
Check point
h ib
Ġcover ed
R SS
% .
ĠWA IT
Ġre ject
MP P
ĠS ty
Request s
Ġper sistent
un load
Ġob serv
ĠDesc ribe
Ġl c
ĠW SA
Ġt or
err code
Log ging
W MI
200 3
Ġvis itor
TI O
Ġm usb
Ġi gb
Comp act
Ġu d
E valu
Ġle ad
ĠX C
With out
N SS
S AT
M ix
op p
CONST RA
Int o
Abs olute
pix buf
al ter
ĠS UN
Ġmem cmp
vert s
ur m
k hz
Battle ground
dat aset
cr ash
SN AP
ĊĉĉĉĠĠĠĠĠĠĠĠĠ Ġ
Ġsup ply
Ġh tab
ĠOpen GL
er ical
BO UN
Det ector
ven ience
// ****************************************************************
Ġil legal
al ong
Pro j
M CFG
acobi an
36 7
Ġcombin ation
Âĥ Â
Ġg b
ĠAc count
F U
40 30
Ġ(( _
LAT ENCY
D a
sp m
du k
mit ives
Ġend points
S mi
ame nt
tent ion
Ġde nse
Ġs am
Ġign oring
Ġ ee
ĠS elf
) &&
Is Null
exec utor
ĠX K
Ġirq return
Ġvalid ation
ĠB SP
Ġsocket s
k rb
r aster
x m
Res olve
Ġt lv
G dk
Ġun i
pos ure
pe ak
y e
ĠB IG
ĠI Direct
pin ctrl
200 5
Ġcons ume
ig id
Gener ated
88 5
mant ics
Ġdim s
ne ar
Q M
or al
ag ain
O ES
no unce
xabab abab
ĊĊ Ċĉ
x chg
Ġ ĠĠĠĠĠĠĠĠĊĠĠĠĠĠĠĠĠĠĠĠĠĠĠĠ
T ID
66 6
Non ce
Ġ-------------------------------- ----------------
ĠT wo
Ġser ialize
ĠB ox
Ind icator
ĠU T
cell able
IN ACTIVE
Ab out
Ġgo al
/// <
Ġ*/ );
as signed
R pc
N W
RE START
Ġ1 31
ĠT SR
ITER IA
WORD S
m sec
ci es
us able
i nactive
Ġj long
AN TI
ĠS creen
ĠBU FF
ele ms
Method s
Ġtest ed
H UB
ENTI FIER
Ġback ward
obj c
b ee
nd im
gl m
ST ENCIL
init ializer
ĠSE CTION
ĠO nce
put ation
ĠB ecause
Ġtr affic
Ġ1 95
ĠT PM
Ser ializer
OS D
ĠJ OB
rw sem
UN G
att ached
rg ba
VENT ORY
* >&
BU FS
sing leton
und ant
Ġr ay
ĠLog ical
T MR
ĠB D
Ġex clusive
Code Gen
IS ON
Ġa z
Ġclo sure
Ã Ŀ
l sn
addr esses
s it
mac ros
Ġs bi
EXPECT ED
ĠF IN
ĠST REAM
ON GL
Ġs ays
over lap
em ail
Ret ry
es sing
nd r
AN C
Le ave
le ms
ode v
br a
Ġ ĠĠĠĠĠĠĠĠĠĊĠĠĠĠĠĠĠĠĠĠĠĠĠĠĠ
V HT
Ġi io
as er
ĠG U
ãģ ®
ĠOrig inal
Wrapped Object
R ating
FRE QU
ĠH ex
ĠS ol
ĠEn code
z ones
Ġdevelop ers
Class Name
Ġ24 7
j p
Ġrout ing
rt t
ĠUN IV
ic ated
Me asure
rt d
Ġsaf ely
s int
Ġsched uling
n fc
3 80
ĠAlloc ator
48 5
9999 9999
MO DIFY
ph ab
T DLS
Ġ1 89
Ġ erts
ĠC ar
( ;
ĠFA ILED
ĠIN C
c ir
Ġframe buffer
ĠO MP
ĠS SH
get c
ĠB g
ĠM R
Weak Ptr
Ġif ndef
Ġint ended
n coming
ov es
T urn
LI SH
{ //
TRAN SACTION
Ġin vol
LIC ATION
Ġ ĠĠĠĠĠĠĠĠĠĠĠĠĠĠĠĠĠĠĠĠĠĠĠĠĠĠč
w sgi
i ncoming
7 07
ĠR ot
@ {
ĠW MI
2 18
by pass
ĠPy Array
sd l
Context Menu
Ġe hci
ĠU Char
ĠALL OC
Ġse p
Pixel Format
03 4
Method Info
CON bits
B GR
la zy
Ġp ressed
Ġret rans
JS Context
n Value
af finity
Ġde sign
new Row
par en
Ġp iece
RO C
70 9
VM X
ĠAnd roid
Ġt e
ent ially
Ġmulti ply
Ġe cho
hand shake
comp act
ad sp
AX I
Ġcard s
ĠP AN
S DR
V i
Element Type
P CH
ich ael
p ck
Writ ten
Ġk v
ĠGet Time
time d
BUFFER S
gu ild
Res ume
iffer ent
LA SS
B ULK
Ġ *****
Ġtab la
PART ITION
ĠCh rome
ĠC MP
SL P
dis sector
Bit coin
SUR FACE
non null
iv a
ĊĉĉĠĠĠĠĠĠĠĠĠĠĠĠĠĠĠĠĠĠ Ġ
BIND ING
P SK
ĠQ uest
Ġ ans
å Ľ
Ġpar m
Ġ ĠĠĠĠĠĠĠĠĠĠĠĊ
ĠB F
Ġre member
FT DI
} };
izz le
F ilters
col l
s amp
ĠComp lete
RA G
fi len
Ġ ach
ĠUn able
C ATCH
Tree View
Get Session
Ġinst alled
Ġrepresent ed
ĠCan cel
ex change
Ġdo ub
check er
Ġem ail
M ob
pref etch
decl spec
AR R
ĠGo od
ĠWAR NING
ĠP et
Trans mit
CAP ABILITY
d fs
xFF FFFF
BE ACON
con str
", &
at oi
sub system
ĠĊĠĠĠĠĠĠĠĠĠĠĠĠĠĠĠĠĠĠĠĠĠĠĠĠĠĠĠĠĠĠĠĠĠĠĠĠĠĠĠĠĠĠĠĠĠĠĠĠĠĠĠĠĠĠĠĠĠĠĠĠĠ Ġ
ĠF i
fi mc
Ġwork around
Ġs anity
top ic
ĠP OST
P TE
Ġ ĠĠĠĠĠĠĠĠĠĠĊĠĠĠĠĠĠĠĠĠĠĠĠĠĠĠ
Ġ ĠĠĠĠĠĠĠĠĠĠĠĠĠĠĠĠĠĠĠĠĠĠĠĠĠĠĠč
ĠBT N
ĠGL X
Ġe asy
ĠTR B
H SI
X OR
ue vent
co ale
ĠG Error
dv fs
ĠPy Tuple
Ġsyn chronous
Ġsh mem
CON VERT
C ANT
Ġiter ations
Ġk ick
bri d
Ġ1 78
p DM
ĠSUP PORT
Ġr val
Function Type
h x
row sing
Ġclo sing
Index es
C var
set sockopt
Ar n
Ġther mal
a ac
Ġtr uncate
ĠAdd s
ĠC v
Reg isters
Ġman ual
W ake
ĠB IOS
Nan ny
i wl
f q
ar ative
he at
Ġa mb
int s
add Item
termin ated
F riend
Ġstate ments
R d
Ġd bs
Ġal g
Av ail
p SMB
ĠQ PNP
å Ń
Cl asses
Ġ --------------------------------------------------------------------------
AV X
Ref Nanny
rect angle
LA S
ET TER
POINT S
27 4
Ġs ay
al tern
ĠS EXP
Ġr tp
0 90
Ġsum mon
check point
2 37
MI SSION
Ġcomm unication
To Player
Ġco ords
work ing
uff icient
34 7
Ġf flush
a q
Stream s
Ġy es
c data
dig ital
u code
m hl
ĠR ate
EN CRYPT
Ġi cmp
mp ol
Back up
Ġ**************************************************************************** **/
PAR TIAL
Oper ations
EG R
AL ERT
nl h
pair s
ĠC I
unlock ed
GL float
Ġ ĠĠĠĠĠĉ
ĠI DE
E mbed
PAY LOAD
Ġmode m
GE D
LOG IN
-> __
tr ees
Ġ ĠĠĠĠĠĠĠĠĠĠĠĊĠĠĠĠĠĠĠĠĠĠĠĠĠĠĠ
Ġpar ity
Ġw henever
PA RE
Ġso on
Ġt aking
ĠQ UEST
Track ing
Ġ čĊĉ
ci n
Ġcoefficient s
Position s
Ġs uggest
io a
Book mark
Pl ain
ĠD avid
ĠScript ed
glew GetProcAddress
l db
Ġ1 94
n verse
q gs
Table Model
ĠQu ic
Ġd ual
ĠP PP
Ġobt ained
Ġfil p
Ġn at
ĠEnt ity
EXTI CR
trans mit
m ultiplier
Ġnormal ized
std def
Ġe HAL
Operand s
n ventory
ĠT IO
as cr
Ġ elif
ĊĉĠĠĠĠĠĠĠĠĠĠĠĠĠĠĠĠĠĠĠĠĠĠĠĠĠĠĠ Ġ
ed i
40 7
IO MUX
Ch o
ME TR
Â «
comp ound
(); ");
period ic
0 50
Get Bool
w ol
Ġ2 20
PIN CTRL
comb ine
hig hest
Ġc rypt
ĠLO OP
spl ice
Hal Status
= <
Pack ed
Comp osite
STRUCT URE
p I
Ġe SIR
i nverse
i nventory
D r
IC MP
Ġb attle
l sb
ld ap
ĉĉ Ċ
im ax
zone list
Ġbound ing
Ind irect
() )));
Ġres olved
FI F
LOG IC
TIME DOUT
d ark
LE E
og g
ĠExt ended
sys log
Ġexec uting
SA I
n link
sym link
G uest
c vs
ĠJ PEG
FIRM WARE
De ath
ĠSource Location
comp osition
Ġq h
ord ers
ĠAPP LE
ĠQPoint F
Ġcheck point
OF DM
čĊĠĠĠĠĠĠĠĠĠĠĠĠĠĠĠĠĠĠĠĠĠĠĠĠĠĠĠĠĠĠĠĠĠĠĠĠĠĠĠĠĠĠĠĠĠĠĠĠ Ġ
ĠCONTR OL
ĠC String
Re peated
Ġ(" \
i om
or i
Ġ' _
Ġcan onical
Ġs ObjectMgr
LEG ACY
Ġser ies
ĠP AD
Ġcont iguous
Ġfor ced
et ched
Ġoper ating
SQ R
ĠV LAN
per sistent
ĠR K
int eg
i ctionary
ĠD OM
E BI
Ġinit ializer
ĠLL C
RA ID
ĠIn crement
inter sect
& (
B H
a ur
å ¹
UR NS
FP LL
L SR
quir ed
NO OP
SCRIPT ABLE
ONGL ONG
ĠIO CTL
ĠPar ent
ac om
Ġth umb
Ġin herit
Q E
Reg Exp
Mac Addr
ĠIn str
Ġch osen
E scape
m w
Sc aling
Add Cut
Mon th
Rem aining
Ġne arest
Ġ1 96
36 8
Ġ1 84
d z
MD SS
d pi
s quare
P ose
FRONT END
Prec ision
ol t
dispatch er
Block Size
//////////////////////////////////////////////////////////////////////////// ///
HT T
ĠMain Window
ĠA tom
ĠP MC
ĠFLA GS
ĠUtil s
C am
ĠBo ost
GR ID
I OR
Reduce Action
RAT IO
t hen
ĠE T
Rew ard
de coded
Ġreg no
io unmap
Ġpoint ed
Ġt k
Ġr ho
ĠQ CString
Ġ= ========================================================================
an n
K S
uc er
id ata
as p
ĠC LEAR
18 3
Ġ++ ;
init With
ĠOr der
Py Ns
en et
n P
G HZ
H lo
ĠT ell
M et
In stant
Array s
ate ver
le w
F ire
Ġ ĠĠĠĠĠĠĠĠĠĠĠĠĠĠĠĠĠĠĠĠĠĠĠĠĠĠĠĠč
Ġ---------------------------------------------------------------- ----
ĠS EM
mk dir
RD WR
if name
Ġeffect ive
Ġbelong s
02 3
C DBG
an notation
Ġgr n
B SSID
Ġgr p
ho od
ĠAR CH
at etype
Ġle ak
ĠE VT
Ãį Ãį
Ġ ĠĠĠĠĊĠ
Ð ´
ĠSw ap
anal ysis
fore ign
ĠINT EL
off line
Find er
ar is
Ġ ERTS
Ġcom bined
W DI
O CI
EL DS
track s
rel ay
p S
PK CS
ĠSign ature
Ġd bus
ĠBu iltin
STOP PED
Pred icate
Inst ances
ĠK ind
FILE S
AN DB
writ ing
) */
Ġ2 03
Ġsimpl ify
ili ary
29 5
ĠN ORMAL
Ġb urst
Ġm etrics
B luetooth
GLE S
I FACE
SE rror
Ġde crement
ey e
RE VISION
L ess
u iv
Per f
h pd
Ġ14 7
17 2
Ġappear s
str ategy
ncip al
Y ear
! =(
B LOB
md s
Ġ{{ {
ĠIRQ F
ut ive
h row
ĠS IR
AT YPE
Ġqu it
AN SI
ĠD Y
St ation
u nge
ma v
ĠTh row
Ġoff s
27 5
W as
ĠQ Application
n q
Ġo id
yt tsp
GU AGE
Al arm
4 50
nump y
p it
Ġdat as
H e
Angle s
ĠD atabase
24 9
()) {
ĠJNI CALL
quir y
name len
v os
si i
ASS ER
40 3
D ark
ĠQ nil
M es
AS SEMB
CL USTER
Ġ199 6
F ac
ĠT AI
sam sung
unt il
HOT PLUG
MO DI
FIX ME
ï ¿
Ġmat rices
St ar
a hc
Temp orary
set Checked
no me
Ġstr tok
C CP
FW D
pres et
cert ificate
en sure
Ġj peg
MEDI UM
R m
ĠPy Long
F CR
SAMPL ER
no b
CHARG ER
T EN
POL AR
omat ic
24 1
ĠUn i
=' %
001 00000
Ġis a
6 86
Ġimplement ations
g ic
çĶ ¨
ĠH al
Ġcorrespon ds
Rout er
Ġt st
w di
35 4
Ver bose
ĠS SP
Ġd v
lf w
) !=
Cor ner
sd cc
TH ING
ĠH ead
== */
Ġch r
ĠÐ ¿
Ġpress ure
Ġif f
ĠM SI
o pened
ud ge
hook s
f stream
OP C
ang led
ĠCH RO
Ġassoci ation
Instr ument
ĠCh at
print Line
Ġ14 6
F s
Ġx s
Man agement
p erson
ĠRem ote
Ġcomp ress
ce c
Ġnet link
k thread
17 3
INITIALIZ ER
rate limit
MAN AGE
Ġ1 90
cal er
Or phan
SC B
comp ose
heck ed
WR ONG
NV PROC
SECOND ARY
v ariance
iv ot
b box
Ġ ],
Ġst bi
AL ARM
err y
ĠLAP ACK
Ġt a
READ ONLY
sw itches
ri o
/* -------------------------------------------------------------------------
Dlg Item
Ġcondition al
Wr ong
ĠA MP
G ossip
bl it
U sb
row se
Ġq int
å Ĭ
Ġme as
ĠL EN
i nb
Ġrestri ct
Check sum
Ġv d
n Version
Mov ie
igr atetype
ĠS ound
Add Ref
V FS
fr e
32 9
NE AR
Q Variant
TR O
u etooth
str ength
čĊč Ċĉĉĉ
T un
Ġgl Vertex
gr ay
3333 3333
b sd
av icon
Go od
get Parent
ï¿ ½
nit ude
de structor
EN CODER
Ġy ield
ĠM ass
no se
Cal cul
stri pe
Ġin cre
ĠI l
i nct
at ar
i na
Ġr ock
av el
Ġexp ansion
ptr ace
Ġa ir
PH ONE
S MSG
par ity
TRAN SL
U no
c as
Ac quire
Ġcon cat
ind io
ĠG DB
b all
ĠW ake
Comp ression
atom s
/**************************************************************************** **/
Ġalloc ating
C CK
ĠV R
sv n
TX ORB
H ub
m sc
Ġis o
Ġpoint ing
ĠBU ILD
34 9
Ġk ept
Ġt riggers
si est
get Data
Ġde liver
abli sh
Ġ8 00
č ĊĉĠ
init e
CO OK
ab out
ĠZ ONE
ELEMENT S
B TRFS
ab ove
E GL
BAL ANCE
Ġcon firm
Val s
Ġh ierarchy
Ġs rv
gl Vertex
Ġsec ure
SCAL AR
lock dep
âĸ Ī
t con
ĠT LV
CO P
DY N
ĠH S
Ġpop up
X Path
clip board
Ġ2 44
str y
ĠCreature Script
r port
ĠSC AN
Ġv r
se nger
CO IN
PL AN
me asure
ĠS MSG
prot otype
5 04
ĠI ns
ĠA G
ĠST OP
he lf
EA CH
EX CLU
Log ic
at ures
*) _
Addr esses
ĠCon s
ĠSm art
Ġvir ReportError
Q ml
Ġstr str
18 1
xff fe
Desc ribe
p ay
b z
IN A
0004 0000
Ġn dev
c ale
Ġregard ing
C ircle
ãĢ Ĥ
Ġcons umed
SE S
subsc ribe
Object Name
car ded
Ph one
r fc
Ġ201 8
v oc
B onus
ACCE S
aaaa aaaa
ch art
TW O
cre dentials
ET TE
ĠB reak
QString List
L GE
Mon o
req s
ĠVAR I
Ġn Size
O gre
Ġm ime
buf size
18 2
ail er
Ġprev iew
Cre ator
d cache
35 1
p prev
Ġtransf ers
pl orer
MT P
Ġo t
trans lation
fl g
Ġscan ning
upd ates
ĠF inis
CHAR ACTER
Ġref lect
pop ulate
Q C
ĠI SR
ĠPK T
Ġp New
D ll
Ġ) ->
ĠC ase
Ġa ctx
I tr
arg o
ĠG FC
Ġm atter
ver bs
Fun ctor
AP PS
G MP
decl are
T bl
dm x
Ġs ervices
Ġ2 96
Ġcomp ilation
g lo
)-> _
KEY BOARD
inter active
SLI CE
Ġoperator s
Ġc id
ĠĊĠĠĠĠĠĠĠĠĠĠĠĠĠĠĠĠĠĠĠĠĠĠĠĠĠĠĠĠĠĠĠĠĠĠĠĠĠĠĠĠĠĠĠĠĠĠĠĠĠĠĠĠĠĠĠĠĠĠĠĠĠĠ Ġ
F ault
ĠHEAD ER
AV R
ber t
M IP
ĠOpen SSL
G IC
Ġal i
u access
mult is
m A
ĠT im
Ġ32 0
s port
By Id
Ġ0 444
Lat ency
ub y
Ġadjust ed
Ġinsert ion
Ġac cesses
sk a
Ġp wr
ĠF eature
ent ion
25 7
5 76
opt imize
al d
Ġst able
ĊĊ ĊĊĊ
Ġtx n
FREQU ENCY
ĠH ardware
s co
ĠA sync
ä º
STER EO
Ġe limin
Ġtrack s
ĠDe structor
d ip
Ġ ĠĠĠĠĠĠĠĠĠĠĠĠĊĠĠĠĠĠĠĠĠĠĠĠĠĠĠĠ
Ġsn ap
Ġout going
ENO SYS
Ġ3 84
FOC US
ĠSh ort
m tp
ĠR ew
tim ings
ove c
p V
Ġr ct
WI RELESS
Ġinteg ers
c art
Ġc u
back ing
ĠD rop
/**************************************************************************** */
f st
Pref erences
ĠT ILE
ĠIN LINE
FLA C
m h
ĠG LOBAL
ĠObject Guid
Ġa a
W OW
order ing
db l
Config ure
ĠREG ULATOR
0008 0000
ĠT e
ĠU CHAR
L CK
Link ed
B ATCH
ĠH y
Q I
G V
Ġi pr
Ġ Ġĉĉ
Ġf ps
H ist
p cl
Ch art
Ġloc ations
il ling
co w
Ġ* (*
ex ponent
TL R
Ġr aid
qu iet
Opt im
ĠSc roll
ĠL C
ĠB IND
Ġv dd
ec x
Draw able
l val
w mb
P CT
ĠI WL
mov q
Ġk lass
Ġs il
Scroll Bar
en cies
n acl
+ _
H over
SLI MBUS
op le
Ġco medi
wr ong
condition s
Ċĉĉĉĉ Ċĉĉĉ
inode s
Ġol der
Ġab stract
Al tern
ĠT ake
33 6
min max
Ġextent s
DELAY ED
AD T
START ED
Ġ ĠĠĠĠĠĠĠĠĠĠĠĠĊ
KEY CODE
ĠVis ual
? "
Ġerr msg
ver sed
ĠFIR ST
": "
wait queue
ch n
out buf
00 11
m cp
ĠTSR MLS
čĊĠĠĠĠĠĠĠĠĠĠĠĠĠĠĠĠĠĠĠĠĠĠĠĠĠĠĠĠĠĠĠĠĠĠĠĠĠĠĠĠĠĠĠĠĠĠĠĠĠ Ġ
TE LE
Ġe ax
g res
bi ns
IP A
l ater
ĠSV G
Ġoptim ized
Ġm z
FEATURE S
0 60
Program Uniform
/* :
ĠCRE ATE
Ġ ĠĠĠĠĠĠĠĠĠĠĠĠĠĊĠĠĠĠĠĠĠĠĠĠĠĠĠĠĠ
SO F
ReadWrite Access
pi ct
GU ARD
hen ce
ĠU ns
17 1
de alloc
ĠO T
plug ins
st ored
ant ic
Ġred uction
Ġthe WrappedObject
AL READY
35 7
e boot
Ġw di
Ġs urf
Part y
ĠSer ialize
Scroll bar
stit ution
Ġp T
Ġsc m
l ba
ĠS CM
FI ELDS
COR R
ill ator
I ce
35 8
S uspend
a ver
s is
p P
Al ways
Record ing
CF unction
02 6
den om
Ġencrypt ed
>> >
ĠF MT
r map
U F
I FF
M ERCHANTABILITY
Ðµ Ð½
Ġf utex
ĠW E
spd if
ĠMO V
Ġpro totype
Ġ2 05
J MP
5 44
Pick er
Ġde grees
Ġif p
ĠThere fore
Ġ que
Ġrt nl
Ġmlx sw
Ġe CSR
Ġtensor flow
wr qu
200 6
> >(
S ibling
vid ioc
Ġlist ed
Ġ!! (
ĊĉĠĠĠĠĠĠĠĠĠĠĠĠĠĠĠĠĠĠĠĠĠĠĠĠĠĠĠĠ Ġ
HID DEN
rs v
List Item
Ġt Sir
ĠLO W
ĠM XT
Play list
Do or
r eboot
cur lun
FIL T
SUB TYPE
att en
k k
Ġs ibling
det ection
if c
Ġp sessionEntry
01 9
i ncr
Rout ing
t one
io var
ĠB ar
ĊĉĉĠĠĠĠĠĠĠĠĠĠĠĠĠĠĠĠĠĠĠ Ġ
model s
pect ive
ĠD D
d io
DO OR
Ġ ĠĠĠĠĠĠĠĠĠĠĠĠĠĠĊĠĠĠĠĠĠĠĠĠĠĠĠĠĠĠ
ĠL S
mem move
xFF F
Ġreport s
EL T
Ġtrans pose
gn utls
FT P
M illiseconds
UP PER
M er
ĠN EXT
-- +
**************************************************************************** ***/
pa inter
e pr
Ġtv buff
)) <<
der ived
Pol l
q seecom
ĠL INK
As pect
ĠPAR AMETER
*/ ;
Ċĉ Ċĉ
Ġt urned
Get Max
Ġtr x
ĠZ C
Signal s
im ity
ĠEnd point
ĠS un
reloc s
ac s
Exec utor
O E
Ġret ries
Map s
Ġac l
Ġof ten
DISP ATCH
Depen dent
, '
40 8
Ġ ĠĠĠĠĠĠĠĠĊĠĠĠĠĠĠĠ
asc ade
stride s
il ti
Ġpred icate
B FD
b tc
Ġun pack
Event Type
Ġmove ment
SUCCE EDED
Q Text
ĠL anguage
c string
12 71
//////////////////////////////////////////////////////////////// ////
Sp line
av link
MI LL
arg ins
ĠCWallet Tx
Ġhand shake
Tr ay
LO PT
L RU
02 7
A IR
è ®
Start ing
AS US
Ġdir ectories
per iph
GLAPI ENTRY
Ġ1 85
open source
ĠT UN
*> (&
ĠL RU
buffer ed
rec alc
* ((
Ġs uspended
R ID
c pr
Ġv ari
Ġv n
26 8
ĠF etch
os ity
Ġe igen
ĠF AT
av i
LA SSERT
session s
33 4
Ġapp lies
es sed
ĠGame Object
ĠT ypes
A ir
y ro
de ps
Ġclose st
Ġmm u
bp f
Ġprint ing
S ens
Ġa buf
H V
b as
ĠME DI
P ct
Ġhw nd
ĠL ong
bit mask
N AT
ME AS
is ition
p ct
DE CI
ĠTh us
I gn
Str etch
t rig
sl ider
Need s
Ġuint ptr
ĠP rep
RT P
ĠE IGEN
t ctx
n buf
40 6
Ġstr ategy
FE ED
Ġeff icient
FACT ORY
ic i
Ġs ampler
ĠS up
Ġbit mask
34 3
ĠComp ile
le ak
ĠO CI
D CT
(" (
LL O
Alloc ated
neg ot
Ġmask s
IMPLEMENT ED
Ġ' #
Delet ed
Ġk obj
Ġemit ted
Ġdebug ger
S pdy
Ġreg map
ed x
Ġ0 0000000
l ereal
un wind
ĠS lot
------ +
o val
ĠV BOX
SP D
00000000 0000000
NAME D
ĠP aint
Ġf aces
av c
LINE S
:: *
INTER N
M MAP
DISC ARD
verti se
Ġl da
um i
on or
SELE CTION
rem ain
e play
b Is
ĊĉĊ Ġ
Ġenter ed
BIND ER
mt k
MA S
Us ers
mid dle
E CTION
ĠL PFC
Ġun likely
ĠM ON
ĠE nc
q dev
W CHAR
cf lag
a ze
/ \
om eter
ĠSty le
path name
Ġpas ses
ps f
MID I
Pro of
Ġnl attr
l dr
activ ated
U x
O paque
Ġ ĠĠĠĠĠĠĠĠĠĠĠĠĠĠĠĊĠĠĠĠĠĠĠĠĠĠĠĠĠĠĠ
tool bar
Â ©
Ġreason s
Ġ' <
OLF SSL
SL S
Ġinter section
Ġ14 9
RC U
Ġ' ?
Ġp Creature
ĠJ IT
Ġth eta
P erson
ĠU RB
Ġspell Id
ĠC Z
Ġreg ex
al og
P GA
W eek
ĠC CP
Ġmg mt
non ce
PI CTURE
02 000000
8 20
Ġl r
Ġclo ud
ĠM ouse
Ġsuc ceed
ĠHlo Instruction
Ġ eeprom
ĠSec urity
ĠWh at
Ġ'/ ')
unit Target
ĠDH CP
) ++;
b ms
br ush
Ġ ĊĉĠĠĠ
ance led
t orture
Ġn an
Ġk w
ĠBg L
ĠLi n
Ġ( +
ap q
W ater
ĠEx pected
rnd is
A Z
sp k
Ġ? ??
ĠX EXP
Ġmin utes
scan ned
write w
el low
T s
get Decl
Ġport ion
Ġopt arg
Ġfor e
ta u
Ġtr aits
Get Count
Ġ0 6
Ġn avigation
R cv
TI MI
Ġst b
OPER ATOR
Ġst and
============ ===
04 8
Ġnfs d
Ġ2 07
DH CP
M idi
Obj C
Ġcorr ection
se ma
i pt
To o
AL U
FL AT
, //
ver batim
Ġens ures
Ġs aving
Node Ptr
Ġ199 5
SS H
e ment
k os
Ġstr printf
Ġ1 00000
r eject
an ches
Get Num
ĠI OC
MER GE
r eplay
read ing
ĠC am
ar a
par s
ĠL AST
Ġal ert
key code
Ġgu ess
i ans
Empty String
mlx sw
AN AL
Ġass oc
Ġiss ues
( \"
b ma
Ġchar set
b prm
A SH
ĠG RN
ĠNET DEV
[ [
R HS
PER I
ffer o
D URATION
et o
col d
p walletMain
icen sing
], "
om ation
Ġround ing
ĠQgs Processing
Inter preter
{ \
Ġc def
hy per
position s
/ .
Ġr ely
j h
ip u
ee ps
md m
f cs
d ct
M agic
Ġ2 28
MULTI CAST
ĠS LI
ĠG ROUP
Ġms msdcc
Dim ensions
Ġser ialized
Ġan onymous
ĠV EC
N b
ss ue
ĠS peed
get Size
Ġf Help
rt cp
u data
Ġ2 10
Ġr aster
RI END
ĠSD K
Ġcf q
AN ON
IN FIN
amer ate
N ested
B tn
nthe size
ĠL AT
IO Device
RECOVER Y
ĠGe ometry
E ach
Ġut ility
ĠH andler
IZ ATION
NON BLOCK
ĠU V
Ġan on
ĠA ffero
TA I
sens us
CR ITERIA
AB B
Out Of
@@ @@
33 1
Ġc sum
ĠM DIO
amd gpu
P at
TRA IN
DEF ER
IF LA
n vm
Ġ2 06
qual ified
ĠSystem s
cond itional
om inal
a ead
ĠM CI
ĠC Coins
MT K
ĠTAI KO
Y es
ark s
64 6
N v
rol led
L UA
key map
f attr
ĠPM IC
Ġ1 70
ĠDig ia
7 05
ĠI SCSI
ĠS am
Token s
En chant
Assign ment
Ġdet ach
Ġ**************************************************************************** /
Thr eat
ĠE THER
ç »
ĠB ATT
N oise
Ġpro ps
Ġ2 30
ĠD one
8 10
ĊĉĉĉĠĠĠĠĠĠĠĠĠĠ Ġ
vers ation
Ġx i
Ġman age
PRE L
P e
ĠCall er
DU K
asm linkage
Start Time
ve y
on eg
} ",
ĠM ail
md b
pi v
get String
ĠT MP
lo om
Ã Ł
reg istration
PR M
ĠT ex
ĠSpec ifies
LIB RARY
p ipes
ĠPRO CESS
READ WRITE
CP Y
Acc um
get As
Ġup load
OM X
HEAL TH
Ġc ms
Ġover l
77 5
work space
int o
orb is
Ġw d
at ic
Ġi ce
60 50
Render Target
Rel ay
ĠI BM
W ANT
Ser ies
M ALI
00000000 0000
**************************************************************** ****
un safe
pi e
ID L
I mplementation
E VAL
HA SE
T VAR
- =
87 23
FO UR
n use
Me an
ATTRIB UTES
Ġexp ired
88 3
s stream
ĠM anager
comp iled
ĠM Z
bd addr
ĠS leep
26 1
T ake
me as
SP ARC
Ġme mpool
ĠSTAT IC
ĠE q
AG G
ro ska
XY GEN
ui no
BROAD CAST
Ġc dev
gs o
ro te
Ġm etric
8 250
**************************************************************************** */
ĠLO GE
Ġ ĠĠĠĠĠĠĠĠĠĠĠĠĠĊ
Ġspin lock
Ali gned
Ġnormal ize
N LA
Ġm sr
set Color
off load
Ġleg al
Ġt gt
Get Length
cover ed
N ORM
m any
fir med
6 80
ĠMic rosoft
Ġw ifi
Ã ¾
v blank
STRI DE
ĠREAD WRITE
Ġrequire ment
ĠH istory
ib m
c er
ĠN eg
Ġ ---------------------------------------------------------------------------
Ġal ive
ms dh
u h
effect s
ĠEd it
B RANCH
une x
_ ))
Q S
ĠW idth
Period ic
pt l
parent s
F ollow
X D
ĠI PA
002 00000
for ge
G RAY
ĠTechno logy
p Src
M SP
Ġt ech
Ġint f
B t
un bind
]+ _
Ġscatter list
E rase
> %
LOG ICAL
* \
v table
Fetch er
Ġi ovec
To Int
Ġbeh aviour
ITH ER
to c
Ġsum mary
Ġb undle
CLA USE
ulk an
Ġ hence
ĠFT M
ĠRE DIS
Ġq uint
IF MT
Get ter
rib er
Ġsub tract
ĠScripted AI
COMB O
ĠPRE FIX
n ids
/************************************************************************ /
n place
Dig est
21 00
Ġindex ed
g is
k n
Ġsome one
l port
g lib
bit field
ab sl
Activ ation
el le
e o
Multi TexCoord
Ġ ĠĠĠĠĠĠĉ
ĠOp code
Create Info
z i
ri ves
i nplace
Ġp reserve
feed back
g am
PLAY BACK
ĠF SL
88 59
JNI EXPORT
Ġ-------------------------------- --------
W DT
P MEM
th ough
Ġar row
f cc
Ġdependenc y
Sp atial
MAR KER
Count s
ĠV A
F old
al ready
Ãĵ Ãĥ
Mod al
ent r
ĠL ab
Ġqu ote
Ġ... );
ĠAN IM
Ġ**************************************************************************** **
Op acity
y r
24 00
extr adata
ĠSY MBOL
a verage
Multi Media
as sembly
Ġtr eated
pk cs
ĠMY F
ĠS ch
Ġbuffer ed
y aw
ĠĊĠĠĠĠĠĠĠĠĠĠĠĠĠĠĠĠĠĠĠĠĠĠĠĠĠĠĠĠĠĠĠĠĠĠĠĠĠĠĠĠĠĠĠĠĠĠĠĠĠĠĠĠĠĠĠĠĠĠĠĠĠĠĠ Ġ
sr cp
writ able
to h
SLO TS
WAR F
MP TY
cond s
ĠS ide
Ġaltern ate
Ġdis c
CR TC
čĊĠĠĠĠĠĠĠĠĠĠĠĠĠĠĠĠĠĠĠĠĠĠĠĠĠĠĠĠĠĠĠĠĠĠĠĠĠĠĠĠĠĠĠĠĠĠĠĠĠĠ Ġ
(" [%
ĠW atch
BO ut
E MAC
V SYNC
Ex plicit
PASS IVE
Ġst oring
Re ach
im mediate
Sol id
FORM ANCE
J ACK
inst ances
Ġdef erred
rem ov
Ġde s
P LACE
O DR
Ġ; }
ĠW ID
d ce
Ġ" ,"
SCR ATCH
sec utive
ĠVER SION
k Instruction
r ct
30 9
ĠInter val
Ġreport ing
G ID
at m
From File
us hes
Il legal
COMP LEX
RAN K
) "),
C RO
BY PASS
T SP
M b
l ge
Ġsup posed
Ñ Į
ĠD UK
ĠC LO
Ġun icode
ĠComm ercial
69 3
AM L
m ol
Ġsh ut
p cp
C ipher
bl t
RATE S
2 00000
L TE
pu c
ĠDer ived
RO WS
P PU
B ORDER
FS M
Ġh fi
bl sp
Ġhas n
per and
ĠP LAT
+ "
DI GEST
enc er
ĠBUFF ER
un ct
08 4
Ġ16 5
ins ns
Ġf igure
CT YPE
SIZE OF
ĠFF mpeg
Ġ ĠĠĠĠĠĠĠĠĠĊĠĠĠĠĠĠĠ
activ ation
DO C
80 80
Q UP
ĠI o
Ġt event
Ġcontext s
Ġl t
can onical
ĠA UX
Ġret Val
IX GBE
Ġse cret
session Id
EXT ENT
008 00000
Ġre mo
R NG
File Item
E MB
Not ifier
Ġsub set
ga uge
Ġenable s
INTER LACE
oc r
Ġw ww
M ip
Ċĉĉĉĉĉĉĉĉĉ Ġ
GU ILD
CLO SED
sp acing
app ers
Direct ive
ilti ns
F x
ĠL ower
Ġregard less
Ċ ĠĠĠĠĊĠ
Web View
f ort
CHRO ME
b sl
LOCAL E
ĠS cope
mm o
ĠH FPLL
Ġp pp
," \
o od
p Msg
ĠMO VE
CONSTRA INT
sd u
xC ommand
Ġsequ ences
ĠCG AL
H old
ĠR R
DI SA
Call able
i nuse
ĠCHAN NEL
SE CTOR
Z END
æ ĺ
Handle s
phab et
A x
ĠO k
Con firm
RA DEON
U ses
clo sing
X t
ĠJ ump
( \
Ġnto hl
B ias
28 6
ĉĠĠĠĠĠĠĠ Ġ
Ġr oam
Ġcould n
Ġ' );
T ech
S MI
ĠDeve lop
q m
ry p
ĠS n
Ġint ptr
object id
ĊĉĠĠĠĠĠĠĠĠĠĠĠĠĠĠĠĠĠĠĠĠĠĠĠĠĠĠĠĠĠ Ġ
Ġt z
Ġle ader
el m
num s
ug ep
per form
PH P
NAME S
Ġperiod ic
cq e
Ġca used
ĠINCLU DE
ĠWINDO W
Â Ń
ĠH z
SE XP
li nder
blk s
G AP
C SC
set Attribute
o cp
SYS CTL
Ġpar a
net device
ĠLog Printf
num bers
Ġlink er
Ġ__ ____
Ġnew line
004 00000
Ġj j
ĠCHRO ME
ĠW DT
)/ (
Ġf ence
ĠU i
ĠE CC
c il
ĠOr acle
Model s
Ġdynamic ally
ĠH B
f all
hi er
WR IT
Ġ ĠĠĠĠĠĠĠĠĠĠĠĠĠĠĠĠĠĠĠĠĠĠĠĠĠĠĠĠĠč
ĠSched ule
Ġlap ack
Ġt xt
ot es
S pi
NE TIF
Ġenum eration
ĠMK TAG
out file
cal ibration
ret ained
ST P
IO V
Ġf a
DIS CONNECT
Ġquest ion
Ġk rb
ĠOper ator
c xt
mp ort
I SS
ry st
buf p
f ade
Ġq eth
esc ale
ĠLine ar
ĠAd apter
ACTIV ATE
D ense
s av
loc ate
int ern
Gr ay
C ER
Ġh aven
it ched
LA P
res id
j bd
Info Tag
k zalloc
77 77
L oss
Ġwork space
Packet s
assign ment
Report er
C UT
BA C
IG RATE
ĠP air
state id
n ance
ĠC Key
--- +
li sh
ard own
Spell Mgr
List View
I pv
ĠR ev
em o
asc ript
l ite
Ġc oding
c it
Ġany more
v ram
un init
l seek
c ube
N FC
pt ime
M HL
{ .
Ġel t
ĠCon straint
li nd
ret ain
up stream
AT ORS
Ġlength s
ĠPRO T
sh mem
index Of
Ġor phan
Cl amp
D ie
Ġcom bine
r mt
y mm
p Buf
r ating
Ġs ip
ĠI I
F MAC
dl s
iz ona
nes is
tp s
Ġd ont
Ġautomat ic
OPEN SSL
ĠDown load
UL SE
z end
ĠO GR
Gr ab
27 7
Ġcom bo
Ġ ĠĠĠĠĠĊĠ
Ġl ifetime
ĠQ File
INTERRUP TI
Ġdiv isor
ang er
//////////////////////////////////////////////////////////////////////// //
ok kos
MISS ING
MB B
j ni
802 1
A chievement
Ġfix up
For Testing
V ATE
cf b
EX PI
X O
ĠR M
act uator
time line
gc wq
d mi
ex ceptions
Ġf ire
de que
Ġ15 3
Ġw q
Ġm irror
m ultip
ver ity
i nn
ĠR ule
set attr
" )->
Style Sheet
ĠI SA
d quot
std i
L arge
TA MP
n mi
Tex Parameter
get ter
mc u
li s
C FA
ĠD XGI
Ġfree ing
Ġw ireless
Ġback wards
Ñģ ÑĤ
COMM ENT
HOR IZ
tri p
PRE EMP
tr acing
--- */
Ġin ser
ĠRead s
ĠL SM
ĠMin imum
9 000
Device Info
Ġgn utls
is sor
TE CH
y ield
st encil
by name
S quare
Ġwh atever
ĠA SS
at o
Ġ2 52
Ġm ultiplier
get Current
LL VM
Ġfilter ing
tile s
Hand ling
Ġme asurement
St and
Ġhint s
qu i
Decl arative
s olve
ĠM ult
ĠB ook
] ()
Ġinter mediate
(" --
ĠHOLD ER
abli shed
ĊĉĉĉĉĠĠĠĠĠĠ Ġ
C alendar
ĠF all
BUF SIZE
ĠR ATE
Ġch k
T alk
Register ed
Ġ"/ "
37 3
Ġnot ifications
ĠP OS
Watch er
Ġpot entially
array s
DMA C
Tex Image
Ġs ms
Y I
de compress
f action
0000 3
b oth
En coded
Ġb x
istr ar
ATTACH MENT
ĠB I
2 19
cb c
ĠJ SC
Ġ} )
Ġ ĠĠĠĠĠĠĠĠĠĠĠĠĠĠĊ
ut ime
sh uffle
ĠPol icy
Wait ing
ĠO SC
Ġp This
ĠL AB
ST RA
SO AP
E SR
SH I
//////////////////////////////////////////////////////////////////////////// //
IV ED
ĠAura Effect
pr Adapter
DEX T
PARAMETER S
LN K
i u
ĠPVR SRV
Get Window
de cess
ĠInit ialization
ms p
out s
Ġg cm
ĠPro vide
B ubble
ĠR ound
pl aced
PF R
x ception
S LOW
omet ric
RE MO
obj file
Ġrad ix
Ġ{ '
pro jection
#### ##
Ġm q
Ġ16 3
S phere
Ġaffect ed
US ING
B TI
dat atype
sor b
RESOL UTION
lo ot
Ġch arger
Ġlibr aries
Ġscan ner
ĠA void
Count ry
Leg end
trans f
Ġb rcmf
Ġde termin
29 6
Ġx p
ur se
Ġu ne
nit method
g mp
Inter p
N aN
id ing
ĠMIC RO
Ġs md
iow rite
str chr
ang ent
Read ing
4 02
f ptr
g spca
ĠPh ysical
Ġd B
Ġ1 97
Ġp Ad
b one
In jection
č Ċĉĉĉĉĉĉĉ
ĠT OR
find er
Ġas pect
ĠM PT
td ls
G ot
Ñ ĩ
Format s
plic ant
Acces sible
. __
ĠQ Event
Q Action
ĠC leanup
Ġv ect
d if
Un used
a ft
St ereo
Ġf write
Ġ---------------------------------------------------------------------------- -
ĠT LB
Ġabort ed
er g
Send Message
ĠL ETTER
ĠC url
ï »
S q
c vp
ps r
K M
s ad
ĠS CO
ĠSI MD
att ed
ĠAPI s
čĊĠĠĠĠĠĠĠĠ čĊĠĠĠĠĠĠĠ
ĠV LOG
out h
uff man
oton ic
8 28
ĠR OT
div ide
n br
ip addr
I op
D istribution
Ġ'/ '
U IP
IO W
86 0
Ġg round
as semble
Ġm avlink
server s
View s
Ġqu eries
P ane
exec ution
Ġer rout
Ġ INTER
chrome os
HARD WARE
equ ip
Ġopt len
Â ģ
Get SpellInfo
ĠI X
eb x
n out
ĠM MU
38 7
ĠFLA W
ĠQ G
M IR
ĠRE C
pos itive
RE STORE
index ed
sp f
EXIST S
Ġtol erance
TA LLOC
Ġj class
w id
AR ROW
Ġcon sumer
Ġior emap
Que ued
ÑĢ Ð°
æ Ī
ef s
cg i
B ILITY
Asc ii
ĠTRAN S
t ell
Ġ16 6
E sc
ne monic
ĠFail ure
angu ages
Ġs olve
con tain
ĠBase d
WIN API
ĠGe o
de tected
Ġide a
Ġn y
ï» ¿
96 7
IT IES
Ġinter preter
arg es
Y U
SD RAM
g ss
IT IVE
av x
Ġrecord ing
DIST ANCE
ĠSY NC
B MC
IN STRUCTION
Ġattemp ts
g imp
Ġdiv ider
3 44
n herit
IN STR
0 32
ĠW P
PAR ITY
p Player
R ssi
ong oc
m xt
ĊĉĉĠĠĠĠĠĠĠĠĠĠĠĠĠĠĠĠĠĠĠĠ Ġ
vm alloc
ãĥ ¼
rf kill
ref erenced
ĠAN SI
Ġatt rib
5555 5555
Ġhe l
ĠV O
Dem o
WIN D
R oll
Ġshort cut
has htable
Ġget env
Ġ1 91
Ġbig ger
Ġtrunc ated
Q Point
PT P
ĠC ARD
n side
è ¡
ĠW CHAR
T alent
Ġ[& ](
INTERRUPTI BLE
Ter minal
IC LE
dat as
/*---------------------------------------------------------------------------- */
Un ary
Event Data
0000 02
Ġb an
Ġn av
IF G
Ġcount ry
Acces sibility
Ċ ĠĠĠĠĠĠĠĠĊĠĠĠ
ĠN VM
Ġover head
script s
OFF LOAD
? )
ĠCon tribut
pen sive
pt ep
fab ric
ĠD omain
Pref erred
ĠD X
i nherit
] !=
Type Object
Ġ INTERNAL
CON TRACT
c msg
REF RESH
Pro blem
J it
s ong
Ġnumber Of
CONFIG URATION
Init ializer
Ġen abling
Ġc q
ĠV X
Reg ular
[ '
Ġsim d
čĊ čĊĠĠĠĠĠĠĠĠĠĠĠĠĠĠĠ
pass wd
_ "
coeff s
ĠFree RTOS
34 1
sc c
NG X
INTR O
ĠG IMP
Ġsw itches
DV D
try lock
4 11
i ir
md wc
de gree
Ġ ĠĠĠĠĠĠĠĠĊĠĠĠ
W G
ĠMan agement
stdi n
Descriptor Proto
io vec
Ġpref er
Ġ" ]
CE PT
ITE MS
Ġf read
0 55
T errain
AD SP
and atory
Diff iculty
ĉĉĉĉĉĉĉĉ ĉ
* .
S u
spell s
Ġlo ot
Ġpart y
Ġw b
Type Error
pr ead
Base Entity
er ender
ĠB LE
Ġm ipi
hs otg
Trans lator
Ġg si
e cognized
200 2
ar ate
ĠA IF
d ofs
Ġun set
E TIMEDOUT
adjust ment
Ġj it
ID ENT
May be
ĠTCG v
ĠR SA
Web Kit
div isor
Al bum
Q Graphics
Hand lers
anc etype
IT o
Ġ15 2
u ap
UP LE
no DB
Ġv tx
Ġ16 8
Enum erator
Ġvirt io
E I
3 12
ĠMI PI
as us
PRE V
l uma
Ġsub tree
/ ********************
Ġp ag
B NX
draw able
Ġzone list
08 000000
ĠIN V
Input Event
reg num
3 14
Ġp Msg
ĠN OP
l sm
f sp
Qt Core
Ġv out
DIM ENSION
Ġ1 74
ĠClo ud
loc ator
ul p
S AME
Ġ24 2
VI E
read able
ĠSIO CG
not ice
f db
ĠM USB
U id
Ġrout er
ĠN a
e ne
MAP PING
ĠP attern
od d
lib av
w ow
Ġe a
Ġaltern ative
IS DIR
Ġp ulse
me x
T ol
ĠG PS
SD P
VER TICAL
t alloc
D ID
Ġwh itespace
Ġ( ::
ĠP UB
f Help
Con tin
Ġst ay
REQUI RES
ĠM PEG
r amp
er pc
ĠV ERR
======== =
Rect s
Ġsim ulation
Ġch roma
]* _
ĠAs sembler
ĠMUL TI
Ġm pc
ĠP URE
R H
Form atter
ĊĉĉĉĉĉĉĉĠĠĠĠ Ġ
ST ORM
ĠWI FI
ĠDe finitions
p Info
r ent
Ġ2 16
Ġc he
ich ar
ir y
ĠB S
d on
Ġa section
X d
and er
Ġvis ibility
W ALK
Ġexport ed
Ġhy per
Ġs dp
E OS
free p
u li
Ġswitch ing
cat alog
Def s
Status TypeDef
Ġm buf
ĠS AM
x la
ĠU F
Ġs as
s oftware
Ġun map
Ġz eros
Dem ux
b fin
ĠTRA CK
27 2
Ġ16 1
v io
Ġcomp osite
u u
ĠP IC
add itional
at ime
{ -
Tool bar
CG ROUP
O UND
LO UR
Ġy acc
ĠEd itor
trans pose
S low
ĠJS Object
Ġ1 79
Ġm rb
is Checked
work ers
37 2
s olution
mem desc
ĠVAL A
sol id
ST REQ
nfs d
prep end
stream ing
Tri m
ĠCr e
ĠH WND
0000 9
Ġr om
I rq
ad i
Block ing
Sub mit
STRU CTOR
ĠS at
ĠN an
Par sing
d ont
C RA
ĠMod ify
CRE ATURE
opt ind
Ġ2 02
p add
ĠH and
g tt
ab y
get Loc
M UST
sum ers
77 7
J ust
Ġst amp
ĠBO OLEAN
A SIO
Dependenc y
PAR TY
F irmware
03 5
sy nth
Ġ14 3
lo ops
ĠAt tr
ĠI mm
ĠM aterial
Ġz ones
ed p
number Of
ĠS ensor
om b
Ġre fs
Ġ*) "
Ġwidget s
P df
ĠG List
IN VERT
Ġd uk
G SM
Ċ ĊĉĉĠ
sd k
ĠĊĠĠĠĠĠĠĠĠĠĠĠĠĠĠĠĠĠĠĠĠĠĠĠĠĠĠĠĠĠĠĠĠĠĠĠĠĠĠĠĠĠĠĠĠĠĠĠĠĠĠĠĠĠĠĠĠĠĠĠĠĠĠĠĠ Ġ
ob d
I US
Can onical
ep och
Ġ2 29
ĊĉĉĉĠĠĠĠĠĠĠĠĠĠĠ Ġ
Ġub ifs
Ġep silon
REG NO
Gl ue
ĠUN IX
Ġas c
amp o
B TC
Ġb son
Ġio addr
Ġb on
ĠS END
si stant
V o
ĠCY REG
ADD ING
tool tip
Ġred is
gl Uniform
SP AR
Ġaccess or
ĠAr ea
ĠSl ave
Net Addr
Ġre map
3 11
ĉĉĉĉĠ Ġ
ro ach
ĠE rr
ĠA CCESS
se ll
ar win
Task Runner
av ascript
M ust
TH UMB
D eg
tick et
Ġ čĊĠĠĠĠĠĠĠĠĠĠĠ
Ġin form
PASS WORD
sr am
ĠQ Dialog
par ency
ser ve
xff e
Q Icon
ĠB AR
seq no
m ng
Get Float
Ġh ang
k object
Ġ* ))
CLA IM
A ud
Ġde crease
Ġwas n
i cted
R TE
Ġdis connected
ter ms
Ġ ĠĠĠĠĠĠĠĠĠĠĠĠĠĠĠĊ
ĠMI SC
free list
Ġm al
ĠV D
ĠEN ET
ĠW arning
Ġbound aries
ĠVID IOC
Ġpo six
ĠME SSAGE
Ġm peg
Ġformat ted
ak ed
Ġex panded
Ġb fa
Ġdomain s
PER CENT
wr apped
é Ģ
UNIT S
Ġl Param
Ġs ufficient
min i
fo ut
NU MA
ĠAX IS
F uture
89 30
st one
CN F
Ġstd i
IR D
Mon ster
ĠTool kit
00 18
Ġn Value
N VM
Ġtun nel
ON LINE
FE C
G CM
associ ation
ORIG IN
ĠLim it
*/ );
Comp ress
13 94
ĠT CHAR
RE STRICT
ĠInst all
g ive
ĠRT P
Out er
A AC
Ġcomp ound
ĠCo i
tra verse
Ġf an
Ġm a
Not Found
ĠV L
Ġpix map
---- */
ĠUN KNOWN
arg b
ĠAnal og
com ma
202 0
Ġrel ay
ĠG FX
ĠI ON
Inv ocation
st uff
Ref lection
unex pected
Ġgr ay
Ġse mantics
n casecmp
U IC
Tri ple
j object
ber g
con verter
Init Structure
L UN
P ing
ĠA st
Ġl icensing
P v
check s
S ources
aus sian
!! !
ĠAV MEDIA
Ġpro ceed
Adv ance
40 9
7 54
EE P
=-=-=-=- =-=-=-=-
hw fn
F ar
Ġdelet ing
md ir
Ġ2 39
Ġint egral
l atch
CLI CK
Ġk ern
p D
ĠInd icates
ĠE MAC
201 8
R ates
end p
t as
SC LK
x r
mov ed
ong le
Ġcom ma
Ġ_ ,
ĠN UL
Cho oser
Ġg arbage
GAM MA
ĠW allet
oot er
dev init
ĠBUT TON
Ġ ĠĠĠĠĠĠĠĠĠĠĊĠĠĠĠĠĠĠ
Ġde nom
Ġconstruct ed
234 56
= *
A mazon
Ġs ometimes
35 3
ĠP AT
.* }}
Ġder ivative
ĠO ct
ĠVAL S
pas sed
PRE CISION
04 000000
iz ations
ĠO VER
i nside
si mpl
w tx
CP TR
ĠCoi n
Dictionary Value
MEDI ATE
) ||
E BAD
m igration
50 6
ad s
ALL EL
ĠS IS
c nf
Ġper forms
t db
c ma
PACK AGE
Link s
Ġs uite
Ġq object
ĠP OT
th dr
Dig it
track ing
ĠMAV LINK
Ġm ar
de leg
z ier
ĠP MD
cre ation
ĠU C
90 6
iop ort
client data
ing u
de ep
Ġm ess
p aper
PH O
DECL S
SG I
Ġstr ncmp
ĠField s
Py Array
Ġhigh light
socket s
ĠO PER
Ġ -----
ĠSK ILL
Match ing
å º
ĠIN TR
log o
Ġxml Char
26 7
88 7
Ġur and
S ong
match ing
Ġ= ============================================================================
Spec ifier
GLIB CXX
/** *
F H
Ġoff line
Ġtrack er
Ġencounter ed
ĠS afe
ĠPro xy
ĠT uple
Ġ ĠĠĠĠĠĠĠĉ
mp q
æ Ĺ
Ġ -------------------------------------------------------------------------
prot ection
ĠTi Xml
CA USE
ĠCon version
Delay ed
Ġp ay
Ġop val
Ġ1 87
ĠPFNGL GET
(); }
Vert s
Ġdo ck
Q Application
Ġserver s
ĠO gre
cpu info
of stream
mp d
len s
pt id
27 1
EXTENSION S
ĠMy SQL
E ar
Ġ16 2
Ġus able
Ġdependenc ies
tri angle
Ut ility
77 8
ĠPRI u
ĠS pace
effect ive
AL IVE
pro cs
ĠDIS PLAY
ĠH old
t aiko
Ġcal lee
set Data
per ipheral
Ġ: =
ĠU nder
c ptr
sens ors
Ġexp ires
ĠSW AP
sig hand
d sa
un supported
CB US
unit test
USH ORT
m angle
st ab
>. </
Ġ2 11
/ ",
04 2
RENDER ER
gl Bind
i y
ERROR S
N ED
v fp
BOut let
Ġ čĊč
Ġstdi n
ic ount
s fp
Get Time
em bedded
Ġp ure
9 11
ĠCONT ENT
Red irect
C atalog
B ED
Ġrestriction s
AL TER
Ġ14 1
P wr
? ",
ì Ŀ
aint ext
da Params
Ġpl aces
Ġplay list
Ad min
mi se
tr acer
CRE AT
ĠPr event
9 58
ĠN IC
ĠNOTI CE
f ee
Ġmin imal
Ġlet ter
UN DEF
Ġsk y
In i
Ġbu ddy
Ġpriv ile
Ġ' =
cept or
C txt
ĠG OT
B al
MST ime
c ab
ALL IANCE
Ġindic ated
ĠR P
Ġf inger
ĠF FT
is In
ict able
N SD
ĠDefine s
Ġde ath
Ġcpus et
Ġe b
MAP PED
ĠM LAN
LAN GUAGE
ĠPM U
ĊĉĠĠĠĠĠĠĠĠĠĠĠĠĠĠĠĠĠĠĠĠĠĠĠĠĠĠĠĠĠĠ Ġ
L ost
Ġpm ic
ctl r
L PM
AL S
Ġm sec
st k
Ġcon str
P CLK
Ġe h
MA D
ĠR ep
Play ing
Ġgener ating
N db
per formance
DE G
start ing
ĠS CR
Ġgn u
red is
Ġpro mpt
encrypt ed
60 6
E MOTE
E PS
EXT END
ĠB oot
Ġ2 25
Ġpro j
89 74
sum mon
PRE D
Ġnot es
Invalid ate
Ġhap pened
ĠP HASE
ĠA SC
ĠS ql
k d
multi ply
Ġtyp ically
BE FORE
Ġ" :"
Ġbuf size
R ND
08 5
Sec ure
X m
ĠParam s
Ġg adget
view er
iser fs
H PD
or arily
desc s
Ġ15 7
Ġo sd
anc er
c ing
d ash
j int
de struct
ĠM ost
čĊčĊ čĊč
log s
at mel
p Next
h ap
Pr ice
ryst al
Res erve
Ġatom s
elect ronics
ĠRef Ptr
Temp lates
vis ited
Ġf at
ĠS MC
H M
de activate
length s
rot ator
MD S
di a
(" #
Ġcon struction
PERIO DIC
Ġremo val
ĠR REG
IZ ER
čĊĠĠĠĠĠĠĠĠĠĠĠĠĠĠĠĠĠĠĠĠĠĠĠĠĠĠĠĠĠĠĠĠĠĠĠĠĠĠĠĠĠĠĠĠĠĠĠĠĠĠĠ Ġ
80 9
Set Data
CP US
id l
c wnd
b ag
Ġg cv
CHR ON
ST DC
Ġp buf
Min us
Ġmis s
Ġl azy
Ġm f
ĠCUR RENT
Ġb other
P AT
ĠRequ ired
m rb
S FT
04 4
T e
. );
PL T
ĠS parse
s lope
K VM
Ġcomp act
34 30
alloc a
SInt eger
Ġmt u
SV D
800 2
gg led
zer os
Ne arest
) ();
et ra
p Entry
HI DE
ĠF ace
os sible
3 15
T OL
Upd ates
loc ations
Ġip w
03 00
l ush
d istribution
match er
ĠG I
6 01
R STR
head set
i mplementation
lob ber
Pro filer
Memory View
ĠQ Map
; ",
Ġ2 53
ĠB IN
UN SPEC
SMB US
ĠInst ead
E mail
Ġtile s
f type
SPECI FIC
IB M
564 2
WIP HY
od ies
L DR
Ġsm allest
Front end
dm abuf
Ġtr ick
Ġ24 5
Scan ner
Co ordinates
THRO UGH
prob es
p ublish
ĠQ CP
Ġin finite
ĠS IOC
Ġas io
SCAL ER
L G
C DB
Ġp M
Ġd am
ĠDi ctionary
ĠPh ase
Comp ositor
D ual
k h
Ġc ircle
ĠUn ix
Ġ2 22
WRAP PER
job s
Ġpr agma
n ject
Ġobj c
ĠComp any
Ġpop ulate
SE P
Ġp wallet
ĠT k
ĠV S
ĠR IGHT
Bus y
current Index
Ġdead lock
EXEC UTE
O OB
R obot
Ġ32 768
ĠSpellScript Loader
prop ag
FRA C
Get LastError
W izard
g z
Ġ2 34
36 9
n ul
N DIS
04 7
Ġse ar
TI VEC
F ore
ĠAPI C
ĠFLA C
bu dget
ENO SPC
NET DEV
Ġar ithmetic
PC REL
Q Abstract
Lock er
Ġ1 93
Ġexpect s
03 1
SW IER
si h
] ).
Ġprogram s
map per
as hed
Ġinode s
Ġv o
dl c
Ġg pi
-+-+-+-+-+-+-+-+ -+-+-+-+-+-+-+-+
Ġ6 75
ĠTRI G
Ġq ed
read b
ĠV ECTOR
Ġactiv ated
Get Quest
Ġd ays
dis covery
Ġplan es
Ent ities
mic bias
ĠQDom Element
ĠC AL
ĠCE LL
xD est
s aber
R t
Ġelf cpp
f gets
exp ired
IB SS
CLA MP
ĠW r
Ġd word
DC B
fs l
def er
\\ \\
road com
With i
play ers
war m
Ġmk expr
1234 56789
Ġ{ },
AG C
Ġne igh
WE AK
Ġent ities
L and
M NT
Ġre li
Ġsy mtab
M apped
ĠJ an
c sc
t data
hs usb
Ġ15 1
Ġsub class
st acle
WE I
V el
An not
m otor
OP TIMI
ĠMod ified
oc v
ili z
Get Key
supp lies
TAI KO
ĠJ oh
qu isition
Ch ance
Ġcount ing
77 0
get Source
Ġproto buf
PRO TECTION
Withi n
H IF
WITH OUT
ĠFRA C
Ġ" [%
Ġ" |
li mb
Ġ ĠĊĉ
u ing
Collect or
R s
fi sh
ĠRece ived
l us
O UL
Ġdescrib es
ĠCh ild
Trans formation
ar ent
, %%
reg val
Ġassert ion
Ġ(* _
s ers
In verse
Ġskip ping
co ins
8 30
s us
R Y
Min or
Ġwant ed
s cl
F OLD
orb ell
Rec ent
Ġc rop
an ization
R c
Ġcl if
WE LL
Ġge o
Default s
99 6
27 6
ĠN DEBUG
Ġindic ator
ĠC ox
TRANS ITION
ole cule
r sc
ĠM CS
clk dm
l j
ef erence
Ġf eedback
? \
P SC
25 00
] <<
pass phrase
Ġun initialized
28 4
ep silon
ol ly
gest ure
N AS
ĠS SI
h box
wc nss
Ġ ********************
CO E
Call s
Port s
h nd
l te
OR IENT
Ġx c
Ġec c
ĠE very
is space
- */
A SC
SPECI FIED
script PubKey
U ED
w f
Ġde crypt
ĠCA CHE
EM IT
R ich
ap m
F lip
cpu stat
Ġv px
Comp utation
cr edit
AVA IL
ĠD id
up grade
Ġ1 71
Ġv box
ĠWOR K
Ġb ma
tin y
m eter
ĠInit ializes
cr eat
as printf
copy right
ĠOver ride
ur bo
28 2
37 1
ĠBe fore
ĠDir ection
/* ================
pmlme priv
Z EN
ĠNot ification
iz able
ĠNOT REACHED
hentic ate
mi ns
Ġl ane
Ġ ĠĠĠĠĠĠĠĠĠĠĠĊĠĠĠĠĠĠĠ
Qu aternion
ĠI mplement
ĠAV R
Pos itive
D s
y u
ALL Y
Address Book
Ġcontrol led
D RAM
Ġm ute
Will Once
it ors
St ri
F LO
sub set
Normal ize
66 2
Ġs lim
Ġ0 7
File Size
ns wer
ĠAss ume
NO EXCEPT
gest ion
ĠD ST
Ġrnd is
MB OX
Ġv addr
Lin phone
Ġinter polation
Ġb la
ĠQ Abstract
Ġde gree
cf q
ARCH IVE
ĠC AST
t cb
ĠTE MPLATE
Ġch at
M CO
Ġ14 2
Ġdetermi nes
Z TE
od er
r ds
H ar
Ġtermin ator
u info
Ġload s
M CE
Get Attr
ĠTOK EN
Ġhe alth
Query Interface
ment ion
H ard
Q os
. /
Ġ ĠĠĠĠĠĠĠĠĠĠĠĠĠĠĠĠĊ
F ence
D yn
le aved
stat fs
ĠValue Type
q boolean
33 9
ĠPROTO COL
ĠSupport ed
ĠA LT
Ġb gp
r ecognized
ip p
lg pl
s al
ĠConstant s
UN ION
h om
temp orary
Connect or
Ġsile nt
I e
ĠI p
Ġ** */
Ġinter sect
enc ryption
fr eed
d ptr
normal ized
impl ify
Tr ade
LOOP BACK
G SBI
Qu ic
____ __
ru ption
ĠP W
ĠDis patch
p ong
ĠCh ip
w mem
K MS
Ref s
TI P
iph ers
Ġwr apped
UA WEI
ĊĉĊĠ Ġ
ol ete
RE LOAD
Module s
PI F
data len
Ġcre dentials
Count ers
Ġm otor
GL X
" ",
C UDA
COMP OS
reg cache
Ġ1 81
su cc
P al
ĠP SIF
RC M
ĠSDL K
cl ic
02 9
/**************** ***
Leg acy
xa aaaa
unge on
enc ing
Ġne st
COOK IE
ĠE MIT
Diag nostic
dis pose
Ġl n
Ġmap per
ĠF PU
set Icon
RESOURCE S
Ġp len
av r
ĠI CE
50 5
UN SET
pr v
Ġm gr
spl ash
Ġallow ing
09 8
Get ID
ok er
Ġp Buf
; ++
ĠEnable s
Ġ ONLY
ĠZ ERO
uct x
Ġv if
al con
Par allel
CU BE
37 8
ĠExp and
Â ®
report er
ĠL DAP
ĠAct iv
p File
ĠM PFR
") ==
NUM ER
Ġpri m
ĠWrit ten
Ġs World
S mooth
V N
ĠSl ice
e fine
ĠQ H
s di
Ġb att
F tdc
ind icator
m log
ĠĊĠĠĠĠĠĠĠĠĠĠĠĠĠĠĠĠĠĠĠĠĠĠĠĠĠĠĠĠĠĠĠĠĠĠĠĠĠĠĠĠĠĠĠĠĠĠĠĠĠĠĠĠĠĠĠĠĠĠĠĠĠĠĠĠĠ Ġ
work s
dev data
Size In
Ġb eg
a inter
L Z
ĠPer iod
real m
M CLK
Ġoverride s
Ġc tr
Ġwx Default
S ATA
Ġr oi
USE S
ĠB and
Ġa mp
Con tain
ag on
ide s
obj s
ĠTrans late
ë ĭ
Ġthrow n
id c
Ġo m
um ulative
FOR K
T N
Ġinit ializing
000 9
T Z
Ġs mooth
Ġb onus
Dim s
ĠL HS
n as
C tor
ĠU UID
un ary
ĠD AT
Ġmachine s
Ġn Block
C ERROR
8 31
Ġde ep
ĠAF IT
RA PH
Ġsh if
Ġto do
ĠSEQ AN
Ġas cii
ĠQ Graphics
M irror
(": /
mb H
Ca ption
ĠS PA
VALUE S
:: ::
Bound ingBox
MI ME
MS UNG
lv ds
l pc
Ġ2 35
SEPAR ATOR
P seudo
e init
Ġa ml
ĠComp uter
Ġunit Target
head s
Ġb ag
al one
PRE PARE
F PS
44 6
Ġval s
S ST
Ã ŀ
Stream er
P ow
28 5
S MS
eg a
ĠP x
Ġpk g
Ġp error
IR C
ĠV GA
SER COM
Step s
Lim its
Ġ0 3
Ġ2 27
ĠPOT ENTIAL
Debug Msg
Image Filter
ĠT ouch
ang ulation
js ua
a ight
E CHO
copi es
Ġm bh
ev sel
ĠSA FE
iver se
SELECT ED
Ġadjust ment
S erv
Ġ ĠĠĠĠĠĠĠĠĠĊĠĠĠ
ĠSc si
ĠAtt ach
ĠD ONE
Format Context
inter preter
ĠB ACK
Ġmulti plication
Ġin complete
OR ITH
Ġb le
ank s
ONT AL
out String
Ġar ma
ANDB Y
Ġan ce
Ġ2 62
aut os
Ġpret ty
co ordinate
tun ing
ĠQ Image
CHECK ED
Av g
debug ger
BA M
Ġ24 1
Ġl st
i pr
ĠPa ul
de nsity
S LAB
rott led
Ġimpro ve
Ġsh m
ĠS ID
Ġver ification
Ġre cogn
p from
ĠSTR U
FL ERR
Fi xture
ms a
Ġbit rate
adjust ed
3 32
th op
Ġ2 51
ĠY ES
Ġcon trollers
Ġc able
Ġplug ins
Ġ** )&
ĠSPE ED
MO S
Message Loop
ĠL SB
Ġloop back
par k
ĠQ Dir
ĠB oth
w heel
sd vo
C Node
Ġp tl
ve cs
Ġout standing
Ġm ip
pl s
D uplicate
Time Stamp
å¹ ´
Ġ čĊĠĠĠĠĠĠĠ
inst ancetype
M ips
ent ropy
Ġjs val
ne cessary
int egral
ĠPLAT FORM
br else
url s
G ap
12 80
up b
ĠTri nity
Ġun changed
99 7
SD Node
Ġw Param
ĉĉĉĠĠĠ Ġ
ĠEX EC
hold ers
e nemy
ĠS oft
ard s
ĠGD AL
D LE
ĠM ore
ĠPixel s
ĠGen Tree
i ary
Ġ8 192
rout es
A st
get lb
Ġx y
ĠL Z
Ġpr events
Ġmbh c
Ġs light
ĠGet Current
St rict
PP P
Motion Master
Ġ ĉĉĉĉ
Ġthe me
/ _
Ġf its
Tra versal
ĠE m
Vector Layer
Ġs ds
h ape
op acity
tm f
Vector Copy
ĠÐ ²
ĠN X
div ider
ĠMO CK
Ġde nsity
SCI ITo
tra ffic
be low
Ġm itk
sh apes
Col l
ĠS TE
Ġvalid ity
Ġred uced
tor rent
ĠQ Style
Ġd z
pred icate
Ġfi n
77 6
d out
B attery
ĠU D
i nject
In coming
Window Pos
us art
par c
Ġdescrib ing
ra ft
es ian
rt m
202 1
full screen
SMP R
ĠCH K
Ġmaint ain
FF T
MB EDTLS
Ġh our
R DMA
Has Aura
j d
Ġevalu ation
o pe
U Char
ai a
F LEX
60 5
mit k
ĠME DIA
Ġtransf erred
Ġt tm
37 9
ĠP ending
get attr
NE ST
permission s
cra ft
, __
POLAR ITY
ĊĉĉĠĠĠĠĠĠĠĠĠĠĠĠĠĠĠĠĠĠĠĠĠ Ġ
GE OME
RA MP
ĠIN ST
! (
ĠRE PORT
Ġ1 72
Req Params
Desc riptors
MM X
ache s
ĠE MPTY
Ġcor es
ĠT TY
Ġretriev ed
DOWN LOAD
Ġprep ared
eff Index
cb cr
Init ed
//-------------------------------------------------------- -
s rq
c decl
ip mi
coale sce
J s
R SN
dev name
ĠQ LA
ust um
K L
> {
Ġ ĠĠĉĉ
Ġex ceeds
plic ations
GL sizei
IN Y
Ġn Height
Script Value
reg ular
w u
ĠC XX
ĠU B
LE ASE
Det ection
Pointer Type
ffect ed
Ġ ENUM
TIME DIA
ĠQgs Expression
s ap
Ġm ali
Ġac cessing
SP S
log ies
LO SS
PVR SRV
ĠGet Player
Ġ{ (
ĠSD MMC
Ġissu ed
Ġo ffer
EX CL
Rec ords
Ġ24 3
Ġread able
Ġst ereo
ĠRT MP
SC M
Ġexit ing
Ġpartition s
Hal Data
Rec order
Ġ ĠĠĠĠĠĠĠĠĠĠĠĠĠĠĠĠĠĊ
Ġget ter
ĠG mbH
Ġw ish
CI A
ĠL DO
03 8
Ġa fe
Ġ2 64
man n
ĊĉĉĉĠĠĠĠĠĠĠĠĠĠĠĠ Ġ
rc g
4 98
Ġfl ushed
s ar
Ġre play
> ().
Ġ utils
ĠF ault
Ġt au
ĠD IE
Trans pose
E AP
r einit
web rtc
ASSER TE
Ð ·
LE T
== '
ĠA U
Ġ ĉĠĠĠ
Ġ2 12
Ġa head
Ġp ushed
fi ndex
Ġq seecom
Ġd ll
Ġ ENTRY
; /*
Ġ15 9
Ġbt n
Ġnv me
__ [
Ġne ither
tm r
Aggreg ate
Cre dentials
ser ies
ĠE ven
is ode
ĠI ID
Get Spell
SC C
Ġdiv ision
Ġn py
ĠWorld Session
pB t
ĠIn line
text ures
e uid
ur bs
Ġm wifiex
String To
t ape
requ ires
H MAC
L CR
dev id
cs v
S AR
CON S
Ġ// ----------------------------------------------------------------
ĠGener ator
UN REACH
Ġm ss
PAL ETTE
Ġare as
ĠRA W
Sample Rate
code cs
F w
ĠConstruct s
Ġ& __
Ġre write
Ġpro vid
Ġre commended
ch i
r buf
sp are
N K
SP F
pl er
sc al
Ġ8 000
IR DA
ĠC USTOM
ĊĉĊĠĠ Ġ
Ġpro totypes
FRAME S
lo pt
rem ainder
A FX
ĠN SS
Script s
bf qq
CUR R
ĠH Y
nop q
T CC
Ġ'- ')
q int
M otor
SCIITo UTF
lo sion
CHRO MA
Ġ'. '
Ġplay ing
VI A
y affs
jk lm
Ġ24 9
Ġvm w
Ġdoub lereal
v pe
PROCESS OR
Ġstream ing
at r
ĠS IP
w ireless
nt fs
=\" %
pp d
A verage
Ġd lm
TRI ANGLE
? ");
UTIL S
Ġ655 36
Ġde letion
c ircle
* //*
ALLOW ED
ur able
RE MAP
Ġdis covery
Ġmode ls
Ġimp lies
gr ub
ĠLog ger
b cd
SH ELL
outError Db
AD ER
Ġa h
N t
Recur sive
d warf
C URL
Ġen queue
UT TER
Hint s
A ge
Display Name
Ġstr m
ĠI TS
ar er
hw mgr
og us
INIT ION
() >
Ġ_ (
F UL
dependenc y
v w
ĠWeb Rtc
tr action
/**************************************************************** *****
ĠE AP
Ġ1 73
Ġ2 88
ĠAt tempt
cm ath
y a
ĠI MPLEMENT
Ġr ng
100 1
Ġ age
Ġremov es
ĠCh unk
Pass phrase
ff icient
Ġtrans mitted
Ġ201 9
test er
ĠCON TEXT
3 13
Ġapp s
Ġp atterns
Support s
Ġb rightness
Sub Image
FL Y
Ġout file
gate way
DESC R
mer ged
freq s
!! \
dat etime
p DS
IT AL
E m
Ġ0 4
nit o
ĠPart icle
Ġc apt
Packet Size
M ultiplier
Ġs ong
Ġex change
Run Loop
pri or
p str
R ename
ĠQ UE
O FS
oi ned
* &
ĠCL R
ĠFAIL URE
RE NO
r efine
set Position
Ġro unded
ADJ UST
:: __
c amel
co ders
ĠE lect
ĠZ one
99 8
Per formance
Ġpre ce
čĊĠĠĠĠĠĠĠĠĠĠĠĠĠĠĠĠĠĠĠĠĠĠĠĠĠĠĠĠĠĠĠĠĠĠĠĠĠĠĠĠĠĠĠĠĠĠĠĠĠĠĠĠ Ġ
44 30
36 1
Ġpan ic
system s
COMPLE TION
IN P
Ġb box
Debug String
L ear
Ġsu cc
Ġun wind
on off
tp AniSirGlobal
ĠFinis h
from Utf
0 64
hd c
Ġg ather
)) (
f li
ĠBr anch
om as
m orph
marsh al
**************************************************************************** **/
Ġaccording ly
ampo line
MILL ISE
den se
Ġwx USE
sc atter
D CH
Ġs pu
; (
Ġco ins
Ġ= ================
ĠTrans port
Ġinv ocation
STRING S
G MAC
SIL ON
CO ST
hes is
cont ig
Ġn Min
CHARG ING
Script Text
short cut
ĠQ Font
Ġn z
Ġremain s
r ps
ĊĊĊĠĠĠĠĠĠĠ Ġ
Ġstri pe
Ċ ĠĠĠĠĠĠĠĠĠĠĠĠĠĠĠĠĊĠĠĠĠĠĠĠĠĠĠĠĠĠĠĠ
ib ss
version s
ID ENTIFIER
ac b
OG RAM
Un load
, $
DR C
Go al
(" &
SPIN LOCK
Ġrespect ively
Ġ2 57
ĊĉĠĠĠĠĠĠĠĠĠĠĠĠĠĠĠĠĠĠĠĠĠĠĠĠĠĠĠĠĠĠĠ Ġ
k de
Ġ4 09
e j
p oc
L HS
Ġli bc
it ype
Ġe of
Ġmin us
CT STR
i nl
gas as
d os
b asis
ĠMX C
Ġex ceed
s ctx
Ġfi nally
Ġexp ire
F LIP
Ġp HddCtx
ĠD ense
Al an
Ġch g
Ġis r
M CI
lf c
Ġj ack
Ġ2 58
T PM
Ġres idual
00 28
ĠM IDI
bl uetooth
ĠA CC
4 00000
C atch
I VER
str eq
ĠME TA
ch ance
MA V
EX TR
cc w
BAR RIER
Scr atch
Ġw mi
Ġn ouveau
err s
SP L
86 1
Ġ" ."
Ġbeh ind
", (
] >
Cr eat
800 3
89 62
N SArray
ĠS hell
ĠG M
r chr
F em
MP C
m st
BATT LE
id a
Q Q
PA PI
d pc
J A
V V
å ĩ
Ġ2 70
e on
n ap
Ġ16 7
Par ms
w tf
F ade
PAR A
ĠD ummy
H t
Ad j
Ġc andidates
ĠD r
First Child
ld a
pol arity
Ġ" ));
ĠA Arch
AB ASE
ur istic
fb c
sp arc
k c
p len
ĠName d
il ers
ĠH at
ri st
x er
ĠElement s
wx T
mm ask
n avigation
Ġgl VertexAttrib
ĠS SE
Reg ions
Ġx or
ĠAn imation
ĠDir ectory
P reset
ĠPh ys
Ġu bi
port al
use cs
Ġ--- */
Ġmax len
ĠC ost
Gate way
f sync
In Progress
Ġqu adr
q uint
Ġdr ain
Ġrec orded
ATTR S
Ext end
ãĤ Ĵ
36 3
config ured
Ġwrit able
Anal og
Q ByteArray
ĠO w
Ġfilter ed
Ġ* &
ĠWeb Core
E lt
Ġgen l
FO LLOW
ĠQ Painter
c mpl
9 89
Ġde sktop
w il
Ġn api
Set Item
sd a
L azy
******************************** *
ool s
Â¡ Â£
beh avior
p Instance
lear n
Ġmin i
Ġinstr ument
Man ifest
xCommand Event
Ġq lc
Ġalloc a
Ġt aiko
iter ations
Ð ¿
ĠCont ains
B CR
Ð¾Ð ²
are q
Ġaggreg ate
schedule d
Ġe mp
Ġcomplet es
VE H
ĠU PB
Art ist
Ġst ar
e order
e as
BACK UP
I ED
INCRE MENT
SR S
Ġ16 9
U CE
----- */
HOR DE
net inet
Ġtop ology
REG ISTR
wa iter
201 9
Ġg one
cho oser
B ud
g ri
O EM
RE GE
CE PTION
ĠG Value
Ġtri ed
Ġpre sence
Ġfun ctor
ĠSk Scalar
ĠW alk
os b
Ġj mp
Ġ3 000
Device Type
Ġ< -
Ġk s
Field Number
Ċ Ġĉ
At Index
Ġad min
Fr action
EX PRESS
temp ts
Ġlog ged
Ġexec utor
O OL
GENER ATED
Th resh
s mooth
tr ait
Ġst ops
dev e
Ġd ai
c fi
By Type
mod ifiers
28 7
Ġcl usters
ĠP as
fb dev
Main Frame
CA CHED
i val
Ġtr ust
( #
Ġ1 83
ic o
CLK DIV
v ht
D ma
sd ma
fl ite
FA C
ti e
ĠBU ILT
ĠCOR INFO
Qual ifier
Ġ2 19
MUL TIMEDIA
GE M
b size
ign ored
v h
Gener ation
AV G
ĠPro duct
Rout ine
Ġp Node
r ptr
LAT IVE
Ġb mp
h anced
GEOME TRY
DIP NAME
ĠQual Type
it t
ĠR LE
Ġjson Value
ro be
R tp
Y A
Ux GT
h aps
GY RO
ĠV B
ILL EGAL
ĠSIZE OF
Full screen
f cf
not if
Get Path
Ġgener ates
ST L
D AR
Ġdis abling
Free BSD
ĠT alk
ĠBasic Block
Ġ ĠĠĠĠĠĠĠĠĠĠĠĠĠĠĠĠĠĠĊ
ĠF MODE
Auto fill
TY P
Ġcancel led
Rec ipient
FP GA
Shared Ptr
End Of
sh dr
W itness
r di
end ptr
ac a
l q
ĠX Y
ĠF inal
LO ST
Seg ments
ĠB ody
Ġse em
Ġglobal s
Z Y
) ],
r ax
Ġco ef
P lease
em m
Ġ2 13
ĠCUR LOPT
Ġl un
JS Object
Ã Ļ
M illis
low est
ĠCal c
F c
ĠP VOID
ĠProcess or
ap pear
ĠWeb Kit
comp uted
U IT
ĠM PL
Ġvm x
dom s
K IT
est imate
88 2
RE JECT
5 11
Sp ot
F light
Ġp eak
Ġmod ifications
ĠK B
ĠS RAM
T CHAR
------- +
Ġ ĠĊĊĠĠĠ
Ġk al
N VIC
LE lement
O sc
Ġth rottle
DB F
C Script
Det ach
Ġ| \
tx id
cb s
PULL UP
CL S
Ġqlc nic
( ++
ĠU A
ĠPARAMETER S
Ġi rr
Ġpro x
add Child
A String
Ġvis ited
AL RM
move ment
G DK
B AN
ĠGL short
) <
ĠM SB
p state
or row
CE C
Pair s
}, //
Ġf v
i io
INT EGR
m cb
NE IGH
Ġto String
L ambda
get sockopt
defi nit
Ġ2 32
Ġ2 18
CP L
UN CH
mov ie
sq r
Ġrecur sion
Ġf sl
Ġin herited
ĠP OL
SD M
ic ol
xDest ination
urr ence
Ġsearch ing
Ġd type
val a
SS C
ĠIN ET
ĠArray Ref
Ġ3 07
P ITCH
Ġin p
ĠQ Url
Ġ ONE
ap se
en r
T abs
ai sed
P ADDING
18 00
Get Target
man ifest
3 56
ĠN I
b rcmf
cp up
F oo
or lib
ivers al
d sc
For eground
Ġscript s
Ġtool bar
ĠP TP
ĠM ov
V LD
lo ver
ĠCH G
per sist
ĠU ID
Des cr
ĠA HB
Bl ur
fc n
3 16
ĠM etadata
Ġec ryptfs
ni k
Ġs ph
Ġx malloc
ĠD UMP
Ġ2 38
Collection s
Ġpar ms
Bind ings
Ġdesc ribe
p mp
86 5
Writ ing
ĠD om
get Sub
iter ation
day s
r pl
Tree Model
comp ositor
memory view
MAN UAL
ĠRad io
Lex er
Ġ2 15
Ġp Dst
ĠC GEN
ĠWA KE
Ġh cd
M ux
.... ..
Ġask ed
Ġequal s
pos al
sc aler
ĠM SE
ĠY UV
Tree WidgetItem
Sn ap
] )))
Ġt em
y p
pin ned
ĠVariable s
Ġ2 85
Ġd ct
do es
es d
sc md
C os
)) ),
Ġv ha
o S
Ġ ĠčĊ
ĠC EC
ĠR ING
Ġdat atype
cons umed
Node List
/* ---------------------------------------------------------------------------
ĠP N
b sp
Ġlog s
at ched
err str
Enc rypt
e peated
std arg
F ID
Ġdiag onal
ĠR PM
nto hs
EN TIC
Stop ped
im a
Ġse cs
ĠĊĠĠĠĠĠĠĠĠĠĠĠĠĠĠĠĠĠĠĠĠĠĠĠĠĠĠĠĠĠĠĠĠĠĠĠĠĠĠĠĠĠĠĠĠĠĠĠĠĠĠĠĠĠĠĠĠĠĠĠĠĠĠĠĠĠĠ Ġ
] &
m en
m V
f utex
Ġl an
// ------------------------------------------------
... "
04 5
ĠC ert
ASS UME
n of
SUFF IX
COMPAT IBLE
lo ped
99 4
ĠB SLS
fl uid
Ġac m
Ġl and
ĠCor p
PH I
ĠGL FW
Ġ". /
Ġt alk
CH A
l li
oc fs
Ġse ss
n okia
ĠN P
% "
f read
p xd
ynam ics
ATE K
t pl
Ġpe ers
PIN S
ĠM ichael
Ġn ft
Ġdivide d
METR IC
å ľ
ĠDE C
Aut hentication
Ġc ros
c addr
un prepare
Q File
ĠSw ift
gl ue
ST ONE
Ġshow s
mm x
ĠRe search
ĠI BOutlet
SYSC LK
e ached
Ġb a
Ġ'- '
ĠInstr ument
p awn
Ġpath name
Ġcr edit
X EN
p ce
soft irq
Ġsaf ety
S INK
ong o
ĠW PS
IRQ Handler
/* ===========================================================================
orr ent
Build ing
OSPEED R
ĠM a
to StdString
Ġbu dget
IE C
Ġav codec
ĠCam bridge
gen l
P res
box es
Final ize
times pec
se qu
Menu Bar
Ġperform ing
lin phone
bin log
r epeated
K o
Par sed
Ġ ĊĉĠ
st eal
read dir
card s
L ITE
ĠMon itor
Ġuse c
Ġ64 0
icro electronics
co a
Ġ24 6
D LY
Ġ ĠĠĠĠĠĠĠĠĠĠĊĠĠĠ
ĠSh utdown
Ġpin ctrl
Ġh its
b tr
ĠFT DI
util us
Ġdraw n
c pl
ĠS MALL
Ġh Hal
27 3
ht t
is sa
b Interface
DE SK
syn chronize
Ġby pass
D TR
Ġp mem
ĠE rase
ARG IN
p Ctx
ĠAdd itional
ĠTer min
Ġdis sector
ĠRem oves
Ġat mel
Ċ ĠĠĠĠĉ
n ique
aw ned
associ ate
l aced
Ġdh cp
R CR
Ġshift ed
ic ip
Vector s
LOAD ER
K C
0000 07
S AP
cre ator
Ġparticle s
Ġbin op
cf qd
Si nce
n file
dir name
ro c
MULT IT
nopq rst
Ġ& (*
Ġp reset
BACK GROUND
ĠA IPS
time o
Ġ2 14
CA PI
A Q
Ġstr to
VALID ATE
25 9
sub title
Ġsepar ately
SM utable
acl k
ĠLe ave
mpl itude
RI DE
Ġinit ializes
M CP
TA PI
Th ere
Get Error
p atterns
Add itional
Ġover ridden
Ġx f
MILLISE CONDS
b q
BL INK
Ġ ĠĠĠĠĠĠĠĠĠĠĠĠĠĠĠĠĠĠĠĊ
Return Value
note book
set Property
P PS
54 7
Ġm anag
At las
Ġpg d
help ers
r eorder
) ]);
N il
ix map
if stream
Code d
Comp ound
Ow ned
p Context
ĠQgs Map
NON NULL
pool s
Ġpropag ate
ĠAss oci
UT LS
28 3
ĠWh ile
i sec
WA PI
ĠI mpl
K V
M DIO
ĠRE QUEST
ĠQ V
Out line
r th
Ġneg ot
CHECK SUM
C x
ĠSL JIT
28 1
ĠMEDI ATEK
Ġsp acing
ĠM ob
is su
man ual
EN TR
Ġ") ";
Ġcare ful
TAIL Q
/* --------------------------------------------------------
==== ==
ĠL U
Ġdisable s
h sync
Ġp ul
BA UD
ĠM CG
fra structure
} ));
ĠPi pe
opt val
Ġ1 82
32 768
Ġfr a
ĊĉĉĉĠĠĠĠĠĠĠĠĠĠĠĠĠ Ġ
Ġ2 60
Ġ2 33
Ġpm u
Ġu nt
Ġdir ent
L isp
HORIZ ONTAL
28 9
p Buffer
end isk
ĠP DF
P ULSE
Ġmark s
t wl
Ġsupport ing
## #
ĠTR Y
pp v
ĠCode c
dt or
it ing
ĠZ Z
ĠI CU
SPI R
g v
al culate
ĠEx tra
B RIGHT
Med ium
ĠF AR
ri cted
ĠDo ScriptText
d ifference
p xa
Cr ash
Ġc w
ĠG ui
sy nthesize
en ance
mark ed
ur g
Ġre boot
get Opcode
Ġy affs
IO MMU
CR L
gr ap
s dd
xffffff fe
ON IC
sv d
Ġc pi
Prepared Statement
ce iver
Ġg nc
EN ER
Ġgl Bind
Ġ' >
ec ycle
EN CH
Pro tection
STRI P
not hrow
ÃĬÃ ĩ
art ment
PU ART
HIST ORY
IP SR
access or
ĠUSB D
co ck
bu siest
egi ns
S MD
4 10
tr ust
pg m
z val
04 6
ĠCon sole
ĠInclude s
ĠOR DER
FUNCTION S
Data Set
ĠCol lect
); */
Ġbr acket
ot p
Subsc ription
m ms
T w
d printf
Tr ap
ĊĉĉĠĠĠĠĠĠĠĠĠĠĠĠĠĠĠĠĠĠĠĠĠĠ Ġ
lo s
bit coin
w ptr
Ġas h
E U
ick et
/ ************************
Ġav c
ĠA ng
ri ed
INT C
r bd
29 8
s len
INVALID DATA
Ġsit uation
Ġr tems
ĠQ Icon
Ġs int
ĉĠĠĠĠĠĠĠĠ Ġ
Mem Pool
Un retained
50 7
Ġnon ce
F V
CHAR S
d mac
04 3
ĠCo mplex
S olution
g if
ĠI MX
IN I
ARE NT
Add To
back ward
PROPER TIES
res idual
ĠSh adow
par sing
Check s
Ġp ose
hd cp
ĠCal cul
K A
dev priv
B PP
un a
B ulk
ĠDest ination
sd h
Chat Handler
log file
Des ired
Ġmi i
Ġn ick
Ġg double
ĊĉĉĉĉĠĠĠĠĠĠĠ Ġ
Ġ Ñģ
Ġeas ily
CA PAC
U DO
7 134
lin ing
Ġbr ush
ĠEX PR
w an
ib ble
Status Bar
44 44
SA CK
ad dend
ee chat
ĠD rive
ĠA CHIEVEMENT
o is
ĠCPU ID
ĠOut Reg
ac cessible
AST Context
WI RE
len p
Ġincrement ed
verti ble
abc de
ĠWAR N
F og
ate nt
Ġdet ailed
Ġvfs mount
ĠSTM icroelectronics
ĠV MA
ĠP ART
Ġde n
Ġbind ings
34 2
Ġh l
NE EDED
P ot
X FORM
ĠSV N
ĠBO ARD
n Index
e valu
Ġw heel
ĠC W
per ms
Ġgr ace
Proof Of
point ers
set ObjectName
h or
R ace
PA REN
p Dev
Ġtx q
Ġ2 17
EM R
if or
Tile s
SD MA
ĠB luetooth
ĠInt rinsic
Ġk base
DP LL
E ACCES
å ¼
Post Task
Ġbit field
ĠB W
ĠQu ick
ĊĊĊĠĠĠĠĠĠĠĠ Ġ
ĠT String
li r
ĠNot es
f write
Status Code
ĠRead y
HIST OGRAM
Critical Section
col on
Ġd of
V irt
/******************************** ****************************
Ġ2 36
X MIT
ĠS AS
Ġfr ees
Ġdirect ive
has hes
âĸĪ âĸĪ
l sr
F loor
Ġsort ing
r ement
if act
Ġ\" "
G W
ĠBO TH
Ġh v
PRO F
Ġactiv ation
watch er
ĠT WI
ĠF LOW
vis or
if orn
u it
syn chronous
ĠWh ere
at um
Get MotionMaster
P ublish
Ġw ire
Ġh uge
Ġinter p
Ġde limiter
R AND
Ġmod ifiers
e hash
iforn ia
ack s
][ "
g fs
Ġc yttsp
IE s
BC N
Get State
5 02
Ġ0 8
A mb
m eth
GRAPH ICS
i nbuf
P LA
Ã ¹
U TR
host data
rins ics
not hing
T WI
TI L
E nsure
a uc
*- *-
Ġinf late
DIS COVER
Adv anced
ESC APE
Iter ation
res ync
J oystick
Ġprocess ors
ĠH DD
Ġass uming
AT ILE
on o
SYN TAX
44 8
Ġ( ^
Press ure
alt ivec
ĠBo ard
Ġinv ok
ĠG pu
DECI MAL
Temp erature
Ġ[ "
Set Error
sig set
dd c
ARB PROC
ĠCL ONE
Pro mpt
de mo
Ġcache s
ĠIf c
Ġtermin ation
Item Id
di nal
Ġa o
how to
Ġg ct
( /*
Ġn h
76 2
Ġac cessible
Ġch arging
Ġsynchron ization
Ġf fs
Ġbat adv
w eek
//////////////////////////////////////////////////////////////////////////// /
Num bers
T CB
Ġexpect ing
m ce
ĠCh anges
Ġ7 20
ĠA ve
Exp ansion
al bum
ers pective
ti ed
Ġ2 66
d pcm
Ġdis carded
ĠInv oke
gr eater
cache s
R aise
anit ize
ĠS LAB
( $
86 6
de pend
EX C
Ġun k
sub st
ret urned
source forge
Ġup grade
pad s
s ata
back log
Lower ing
SO FTWARE
m nd
Ġrest ored
Ġif a
Ġfr ac
en o
ĠD st
Ġd u
Ġbu fs
dev info
amp ing
Ch arge
Red uction
Ġ199 4
Ġun load
f its
comp utation
rad ix
(( ((
__(( __
thr eaded
ce ph
28 35
ĠD ialog
Ġevent ually
Conf lict
ER IAL
ĠA URA
ĠFile Path
Dig ital
ĠSpec ific
Ġstr ength
Block ed
SAMPLE S
Client s
PC B
" ];
cs id
SS R
Is Enabled
03 6
get Kind
Ġack nowledge
ic a
ĠSK IP
Ġ2 23
Ġem bed
ĠS SA
icient s
MOV ABLE
QP ainter
w g
== "
ĠC enter
Ġ2 26
Ġe poch
88 9
Ġun locked
K HZ
TIME D
ĠMem Operand
Ġ ĠĠĠĉĉ
čĊĠĠĠĠĠĠĠĠĠĠĠĠĠĠĠĠĠĠĠĠĠĠĠĠĠĠĠĠĠĠĠĠĠĠĠĠĠĠĠĠĠĠĠĠĠĠĠĠĠĠĠĠĠ Ġ
DE TA
Ġstr tol
Ġne x
S ampling
ĠS prite
Send ing
cess arily
E INTR
Ġp xa
Ġconversion s
v adc
Ġas sembly
Ġv sync
e ol
Ġ= ================================================
ĠQ MetaObject
Ġm ot
Ġl sm
h rt
ĠL R
Ġin b
Ġ ĠĊĠĠĠĠ
Ġcomp ared
ĠC pp
p grp
Ġper manent
sk buff
ĠS anity
EN B
z c
T SC
KEY WORD
Ġ0 01
MULTI PLE
MB R
Ġk eeps
host Ftdc
Ã ´
le y
rq stp
N a
Ġ ĠĠĠĠĠĠĠĠĠĠĠĠĠĠĠĠĠĠĠĠĊ
ĠObject Accessor
ĠA nt
ty ped
: /
SP DIF
V Box
Ġfrag ments
ST ANDBY
ĠI dx
//---------------------------------------------------------------- ----------------
ĠF ONT
G H
Ġred undant
ho ul
]) *
Inter action
Ġent ropy
p Creature
s of
======== ===
ior emap
Ġcon venience
as i
Ġov errun
Ġ ĠĠĠĠĠĠĠĠĠĠĠĠĠĠĠĠĠĠĠĠĠĠĠĠĠĠĠĠĠĠč
ĠM CP
lo on
READ ER
b idden
ĠCur sor
ĠEnv ironment
Inter faces
V U
rag ment
Ġfail ures
key pad
27 8
ub uf
ĠJ ob
03 9
AD B
Ġl it
Ġspe nt
Get Device
de let
ap is
Sub title
ĠP CH
no base
En queue
l ifetime
Init ialization
Ġloc ate
Ret Val
' ));
s mmu
Def Ptr
Ob serv
W MM
Ġv dev
Ġsl ider
cpus et
isp if
hentic ated
88 4
ĠSD RAM
Dis c
Ġx d
ĠLim ited
Ġend ing
Data Provider
UL ong
Ġ'. ')
Func s
enc ap
Ġtext ures
abcdefghi jklm
l ac
ro st
pri se
Ġo spf
Get Text
ĠD IM
SCAL ING
ri n
Permission s
Ġas sembler
Ċ ĠĠĠĠĊ
ĠP X
reg exp
Ġ:: =
get Class
ĠWeb Contents
ĠCHECK SUM
ĠN FC
Ġjob s
fac et
p file
Dig its
Ġ199 3
IP HY
Ġow ns
ĠPy Ns
S ome
Ġsc b
Z X
Ġcall ers
ĠT or
Ġpercent age
INST ALL
iff y
08 1
en sa
Value Ref
CA C
Ġocc up
Ġb di
Corr ection
ĠD IG
IM C
td m
r eached
Ġp pos
pe m
code gen
Int el
I mplemented
H nd
Ġ++ )
Ġpref etch
16 00
Condition al
ĠC CM
Ġa es
Ċĉĉĉĉĉĉĉĉĉ ĉĉĉ
ro b
Over lap
F ocused
CHAR SET
SHA PE
Ġattach ment
DELE TED
Ġm tr
G Type
u io
ĠIter ate
or ient
Graph ic
d uty
libav util
ĠSN MP
ĠC VAR
f rozen
STAT IST
LOCK S
Get Active
#### #
ĠN ID
pt odate
s lic
ĠP TE
Ġre jected
F TR
St ored
ç ½
Ġ quirk
PREEMP T
35 9
ĠCON TRA
ĠM Q
27 9
DE B
ĠI RT
ĠExport ed
Scalar Field
Eff Index
MSG SIZE
ĠAdv anced
pe ers
h its
de lim
ar ded
Ġtr ade
VIS UAL
set Name
pd b
Def erred
sr b
]== '
t up
Co exist
h Socket
D FS
M eter
() %
ĠT ok
') :
Ġaccel eration
ĠN db
Ġbi os
' m
pc md
base name
want ed
mp m
D sc
ch dr
CHO OL
f puts
ĠS eq
Ġg ps
ĠC rypto
Ã µ
Rep ository
ST ABLE
Ġw cs
art ist
tx i
29 7
ĠS TO
ä¸ Ģ
un ately
u addr
plic ated
Ġdefi ning
ĠNE ED
vel l
Is Active
(" __
*/ =
l sa
ac cur
ĠSy m
Ġam ong
Re putation
ĠB SON
C JK
ĠT MR
// {
DO CK
Ġsub sid
04 1
SCHE MA
ĠM apping
not her
control led
blk dev
Ġc vmx
Ġour selves
por ch
v host
Ġmap BlockIndex
Ġtr an
kb dev
mes a
c sp
Ġan not
(( _
rect s
QString Literal
Ġw aits
Coin Control
Ġenter ing
D ns
Ġover written
RE NAME
Ġfore ign
AUD IT
Ġtrans parent
S AN
ĠN AN
Ġ( {
ĠW D
Ġvir Buffer
Ġpg off
gl sl
IG A
ĠDO UBLE
Ġindic ation
Par en
q disc
Ġf action
02 02
TYPE D
T her
ĠPy String
Ġs data
n ie
ĠN aN
Edit able
Ġcon secutive
Ġclear ing
Symbol Layer
Ġder iv
Inter polation
V LC
v pd
Ġv g
is digit
Ġint s
um m
ĠP ull
8 48
ITER ATION
Ġrs si
AP SD
ĠST B
o len
il legal
ASSEMB LY
ĠWrit es
si mp
context s
ĠCAM ERA
âķ Ĳ
ĠQ Pixmap
T URN
ĠS PS
54 5
s mt
Ġcir cular
xFF C
M gmt
M peg
c and
44 7
86 9
SD MMC
c var
W PS
ORITH M
Ġa uras
' %
OT P
Ġcon verter
ENO BUFS
T eleport
Ġ ĠčĊĠ
v ms
j an
Ġeas ier
PC D
Ġtr ain
P k
ip pet
// }
Ġse cp
ĠPO INT
Ġaccount ing
Ġl ab
ĠF EC
Ġ ĠĠĠĠĠĠĠĠĠĠĠĊĠĠĠ
Ġr obot
T BB
k B
TUN NEL
Ġsk i
ag p
ĠMETH OD
Ãĸ Ãĥ
get Context
sh ares
Ġsub sys
Ġlisten ing
Ġdispatch er
Send SysMessage
Ġref ers
CL og
PER SIST
RI P
Ġdr bd
Ġk i
> );
ary ing
Ġsession s
A uction
Ġm usic
res sive
st ype
p C
Ġe nemy
ĠA ck
ix gbe
STR LEN
M ost
n val
proc edure
PI E
z lib
t param
ä¸ ª
============ =
ĠI MM
COMPRESS ION
ST RE
Ġprotocol s
ĠS HT
AL R
Ġw o
5 40
O VR
RANGE D
Ġf ir
st all
k y
CN TR
M FC
node mask
SA MSUNG
Ġmon o
Sk eleton
ĠA rc
cnt r
fi ed
le ast
ĠRET URNS
ĠH eight
[ ^
ĠQgs DebugMsg
" #
ĉĉĠĠĠĠĠ Ġ
char acters
Ġscript PubKey
f air
ĠB AT
90 7
Ġdec ision
d istributed
60 7
[ ++
medi um
Ġnew er
ALLOC ATION
V BUS
rem arks
ĠF SR
Ġo vs
Command Buffer
ii ii
v rf
Get EmptyString
ĠSet Up
Call Back
E nemy
Ġl f
pen v
Ġui Diff
T ST
Ġp Device
Ġst p
Ġspecify ing
spe aker
cc m
33 8
APP LICATION
ĠC Service
Ġco bj
P SR
vp n
ĠH UB
u A
ĊĊĠĠĠĠ Ċ
Ġin cr
Ġm data
ĠRO OT
Ġsms Log
is sion
TRANSL ATE
Ġw orth
include s
end ant
OPEN GL
k f
Ġp cr
Ġtemp lates
Send Packet
EM UL
td s
ĊĉĉĉĠĠĠĠĠĠĠĠĠĠĠĠĠĠ Ġ
Ġrel ax
Q Color
M ol
Y PH
ĠT OB
sr p
Ġmem move
CL ONE
ĠQu ant
p sp
Ġt abs
det ector
F eed
pref erences
add rinfo
ĠDI AG
Att ached
00 14
Key words
Ġsub type
e z
ast ic
Ġ ĠĠĠĠĠĠĠĠĠĠĠĠĠĠĠĠĠĠĠĠĠĊ
FI R
Ġ3 40
Ġp ur
ot ed
cmd q
Per ipheral
glyph s
ĠCO UNT
ĠComp arator
D SC
ĠX F
() ];
Ġ02 139
A KER
Ġ', '
ĠM SP
Ġuser data
Info List
Pa used
66 7
CORR UP
H SE
g ar
attach ment
Ġw a
art i
ĠM CF
e os
CP T
ĠF MOD
sb c
ĊĉĠĠĠĠĠĠĠĠĠĠĠĠĠĠĠĠĠĠĠĠĠĠĠĠĠĠĠĠĠĠĠĠ Ġ
pret ty
Co verage
WALL ET
SE ED
ĠMT D
To Array
S pl
, ",
[ ][
CO EX
Ġpj sip
dm ic
Id HasBeenSet
3 0000
ce il
C ooldown
S chool
AG ENT
MAX IMUM
r eli
Ġc irc
ĠADD RESS
564 5
ag i
æ ł
es is
98 197
ĠB ANK
89 01
Ġb q
m illiseconds
gree ment
Ġhelp ers
Set Window
Endpoint Address
ut ral
Y EAR
uzz y
ĠBU G
DD L
str ncasecmp
Ġ ĠĠĠĠĠĠĊĠ
8 0000001
S uggest
ĠI ce
cal cul
s lices
fast call
ĠString Utils
Ġi st
ĠM U
ic ence
Per form
Qu ota
Ġap ic
prod ucer
ĠN OL
quot ed
Way point
round ing
Ġ*/ \
AL GO
Ġangle s
B urst
Ġt ip
ig Num
Ġrece ives
Ġlib usb
RE LATIVE
Z ER
ĠO ur
Ġtool tip
Ġb am
Ġname len
pack ages
w Param
U GE
ĠD CT
GL SL
n ight
World Object
Z eros
Ġcorrupt ed
SA MP
cred its
VEH ICLE
Ġg i
Quant um
ĠG IT
Spell Family
Ġh ar
Ġad vertising
Ġpe ople
PG M
N ID
B eam
Ġslight ly
ĠR ID
der egister
mp tr
G URL
/************************************************************************ **
A sk
es i
PHY SI
r epr
ant id
db p
r as
Pro g
]= (
Ġat of
ADV ANCE
f ck
k ing
trans p
Get Property
ĠIN F
HO LE
id ct
ĠSY M
Ġ2 74
ĠH i
Help ers
3 17
commit ted
Plug ins
Ġle aves
v y
65 9
ĠTIO CM
Ġec x
ĉĉĉĉĠĠ Ġ
ĠT oggle
book mark
ri ll
Int rinsic
root s
Ġser ialization
Ġint egr
VISI BILITY
/******************************** ************************
tol erance
ĠUn ique
ĠM ed
ĠT ER
*//* :
S EN
MS A
ĠSTRU CT
Ãİ Âª
Ġk Num
bu ck
IST ERS
e present
BRO KEN
ĠSK B
B TR
S IT
) };
ĠTOB N
ĠT OP
E lapsed
F v
D ue
Ġ2 37
Ġevalu ated
ĠPl an
Ġt ill
ĠG TP
Ġw xE
8 75
ick s
pa used
c nic
ĠG imp
irection al
/ -
Q Size
ali ases
Ġdef er
K R
O pened
Design er
ai ring
Ġ ĉĠ
Mac ros
78 4
ĠJO IN
Get Base
Frame work
Ġp ivot
Ġv Nodes
CU MENT
Ġcon j
CAPAC ITY
Ġ15 00
u der
AP PLY
ĠE qu
is ions
Ġtop ic
Ġst ale
90 5
: #
ĠR OW
Ġres olver
i buf
Ġv sh
m out
if type
DO XYGEN
94 9
Char acters
dr ate
FT M
ĠI r
r epresent
ss a
cho ose
sub device
Frame Count
Ġreason able
q gl
c ck
M ine
pro vide
i nout
Ġconver ting
Test er
v ib
Ġins ns
j b
f usion
ĠAUD IT
O TH
port ion
A VI
C apt
ĠUn lock
UN ORM
} .
R igid
ec m
DEN IED
qu at
D BUG
Y ELL
() "
Tr unc
ĠUnicode String
spec ifier
ĠĊĠĠĠĠĠĠĠĠĠĠĠĠĠĠĠĠĠĠĠĠĠĠĠĠĠĠĠĠĠĠĠĠĠĠĠĠĠĠĠĠĠĠĠĠĠĠĠĠĠĠĠĠĠĠĠĠĠĠĠĠĠĠĠĠĠĠĠ Ġ
sl aves
Ġl ets
VI DE
DB T
e use
Ġadj acent
l pp
ĠD OC
l ft
Pri m
w lfc
38 5
SL T
Ġp addr
err er
Ġp u
Ġp Entry
Ġarray size
ĠCONTRA CTL
C DR
ĠP res
// ================================================
Ġequ ip
OP TS
ep oint
CK S
Ġd dl
AV CodecContext
Ġb tree
SS OC
.* ]]
Ġoper ate
os pf
out going
ĠP atch
78 1
ĠVAL ID
Ċ Ċĉĉĉĉĉĉ
Ġ2 31
Ġif idx
Un ix
S ense
tx d
ACTIV ITY
Ġ== ,
Time Ticks
L eader
Ġz lib
Table Entry
F CP
Ġ2 21
De finitions
ĠS ME
A CR
ATH ER
Ġf ld
Li ke
Ġc as
wx String
r end
ens ation
F act
ĠC atch
R am
Ġs ch
Ġp mc
Buf Size
No Error
ĠF TS
} ),
ĠCo ord
S equ
Ġtell s
čĊĉĉ čĊĉ
art er
inc i
priv ile
<< <
de liver
ĠC SI
IS SET
get Position
Port al
p mt
Response Received
RAG MA
um bo
Ġp cb
Tx n
RE DU
čĊĠĠĠĠĠĠĠĠĠĠĠĠĠĠĠĠĠĠĠĠĠĠĠĠĠĠĠĠĠĠĠĠĠĠĠĠĠĠĠĠĠĠĠĠĠĠĠĠĠĠĠĠĠĠ Ġ
Ġ2 75
ang odb
Ġn Max
Ġcommit ted
nt er
Ġpy thon
Ġconfig urations
ĠI G
3 37
ific ial
xcc cccc
p Node
ĠSt mt
upt odate
Ġmethod Info
uc s
Ġ1 200
IN VENTORY
ĠPre sent
USE C
l pi
ĠA gg
pc am
p Cur
av l
T PS
Sub ject
ĠRout e
Ġm pt
Ġp cpu
are as
ERE START
mu ic
p sta
get line
e me
Ġz z
ĠPart ition
Ġ**************** ***/
P ts
ĠV i
ĠBit map
Ġcon vention
Ġch ips
ĠP DU
" -
ĠR TA
i nfile
zz zz
Ġo pc
L W
list ed
EXPORT S
CLK SEL
TR B
ĉĉ Ċĉ
(" $
L SL
ING ER
br acket
d ur
36 2
th unk
Already Inited
R ISING
Parameter iv
Ð ¹
8 169
ĠTY P
HT M
Set Text
Ġb id
phys ics
ĠNOL INT
ĠL AN
NV RAM
Ġback light
P ci
ĠG ive
08 6
GetEmptyString AlreadyInited
instr ument
ĠA LOGE
sy sc
Pointer Size
5 32
4 32
x form
M sp
Caller Context
ĉĊ Ġ
s dr
ĠAD V
H AP
to Double
e de
Ġform ula
sp atial
ĠM PC
ĠC lip
file Path
Ġse ma
Node Id
em bed
Ġ** ,
TEST S
ml an
rq st
Ġrec ipient
DE PEND
Ġn db
aw ay
Vertex Buffer
ĠI OP
X B
Ġaur App
Ġlib xl
LOG GING
ĠI PR
init ialization
UNI QUE
Ġv ers
Ġex pensive
Ġde queue
ĠC DC
wake lock
w cs
c z
D ays
Ġesc aped
S int
Ġresponse s
res mgr
Ġax es
C op
Per Pixel
ĠAl location
++++++++++++++++ ++++++++++++++++
ĠSC IP
AUTH ENTIC
IP W
CAL C
ĠT mp
LI FE
ĠPIX EL
Tim ers
abcdefghijklm nopqrst
44 3
ĠN orm
SH R
Ph oto
Ġ2 020
15 00
Ġ Ċĉĉĉĉĉ
Ġident ified
set Size
Ġhold ers
Ġr mi
Stream ing
Ġis c
new line
Font Size
Ġ0 00
ĠR NG
n j
Ġper sist
Ġr h
vis ions
ĠFOR CE
ĠQ Char
NO THING
d db
Ġun compressed
Ġ' ]
local s
ĠRead er
Reg ex
Ġinterrupt ed
34 8
ĠT CC
ĠE st
ĠLE FT
s buf
Ġ ë
ERR UN
ĠCSS Property
Ġp du
M CAST
Ġn Type
ĠS pe
ĠD ot
ud d
Ġaccur ate
Q Rect
OP P
sd kp
C IF
de sign
Ġp V
t Sir
h over
ov ld
F ENCE
fo c
L PARAM
T fLite
spell Id
55 6
E CH
m add
PRES SED
s st
æ ī
Ġs addr
M ute
Ġmem cg
valid ation
last ic
n ations
Ċ ĠĊĠ
Ġc ube
av p
he mer
To File
ref lection
Ġem ulation
Re covery
MIS MATCH
ĠUt ility
ĠP HP
************************************************************************ */
ĠALOG V
ĠF MA
ĠS AI
Py CFunction
to ggled
Ġsepar ated
Ġc atalog
" /
Sem a
es et
p no
ĠL EX
SG IS
8 000000
Ġpass phrase
Ġ' @
der iv
ĠS il
U uid
čĊčĊ čĊ
ARGUMENT S
Ġp S
' "
integ rity
39 8
ĠMethod s
------- */
Ġm igrate
Ġac quired
Multi ply
ac pu
ĠSA VE
B roker
top level
/* ================================
wi ki
set ToolTip
B RE
Ġm asm
am b
dead line
Ġrecv Packet
Ġ2 84
ĠHR TIM
ro bot
ĠR ST
ĠLAB EL
, ("
li o
T UPLE
ĠPROG MEM
Ġn u
Ġ ĠĠĠĠĠĠĠĠĠĠĠĠĠĠĠĠĠĠĠĠĠĠĊ
c dr
NUMER IC
K Hz
En counter
Ġweb rtc
ĠD en
A nswer
Ġfr e
add on
p VM
M oved
E SD
64 7
ĠBattle ground
avig ator
Ġtr ay
out line
SER DES
chans pec
ici ency
GetPosition X
tr ailing
Iter ations
ĠD BUS
Ġp cl
ĠFile s
DO CUMENT
Man ual
wi ns
start s
Video Frame
CON STRUCT
Ġre pos
Ġc tor
Ġo bd
Ġt wl
Glue Info
St y
bc msdh
mob ile
f uel
Ġclip board
ĠSim ilar
ĠAl pha
RE VERSE
Token izer
aggreg ate
L u
ĠHal f
D CA
FOUR CC
)) [
ĊĊĊĠĠĠĠĠĠĠĠĠ Ġ
ĠGet AI
Ins pector
K F
Ġr ol
IN DIRECT
Ġconstruct ors
Qt Gui
LOG Y
\ *
Sc aled
av codec
W LC
g lfw
Ġne ighbour
M aker
ARE NA
color space
dec ay
S CHOOL
C nf
file path
Ġd bc
get env
ani el
Ġre plica
mo zilla
Th rough
Ġ__ __
c pt
Ġvi n
read w
] "),
ĠAdv ance
ero us
ĠAt tributes
Ġent ir
ĠE INTR
ĠQ Network
PRE VIEW
ĠFi nally
ĉĠĠĠĠĠĠĠĠĠ Ġ
Ġad r
ĊĊĊĊ ĊĊĊĊ
Async CallerContext
ĠL PARAM
SN MP
AP S
Z ones
Ġ3 04
txi n
Color Space
Replace ment
Top ic
100 2
t sd
p od
Mod s
ĠS SID
TR AC
ĠAT MEL
ME SA
Ġr amp
6 02
M SS
M AND
ht im
>( _
F RIEND
B MP
Ġq l
BB M
N x
ĠConvert To
q ml
init ed
ĠSpell Info
ĠPL UGIN
ĠE SC
Ref erences
Assert ion
39 5
or rect
Ġm box
B SIM
set opt
Top Level
COMMAND S
sup press
Browser Test
Ġpred iction
Comp arator
et ary
DV FS
ser ializer
802 154
ms msdcc
PG Node
ser ialization
ag gr
r euse
ĠRender er
Roam Info
ook eeper
BU CK
Inter sect
56 8
Buffer ed
SUB LABEL
u dent
V IN
RE LA
sh arp
trans parent
arb on
Ġv ty
ĠMA IN
and ia
Ġ0 9
T TL
Ġtr aining
ĠP eer
ner gy
CN TRL
ious ly
86 7
web kit
38 3
p ip
C s
ĊĉĉĠĠĠĠĠĠĠĠĠĠĠĠĠĠĠĠĠĠĠĠĠĠĠ Ġ
Ġbucket s
p Base
Tool Button
ĠÐ ½
Ġhook s
ĠF USE
ĠM AD
SU Integer
q f
Ġ ĠĠĊĊĠĠĠ
99 5
60 9
Item Count
AB LISH
ĠF ULL
Ġi op
ĠOver flow
DE MUX
Ġtr ees
b rq
ĠLo aded
k ms
55 4
Ġvm cs
ResponseReceived Handler
39 7
qu eries
]. _
ĊĊĊĠĠĠĠĠĠĠĠĠĠ Ġ
pag etable
Render buffer
58 4
ĠE INA
Per iph
Ġ( #
Ċ ĊĉĉĠĠĠ
ring buffer
exec utable
Compat ible
QUI CK
associ ated
ĠTra its
bc n
br e
Ġh alt
Ġstrict ly
ĠU ses
hentic ator
PFNGL GET
Ġtemp orarily
nc ol
t alk
Ġf light
ZO OM
h ance
Cal lee
w y
sock fd
78 5
ol y
ĠA SIC
Exist ing
Data Ptr
HEAD ERS
ĠCSS Value
icon duct
Ġman ifest
unic ator
HU GE
er ialize
DEVICE S
Ġw ent
nt p
Ġcl r
ki n
Sub tract
Ġway s
Ġether net
Ġal most
Ġm pu
ĠH SI
String Value
p wq
E valuate
ĠT w
w buf
ĠA K
AS F
Pos sible
ĠCal ifornia
Ġcomp ilers
main cpu
ĊĉĉĉĉĠĠĠĠĠĠĠĠ Ġ
ĠResult s
d ib
e plica
ĠB STR
T xt
ĠH F
Ġ2 65
ĠT WL
At tempt
94 5
ĠO PA
View Host
T CG
syn aptics
!!!! !!!!
Ġt une
h ph
ãĤ ĭ
Ġcl utter
EQ UIP
get Id
bit set
start sWith
ose conds
FOUND ATION
ĠL ex
Ġad dend
Ġm tp
ĠP UT
ĠR ing
Mis sion
p map
90 9
ĠConvert s
ĠTest ing
" _
UN SPECIFIED
de b
ific ates
V FP
ĠLog i
Uns afe
Ġsubsid iary
conversion s
Param Spec
s uc
p Target
00 30
g tp
HR TIM
ĠBl ack
Ġv im
WOW LAN
W ind
pv r
ffffff e
Ġ2 77
Unc hecked
ĠCUR LE
V a
ĠPar allel
P VOID
t il
08 8
Accept ed
JOY STICK
SCEN E
ĠWait For
Ġal go
Ġo d
ĠP LT
roll back
MIT IVE
Ġreg num
Ġ4 04
check ing
M ING
G iven
M st
p ure
D ensity
Ġhost s
B IF
Ġany one
ĠC OST
Spell Id
C v
d tp
Ġcom ing
Ġenv oy
_ ::
ag c
pt x
) ]),
bound ing
ĠF irmware
Hash Map
Ġequal ity
Ġ ENOMEM
p H
optim ization
Ðµ ÑĢ
Ġp eek
pre alloc
er ing
Con cat
78 7
Dis covery
Ġg m
ĠW TF
opt ab
Ġc riteria
ĠLO OKUP
Ġl y
FINISH ED
ĠRe member
Ġm andatory
win rt
ĠEN G
z s
PO ISON
Ġcontin uous
res v
PAR ALLEL
Ġper cpu
ut put
sist ency
ĠRAD IO
Ġreturn Value
g att
man age
n im
Ġqu ite
ĠH e
Ġcap able
Ġg ic
ĠZ STD
Ġtick et
Field Type
Event Args
FUN CPTR
Ġfront end
Ġski n
Ġdesc r
Ġ" }\
Prom ise
LC DC
i put
H UAWEI
h ys
mav link
Cor rect
T axi
Ġloc ally
g host
l ittle
ĠL B
Ġd if
E ng
Ġex ceeded
__ .
ED ITOR
apt ic
d tr
di n
si r
Ġ lose
Ġ ĠĠĠĠĠĠĠĠĠĠĠĠĠĠĠĠĠĠĠĠĠĠĠĊ
AC M
q real
G List
Ġe HalStatus
Mov ing
ĠAMD GPU
SER V
ol f
Ġmicro seconds
Ġdist ingu
QU IT
Ġ2 80
rint f
S CE
Ġc si
e T
Dec rypt
is oc
Ġinitial ise
J AVA
P eak
6 10
Const Iterator
u er
co ordinates
xaaaaa aaa
ĠPROTO BUF
C rit
A m
Ġpol ynomial
Percent age
([ &
FUN CS
if ecycle
ĠPAR AMS
Ġci n
Ġimplicit ly
ert ia
Ġstruct s
mp ath
Cal ibration
x v
PER TY
exp ansion
Ġde struct
Ġle v
Con formance
Ġinter ested
op enc
G CP
mo drm
Ġosc illator
Debug Info
Ġcmd line
Int eg
opt len
ĠLogi n
em ac
PH RD
Ġver b
Ġm Layer
Ġf ts
J et
COM MA
Ġd asd
pr ession
Ġknow s
Ġ> ,
m ight
Ġde mo
Ġ@ "
Ġw ind
aut oc
RX F
Ġt alent
S pectrum
TABLE S
Py Err
ul y
Ġiterator s
ĠM TXORB
fi ng
ĠOP CODE
up led
Ġfor ces
ref erences
Ġad b
P ulse
ĠStat s
md l
dss dev
Ġk illed
DQ S
Ġ ------------------------------------------------------------------------
Ġen caps
8 18
r eplica
ĠVARI ANT
Ġprob ability
Ġm Current
ĠPro perties
IO WR
Ġres ched
LIC ATE
ĠA cpi
Ġ2 59
let ter
Include s
CT rans
com ments
th ree
ĠO DM
Ġs len
Ġcomp iling
Ġ': '
Object Guid
Off load
ri f
ĠST L
ĠD rag
decess or
ĠLIB CERROR
Ġapp ended
ver ifier
ĠGL void
Ġw eek
if addr
ident ify
Launch er
cr bug
P ayment
T CR
] {
ĠMAC RO
Ġstr Account
D ifference
R TA
> /
22 22
Ġalloc ates
MACRO S
Ġsc enario
war p
con tract
Ġspec ialization
Ġ2 76
), "
ĠH ence
F allback
í ķ
ENUM ER
Ġcent ral
Ex plorer
Json Value
ĠB AM
ĠBLA ZE
Ġunder flow
ei n
t errain
: {
ĠD iff
Exec utable
n lp
Chunk s
Mult icast
| (
w ep
l blk
no hz
get Next
Mod ifiers
function al
Q Network
Ġt lb
F lex
ĠL ive
Ġde lim
PRI u
Ġl z
cal lee
ĠR H
V CD
Q MessageBox
Ġv el
Ġn args
Ġd ow
ĠD IST
t q
01 10
ĠCO MPLE
S nd
swap d
COMB AT
D ash
particle s
c stdlib
is dn
sa a
Time line
Associ ated
Channel Buffer
rt n
ĠCal ling
red uction
Ġ3 50
Float ing
TR C
s ms
Ġpro duced
ĠCRY PT
ĠLIM IT
//////////////////////////////////////////////// ////////
Min i
Re ject
s op
IPHER AL
Ġp end
MIN I
Anim ated
C CA
Ġaltern atively
ĠC mp
Ġst roke
L ATE
map Args
n cp
SR R
Ġq ib
exp anded
Vol tage
red o
Ġ' ='
Ġoption ally
ĠN ational
Ġx mit
ĠP ASS
b info
j pg
lo d
Ġw ar
å °
FILEN O
ĠU SHORT
k Max
83 50
ĠAR P
C art
Ġquick ly
Ġg as
1111 1111
Ġp si
Ġ" ("
ĠSem iconduct
Ġval a
ABORT ED
c is
ĠJ UCE
Ġinter vals
J UST
man agement
LD AP
ĠPack age
Particle s
Accel erator
rs q
V REF
s fx
VOL T
get Reg
float ing
ĠB GP
null s
ĠSpec ify
L H
Invalid Argument
xffffff fd
get Pointer
I face
t ries
} */
CONFIG URE
A DED
Ġfact ors
ĠS ANE
ĠWH AT
54 8
co exist
LV DS
Ġinit ially
usb dev
Ġi findex
mem base
ax es
boot mem
ĠG SL
inter cept
Me asurement
Ġco cos
ĠMA IL
Ġs ized
æĺ ¯
mg d
/* -
t io
ĠM AN
dr a
] */
Ġclear s
c ity
SHA KE
H CD
ä ¿
Ġco urse
ĠSec ure
M c
IM ER
Table View
FREE ZE
IN HER
Destroy ed
SH M
Â¶ Â¨
Ġas oc
Ġtransition s
qu ic
Ġ4 50
e proto
LI VE
ĠC ID
Result Type
r ctx
Inter section
or de
load u
cap a
ĠG PT
å Ĩ
n ser
app le
ĠTH D
Ġsim de
G row
ĊĉĉĉĠĠĠĠĠĠĠĠĠĠĠĠĠĠĠ Ġ
th an
a if
ĠLicense es
de mand
ĠQ PushButton
In vert
Per m
ĠC GUI
tt m
Ġ ang
FF A
s uggest
ĠBad Sink
Sp aces
--+ --+
ĠRef resh
IN FRA
ĊĉĠĠĠĠĠĠĠĠĠĠĠĠĠĠĠĠĠĠĠĠĠĠĠĠĠĠĠĠĠĠĠĠĠ Ġ
AS PECT
ĠT p
Ġchrome os
/*------------------------------------------------------------------------- */
Ġst k
ÃĳÃĳÃĳÃĳ ÃĳÃĳÃĳÃĳ
Ġsw apped
s aw
cont iguous
ĠSend Coins
Ġpindex Best
yy lsp
Ġincre asing
Ġs pd
Ġrespon d
Ġint rinsic
Ġavoid s
Ġpi eces
å® ļ
st orm
12 0000
Ġpin ned
List Box
Ġti ny
Ġ è
__, __
z r
ĠH it
Ġg lew
st ock
0000000 7
SERIAL IZE
v bi
74 5
Ġg z
Ġ2 68
NO ISE
================ =
K T
ï¿½ ï¿½
o ops
ĠDis connect
CUR VE
Ġth resh
Ġ## #
gu ide
dev freq
Ġsp ot
UM IN
LIB C
cc c
Ġfr m
SH IP
ĠUni Value
ps m
ĠLi ke
L it
EN TION
R n
N avigate
7 50
S urf
ĠG X
ad ic
col lapse
PRO JECT
Ġconsist ency
sig action
ĠREG ION
Ãĸ ÃĲ
long long
ĠE ither
lock ing
" [
ces sibility
Ġsw ift
D CR
Ġcol l
Ġv ote
Ġ) \
Ġcode d
ĠSk Bits
ĠNone T
ĠA lex
ĠED IT
ĠI FLA
K I
VAR ARGS
ĠPy Unicode
HEAD SET
Ġd addr
PM K
)&& (
Hy per
he artbeat
n File
Ġs mi
hedr on
Ġdef late
const Data
ĠV ert
ĠDe pth
Ġirq s
ĠC trl
ĠQgs Point
ĠF ollow
V id
nd b
ĠA m
ĠVK I
' "),
ph ir
cell ation
Ġb ogus
Res pon
Ġdata len
PH IR
Place ment
ĠS PH
Split ter
Ġtun ing
c list
ĠI OM
FALL ING
Ġ! *
c wd
W Q
CHAN IC
74 6
J SC
pe ep
Prop ag
transaction s
Ġgl Uniform
Ġy aw
Fem to
db m
Ġr dp
arti n
Block File
" <
W arn
ĠG er
ĠPass word
A WB
ĠT EX
p ctl
plic as
over load
User name
D PRINTK
w bc
Ġrecv Data
ĠM ultiple
Ã ¯
U DB
n finity
PRO FIL
g ence
ĠPUB LIC
t ar
GAME OBJECT
In side
Co ver
Main Thread
ar able
ĠD ID
64 8
ĠH CD
sc he
Event Listener
un s
//============================================================================ =
Ġun d
Min Max
hd lc
06 2
it a
MD B
OS X
xff d
pr s
ĠMT U
ĠK D
Merge Tree
IN COMPLETE
Point ers
G PT
l mp
Ġec ma
DA IFMT
ul ating
R DS
Co ex
Sim ulation
ROUT ER
Ġpindex New
Misc Value
BE E
Ġ3 65
P ull
nc at
el v
Ġg yro
DC D
JS Value
Ġover load
[ ]);
E ta
ĠLeg acy
IM MEDIATE
Ġ ][
ĠQUE UE
Ġse quent
MODE S
A FF
ĠVALUE S
Ġ3 05
aut hentication
' ]
76 5
ĠTechno logies
`` ``
red raw
To UTF
si l
ĠRes olve
Image Type
ĠV CPU
S sid
as set
WAIT ING
ĠQ P
TUN E
i nfinity
G fx
WN I
w mm
ĠCl uster
M ARGIN
s uch
ĠCOMP ONENT
On line
c andidates
Ġc rit
Ġm rq
^ (
out Debug
Ġ*) (&
gettime ofday
aph it
Ġb dev
mod s
); "
ĠQ DateTime
ritical Section
fd c
URN AL
[...]
