{"<pad>":0,"<s>":1,"</s>":2,"<unk>":3,"<mask>":4,"<extra_id_99>":5,"<extra_id_98>":6,"<extra_id_97>":7,"<extra_id_96>":8,"<extra_id_95>":9,"<extra_id_94>":10,"<extra_id_93>":11,"<extra_id_92>":12,"<extra_id_91>":13,"<extra_id_90>":14,"<extra_id_89>":15,"<extra_id_88>":16,"<extra_id_87>":17,"<extra_id_86>":18,"<extra_id_85>":19,"<extra_id_84>":20,"<extra_id_83>":21,"<extra_id_82>":22,"<extra_id_81>":23,"<extra_id_80>":24,"<extra_id_79>":25,"<extra_id_78>":26,"<extra_id_77>":27,"<extra_id_76>":28,"<extra_id_75>":29,"<extra_id_74>":30,"<extra_id_73>":31,"<extra_id_72>":32,"<extra_id_71>":33,"<extra_id_70>":34,"<extra_id_69>":35,"<extra_id_68>":36,"<extra_id_67>":37,"<extra_id_66>":38,"<extra_id_65>":39,"<extra_id_64>":40,"<extra_id_63>":41,"<extra_id_62>":42,"<extra_id_61>":43,"<extra_id_60>":44,"<extra_id_59>":45,"<extra_id_58>":46,"<extra_id_57>":47,"<extra_id_56>":48,"<extra_id_55>":49,"<extra_id_54>":50,"<extra_id_53>":51,"<extra_id_52>":52,"<extra_id_51>":53,"<extra_id_50>":54,"<extra_id_49>":55,"<extra_id_48>":56,"<extra_id_47>":57,"<extra_id_46>":58,"<extra_id_45>":59,"<extra_id_44>":60,"<extra_id_43>":61,"<extra_id_42>":62,"<extra_id_41>":63,"<extra_id_40>":64,"<extra_id_39>":65,"<extra_id_38>":66,"<extra_id_37>":67,"<extra_id_36>":68,"<extra_id_35>":69,"<extra_id_34>":70,"<extra_id_33>":71,"<extra_id_32>":72,"<extra_id_31>":73,"<extra_id_30>":74,"<extra_id_29>":75,"<extra_id_28>":76,"<extra_id_27>":77,"<extra_id_26>":78,"<extra_id_25>":79,"<extra_id_24>":80,"<extra_id_23>":81,"<extra_id_22>":82,"<extra_id_21>":83,"<extra_id_20>":84,"<extra_id_19>":85,"<extra_id_18>":86,"<extra_id_17>":87,"<extra_id_16>":88,"<extra_id_15>":89,"<extra_id_14>":90,"<extra_id_13>":91,"<extra_id_12>":92,"<extra_id_11>":93,"<extra_id_10>":94,"<extra_id_9>":95,"<extra_id_8>":96,"<extra_id_7>":97,"<extra_id_6>":98,"<extra_id_5>":99,"<extra_id_4>":100,"<extra_id_3>":101,"<extra_id_2>":102,"<extra_id_1>":103,"<extra_id_0>":104,"!":105,"\"":106,"#":107,"$":108,"%":109,"&":110,"'":111,"(":112,")":113,"*":114,"+":115,",":116,"-":117,".":118,"/":119,"0":120,"1":121,"2":122,"3":123,"4":124,"5":125,"6":126,"7":127,"8":128,"9":129,":":130,";":131,"<":132,"=":133,">":134,"?":135,"@":136,"A":137,"B":138,"C":139,"D":140,"E":141,"F":142,"G":143,"H":144,"I":145,"J":146,"K":147,"L":148,"M":149,"N":150,"O":151,"P":152,"Q":153,"R":154,"S":155,"T":156,"U":157,"V":158,"W":159,"X":160,"Y":161,"Z":162,"[":163,"\\":164,"]":165,"^":166,"_":167,"`":168,"a":169,"b":170,"c":171,"d":172,"e":173,"f":174,"g":175,"h":176,"i":177,"j":178,"k":179,"l":180,"m":181,"n":182,"o":183,"p":184,"q":185,"r":186,"s":187,"t":188,"u":189,"v":190,"w":191,"x":192,"y":193,"z":194,"{":195,"|":196,"}":197,"~":198,"¡":199,"¢":200,"£":201,"¤":202,"¥":203,"¦":204,"§":205,"¨":206,"©":207,"ª":208,"«":209,"¬":210,"®":211,"¯":212,"°":213,"±":214,"²":215,"³":216,"´":217,"µ":218,"¶":219,"·":220,"¸":221,"¹":222,"º":223,"»":224,"¼":225,"½":226,"¾":227,"¿":228,"À":229,"Á":230,"Â":231,"Ã":232,"Ä":233,"Å":234,"Æ":235,"Ç":236,"È":237,"É":238,"Ê":239,"Ë":240,"Ì":241,"Í":242,"Î":243,"Ï":244,"Ð":245,"Ñ":246,"Ò":247,"Ó":248,"Ô":249,"Õ":250,"Ö":251,"×":252,"Ø":253,"Ù":254,"Ú":255,"Û":256,"Ü":257,"Ý":258,"Þ":259,"ß":260,"à":261,"á":262,"â":263,"ã":264,"ä":265,"å":266,"æ":267,"ç":268,"è":269,"é":270,"ê":271,"ë":272,"ì":273,"í":274,"î":275,"ï":276,"ð":277,"ñ":278,"ò":279,"ó":280,"ô":281,"õ":282,"ö":283,"÷":284,"ø":285,"ù":286,"ú":287,"û":288,"ü":289,"ý":290,"þ":291,"ÿ":292,"Ā":293,"ā":294,"Ă":295,"ă":296,"Ą":297,"ą":298,"Ć":299,"ć":300,"Ĉ":301,"ĉ":302,"Ċ":303,"ċ":304,"Č":305,"č":306,"Ď":307,"ď":308,"Đ":309,"đ":310,"Ē":311,"ē":312,"Ĕ":313,"ĕ":314,"Ė":315,"ė":316,"Ę":317,"ę":318,"Ě":319,"ě":320,"Ĝ":321,"ĝ":322,"Ğ":323,"ğ":324,"Ġ":325,"ġ":326,"Ģ":327,"ģ":328,"Ĥ":329,"ĥ":330,"Ħ":331,"ħ":332,"Ĩ":333,"ĩ":334,"Ī":335,"ī":336,"Ĭ":337,"ĭ":338,"Į":339,"į":340,"İ":341,"ı":342,"Ĳ":343,"ĳ":344,"Ĵ":345,"ĵ":346,"Ķ":347,"ķ":348,"ĸ":349,"Ĺ":350,"ĺ":351,"Ļ":352,"ļ":353,"Ľ":354,"ľ":355,"Ŀ":356,"ŀ":357,"Ł":358,"ł":359,"Ń":360,"st":361,"er":362,"on":363,"at":364,"**":365,");":366,"de":367,"nt":368,"Ġ*":369,"Ċĉ":370,"et":371,"Ġi":372,"Ġ=":373,"--":374,"Ġt":375,"or":376,"Ġ(":377,"le":378,"->":379,"ar":380,"Ġc":381,"al":382,"Ġ0":383,"se":384,"ct":385,"//":386,"he":387,"an":388,"it":389,"00":390,"ne":391,"ur":392,"es":393,"****":394,"Ġr":395,"en":396,"ĊĊ":397,"Ġs":398,"ĉĉ":399,"Ġf":400,"----":401,"ic":402,"Ġ{":403,"ion":404,"me":405,"Ġp":406,"ri":407,"lo":408,"Ġb":409,"ng":410,"if":411,"id":412,"ut":413,"ro":414,"==":415,"Ġthe":416,"ad":417,"fi":418,"ed":419,"Ġm":420,"ac":421,"::":422,"str":423,"Ġ\"":424,"un":425,"Ġo":426,"int":427,"as":428,"li":429,"Ġ*/":430,"pe":431,"urn":432,"/*":433,"eturn":434,"Ġw":435,"is":436,"ĊĊĠ":437,"Ġ}":438,"Ġv":439,"Ċĉĉ":440,"ag":441,"mp":442,"ue":443,"si":444,"Ġd":445,"el":446,"IN":447,"ĠS":448,"********":449,"()":450,"ex":451,"Ġ1":452,"Ġif":453,"Ġn":454,"Ġ&":455,"ate":456,"ol":457,"ER":458,"ent":459,"Ġ<":460,"uct":461,"ĠC":462,"ff":463,"--------":464,"Ċĉĉĉ":465,"ode":466,"ĠT":467,"struct":468,"Ġin":469,"Ġa":470,"ing":471,"ck":472,"Ġcon":473,"am":474,"pt":475,"ot":476,"ch":477,"and":478,"ze":479,"ul":480,"con":481,"čĊ":482,"RE":483,"Ġ//":484,"ab":485,"ĊĊĠĠ":486,"cl":487,"defi":488,"ame":489,"__":490,"define":491,"ĠA":492,"ata":493,"Ġint":494,"ĊĊĠĠĠ":495,"us":496,"\",":497,"Ġto":498,"oid":499,"====":500,"ap":501,"ĠP":502,"ype":503,"stat":504,"get":505,"il":506,"ase":507,"Ġ-":508,"dev":509,"ĠN":510,"ect":511,"ON":512,"end":513,"ST":514,"LL":515,"ce":516,"um":517,"co":518,"ir":519,"Ġre":520,"ĠI":521,"Ġreturn":522,"tr":523,"EN":524,"ve":525,"Ġh":526,"32":527,"))":528,"set":529,"ĠG":530,"Ġu":531,"OR":532,"Ġth":533,"ay":534,"DE":535,"Ġof":536,"ĠM":537,"AT":538,"op":539,"Ġg":540,"Ġ+":541,"ĠF":542,"ation":543,"nd":544,"Ġ==":545,"Ġis":546,"Ġfor":547,"0000":548,"able":549,"th":550,"err":551,"Ġ2":552,"Ġconst":553,"ub":554,"Ġst":555,"lock":556,"ext":557,"ess":558,"return":559,"AR":560,"();":561,"St":562,"SE":563,"static":564,"ile":565,"up":566,"ver":567,"Ġ/*":568,"ack":569,"em":570,"ee":571,"(\"":572,"age":573,"clu":574,"eg":575,"bu":576,"dr":577,"ow":578,"ring":579,"****************":580,"fo":581,"ĠD":582,"////":583,"IT":584,"ĠL":585,"ist":586,"),":587,"clude":588,"ĠR":589,"ig":590,"In":591,"AL":592,"val":593,"čĊĠ":594,"ize":595,"ULL":596,"ak":597,"nclude":598,"include":599,"ction":600,"Ġl":601,"Ġ|":602,"Ġch":603,"----------------":604,"data":605,"om":606,"LE":607,"ort":608,"all":609,"ead":610,"void":611,"ult":612,"AN":613,"ĠB":614,"def":615,"CT":616,"else":617,"Ġ!":618,"ĠE":619,"ned":620,"size":621,"sig":622,"ev":623,"im":624,"));":625,"ment":626,"čĊĠĠ":627,"MA":628,"art":629,"os":630,"unt":631,"ass":632,"Ġvoid":633,"for":634,"ĠNULL":635,"========":636,"pl":637,"type":638,"čĊĠĠĠ":639,"out":640,"Ġand":641,"pr":642,"ice":643,"ht":644,"bj":645,"Ġbe":646,"ID":647,"od":648,"of":649,"ers":650,"sc":651,"ĠO":652,"ool":653,"ace":654,"ime":655,"are":656,"ai":657,"(&":658,"SS":659,"ĠW":660,"name":661,"pri":662,"Ġit":663,"aram":664,"put":665,"per":666,"ith":667,"est":668,"loc":669,"ef":670,"Ġde":671,"signed":672,"Ġ__":673,"PE":674,"\");":675,"ĠU":676,"Ġun":677,"res":678,"Ġtr":679,"const":680,"arg":681,"Ġ<<":682,"Ġ%":683,"io":684,"ĊĊĠĠĠĠ":685,"Ġ_":686,"to":687,"CH":688,"TR":689,"FF":690,"read":691,"ĊĊĠĠĠĠĠ":692,"Ġ>":693,"rit":694,"eak":695,"eq":696,"ast":697,"list":698,"lag":699,"Ġ&&":700,"ME":701,"Ġne":702,"nfo":703,"ey":704,"alue":705,"Con":706,"16":707,"fr":708,"pro":709,"reak":710,"Ġ!=":711,"len":712,"Ġse":713,"Ġchar":714,"addr":715,"CE":716,"64":717,"dex":718,"ain":719,"info":720,"Ġsize":721,"Ġk":722,"Ġon":723,"Ġstruct":724,"ang":725,"ry":726,"ma":727,"ind":728,"ĊĉĠ":729,"Ġthis":730,"AD":731,"ure":732,"ec":733,"Ġelse":734,"Ġ)":735,"Ġ(!":736,"Ġ\\":737,"ip":738,"SI":739,"cp":740,"LO":741,"++":742,"ter":743,"Ġpro":744,"oint":745,"line":746,"ffer":747,"01":748,"ĠV":749,"Ċĉĉĉĉ":750,"bject":751,"UT":752,"ĠH":753,"ĠQ":754,"RO":755,"nit":756,"FI":757,"Ġ3":758,"Ġe":759,"Get":760,"Ġ:":761,"CO":762,"ĊĊĠĠĠĠĠĠ":763,"Ġ@":764,"reg":765,"CK":766,"ĊĊĠĠĠĠĠĠĠ":767,"mem":768,"rom":769,"port":770,"Type":771,"PI":772,"ore":773,"Ġnot":774,"ask":775,"ms":776,"error":777,"endif":778,"ll":779,"////////":780,"ss":781,"ong":782,"ty":783,"Ġor":784,"},":785,"Ġ4":786,"ial":787,"Ġco":788,"11":789,"UN":790,"text":791,"TI":792,"LA":793,"Ġcase":794,"ser":795,"INT":796,"ost":797,"rc":798,"pi":799,"our":800,"und":801,"Ġres":802,"];":803,"ption":804,"02":805,"ĠĊ":806,"md":807,"file":808,"Ġwith":809,"lags":810,"ath":811,"buf":812,"emp":813,"oc":814,"rite":815,"GE":816,"ator":817,"EX":818,"Ġby":819,"ans":820,"ly":821,"čĊĠĠĠĠ":822,"der":823,"ffset":824,"device":825,"Ċĉĉĉĉĉ":826,"].":827,"ptr":828,"Ġex":829,"String":830,"Ġan":831,"Ġ);":832,"Ġal":833,"act":834,"map":835,"ERR":836,"lic":837,"que":838,"čĊĠĠĠĠĠ":839,"MP":840,"rib":841,"xt":842,"Ġ'":843,"low":844,"sh":845,"uint":846,"urr":847,"Ġ||":848,"DI":849,"ĊĉĠĠ":850,"gr":851,"Ġ((":852,"heck":853,"Ġy":854,"********************************":855,"alse":856,"TY":857,"bo":858,"add":859,"12":860,"Ġthat":861,"..":862,"ail":863,"string":864,"ity":865,"ector":866,"Ġx":867,"fig":868,"Ġstd":869,"US":870,"param":871,"rr":872,"code":873,"ave":874,"eam":875,"sed":876,"ED":877,"000":878,"ive":879,"10":880,"unction":881,"qu":882,"lin":883,"node":884,"Ġset":885,"case":886,"AB":887,"iv":888,"cr":889,"};":890,"ĊĉĠĠĠ":891,"ĊĊĉ":892,"ight":893,"Ġfile":894,"print":895,"Ġ},":896,"num":897,"čĊĠĠĠĠĠĠ":898,"Ġsh":899,"ill":900,"mm":901,"sy":902,"Ġwe":903,"čĊĠĠĠĠĠĠĠ":904,"cess":905,"ew":906,"ret":907,"CON":908,"ard":909,"Co":910,"Ġwh":911,"ING":912,"Ġdo":913,"form":914,"--------------------------------":915,"ber":916,"Ġdata":917,"count":918,"Ġbu":919,"ep":920,"state":921,"nal":922,"mi":923,"ribut":924,"Pro":925,"Set":926,"ord":927,"/**":928,"sk":929,"back":930,"value":931,"================":932,"ener":933,"unsigned":934,"ree":935,"ant":936,"ense":937,"his":938,"init":939,"Ġas":940,"ource":941,"urrent":942,"Ġuint":943,"ns":944,"ition":945,"event":946,"status":947,"SC":948,"char":949,"ĠĊĠ":950,"nc":951,"andle":952,"Ġj":953,"UL":954,"Ġret":955,"MO":956,"opy":957,"Data":958,"TH":959,"one":960,"ublic":961,"ax":962,"ert":963,"BU":964,"nel":965,"Ġfalse":966,"Ch":967,"ock":968,"Ġbool":969,"ĠThe":970,"Ġbreak":971,"());":972,"ok":973,"Ġunsigned":974,"Ġat":975,"Ġnew":976,"ound":977,"Ġout":978,"*/":979,"Ġvalue":980,"ault":981,"sp":982,"Ġtrue":983,"eld":984,"ork":985,"rig":986,"OP":987,"ual":988,"lay":989,"TYPE":990,"LI":991,"pp":992,"Ġ5":993,"((":994,"ION":995,"Ġle":996,"fs":997,"UR":998,"ine":999,"ory":1000,"log":1001,"Ġget":1002,"ust":1003,"TE":1004,"ister":1005,"og":1006,"loat":1007,"ou":1008,"atch":1009,"(),":1010,"Ġen":1011,"ENT":1012,"icense":1013,"ull":1014,"pen":1015,"mple":1016,"ele":1017,"NO":1018,"its":1019,"REG":1020,"ndex":1021,"Info":1022,"ĠThis":1023,"hed":1024,"ated":1025,"req":1026,"Ġare":1027,"sion":1028,"SH":1029,"ames":1030,"uble":1031,"break":1032,"mode":1033,"NE":1034,"eate":1035,"oto":1036,"ance":1037,"Ġ*)":1038,"Ġfrom":1039,"ash":1040,"ange":1041,"Int":1042,"UE":1043,"Ad":1044,"key":1045,"par":1046,"RA":1047,"roup":1048,"pec":1049,"tro":1050,"Ġ8":1051,"Value":1052,"20":1053,"ary":1054,"head":1055,"pc":1056,"ide":1057,"ach":1058,"Ġcan":1059,"ph":1060,"],":1061,"())":1062,"aw":1063,"ORT":1064,"tx":1065,"arget":1066,"Ġtype":1067,"IS":1068,"OL":1069,"Name":1070,"STAT":1071,"Id":1072,"Ġreg":1073,"unc":1074,"av":1075,"std":1076,"CA":1077,"Ġstr":1078,"ware":1079,"time":1080,"ĊĉĉĠ":1081,"ove":1082,"ĠĊĠĠ":1083,"priv":1084,"Ġlong":1085,"index":1086,"ux":1087,"lient":1088,"IL":1089,"VE":1090,"ake":1091,"Object":1092,"CL":1093,"pd":1094,"25":1095,"essage":1096,"omm":1097,"flags":1098,"ule":1099,"Ġ+=":1100,"let":1101,"Ġnum":1102,"Ġsizeof":1103,"free":1104,"yt":1105,"SET":1106,"UP":1107,"VAL":1108,"write":1109,"iew":1110,"indow":1111,"iz":1112,"SP":1113,"uld":1114,"ĠĊĠĠĠ":1115,"ud":1116,"ere":1117,"load":1118,"entry":1119,"ZE":1120,"Ex":1121,"List":1122,"ĠLicense":1123,"oft":1124,"new":1125,"Bu":1126,"own":1127,"NU":1128,"ngth":1129,"FA":1130,"tp":1131,"base":1132,"buffer":1133,"VI":1134,"80":1135,"Ġuse":1136,"col":1137,"no":1138,"eth":1139,"++)":1140,"class":1141,"mb":1142,"HE":1143,"arr":1144,"ĉĉĉĉ":1145,"pace":1146,"sing":1147,"uest":1148,"SK":1149,"alloc":1150,"Ġpri":1151,"Res":1152,"ache":1153,"db":1154,"annel":1155,"Ġarg":1156,"comp":1157,"max":1158,"Ġcl":1159,"printf":1160,"ti":1161,"////////////////":1162,"start":1163,"PC":1164,"RI":1165,"ifi":1166,"cpu":1167,"default":1168,"fd":1169,"orm":1170,"user":1171,"Ġval":1172,"ush":1173,"Ġerror":1174,"PO":1175,"ref":1176,"row":1177,"File":1178,"VER":1179,"py":1180,"IF":1181,"To":1182,"Ġ6":1183,"Size":1184,"net":1185,"bug":1186,"15":1187,"dis":1188,"Ġdefine":1189,"SIZE":1190,"Ġsc":1191,"IC":1192,"ifdef":1193,"right":1194,"ĊĉĉĠĠ":1195,"ript":1196,"ĊĊĠĠĠĠĠĠĠĠ":1197,"Ġwill":1198,"ib":1199,"ld":1200,"IO":1201,"ix":1202,"ersion":1203,"Ġcomp":1204,"oftware":1205,"idth":1206,"40":1207,"##":1208,"30":1209,"čĊĠĠĠĠĠĠĠĠ":1210,"mt":1211,"bool":1212,"FIG":1213,"ctx":1214,"Ġfunction":1215,"ĊĉĉĉĠ":1216,"ild":1217,"block":1218,"ĊĊĠĠĠĠĠĠĠĠĠ":1219,"ps":1220,"ĠCON":1221,"Ġ[":1222,"ĠX":1223,"cmd":1224,"ĠGet":1225,"rror":1226,"čĊč":1227,"Ġpr":1228,"ABLE":1229,"ould":1230,"DR":1231,"ify":1232,"Tr":1233,"MS":1234,"trol":1235,"mit":1236,"pos":1237,"PRO":1238,"offset":1239,"acket":1240,"ge":1241,"\";":1242,"Ġ?":1243,"ERROR":1244,"ded":1245,"irt":1246,"Ġ/":1247,"ler":1248,"itch":1249,"face":1250,"goto":1251,"eat":1252,"do":1253,"čĊĠĠĠĠĠĠĠĠĠ":1254,"xff":1255,"link":1256,"ern":1257,"Sc":1258,"MD":1259,"imer":1260,"Ġname":1261,"ield":1262,"ĠK":1263,"CP":1264,"config":1265,"vent":1266,"tem":1267,"ĊĊĠĠĠĠĠĠĠĠĠĠ":1268,"cc":1269,"State":1270,"table":1271,"ĊĊĠĠĠĠĠĠĠĠĠĠĠ":1272,"Ġmem":1273,"work":1274,").":1275,"99":1276,"FO":1277,"TO":1278,"PORT":1279,"point":1280,"use":1281,"BUG":1282,"rame":1283,"AP":1284,"Ġlist":1285,"čĊĠĠĠĠĠĠĠĠĠĠ":1286,"stream":1287,"13":1288,"ĠIN":1289,"Ġend":1290,"DO":1291,"ence":1292,"DB":1293,"čĊĠĠĠĠĠĠĠĠĠĠĠ":1294,"temp":1295,"inter":1296,"msg":1297,"ĊĉĉĠĠĠ":1298,"ĠEX":1299,"Ġhave":1300,"queue":1301,"not":1302,"istribut":1303,"uto":1304,"late":1305,"IP":1306,"MAX":1307,"play":1308,"Str":1309,"ting":1310,"SY":1311,"erv":1312,"IG":1313,"EXT":1314,"BA":1315,"Ġsy":1316,"min":1317,"witch":1318,"Node":1319,"reate":1320,"rt":1321,"Ġaddr":1322,"14":1323,"this":1324,"Ġ7":1325,"Ġdis":1326,"func":1327,"Ġso":1328,"ĠAN":1329,"ĠSt":1330,"apt":1331,"Ġresult":1332,"iter":1333,"led":1334,"ument":1335,">(":1336,"OUT":1337,"path":1338,"'t":1339,"cond":1340,"di":1341,"GL":1342,"page":1343,"ĠIf":1344,"bit":1345,"().":1346,"tribut":1347,"irq":1348,"Ġ>=":1349,"24":1350,"dir":1351,"PA":1352,"Mode":1353,"extern":1354,"irtual":1355,"sub":1356,"Ġpoint":1357,"utex":1358,"Ġq":1359,"bl":1360,"00000000":1361,"Index":1362,"Item":1363,"stem":1364,"CC":1365,"Ġli":1366,"čĊĉ":1367,"gram":1368,"arch":1369,"INE":1370,"array":1371,"ATE":1372,"ĊĉĉĉĠĠ":1373,"lear":1374,"fer":1375,"sg":1376,"Ġtime":1377,"Ġread":1378,"Ġstatic":1379,"De":1380,"ĠGener":1381,"Ġz":1382,"next":1383,"<<":1384,"ari":1385,"Ġac":1386,"ci":1387,"Ġcall":1388,"Ġ.":1389,"04":1390,"Error":1391,"pu":1392,"END":1393,"37":1394,"ĠGL":1395,"action":1396,"old":1397,"opyright":1398,"Ġper":1399,"ERT":1400,"MB":1401,"]);":1402,"][":1403,"ait":1404,"Ġoffset":1405,"Col":1406,"river":1407,"ont":1408,"Ġid":1409,"Reg":1410,"host":1411,"mo":1412,"vel":1413,"xFF":1414,"()->":1415,"hen":1416,"ther":1417,"Ġall":1418,"iled":1419,"Pos":1420,"Time":1421,"amespace":1422,"mask":1423,")->":1424,"lement":1425,"PIO":1426,"At":1427,"Ġ(*":1428,"andler":1429,"CR":1430,"cast":1431,"TA":1432,"valid":1433,"STR":1434,"cur":1435,"18":1436,"Ġmod":1437,"Ġmode":1438,"cf":1439,"test":1440,"AND":1441,"AS":1442,"55":1443,"Ġ#":1444,"Ġdevice":1445,"Ġany":1446,"Ġ16":1447,"desc":1448,"pin":1449,"ART":1450,"ale":1451,"ATA":1452,"ĊĉĠĠĠĠ":1453,"be":1454,"Sh":1455,"Ġshould":1456,"Ġbuffer":1457,"Ġcode":1458,"dd":1459,"08":1460,"vm":1461,"ft":1462,"lob":1463,"cted":1464,"linux":1465,"Ar":1466,"Re":1467,"ommand":1468,"Ġversion":1469,"Ġkey":1470,"MM":1471,"Key":1472,"clk":1473,"tain":1474,"sl":1475,"Event":1476,"mage":1477,"MASK":1478,"ethod":1479,"Ġerr":1480,"sd":1481,"comm":1482,"rl":1483,"ĠSet":1484,"result":1485,"Stat":1486,"ailed":1487,"attr":1488,"Text":1489,"AME":1490,"byt":1491,"app":1492,"ces":1493,"length":1494,"idget":1495,"ĠGNU":1496,"IR":1497,"Ġbut":1498,"ues":1499,"tin":1500,"Ptr":1501,"ĠĊĠĠĠĠ":1502,"DEBUG":1503,"ific":1504,"Ġcount":1505,"AC":1506,"src":1507,"ITY":1508,"ick":1509,"nput":1510,"Ġ,":1511,"uc":1512,"perty":1513,"Ġcurrent":1514,"Point":1515,"een":1516,"Ġstate":1517,"bi":1518,"ĊĉĉĉĉĠ":1519,"ĠPublic":1520,"af":1521,"(*":1522,"Ġmax":1523,"item":1524,"ET":1525,"Ġstart":1526,"ntry":1527,"AM":1528,"\")":1529,"ĠGeneral":1530,"Ġno":1531,"ole":1532,"NULL":1533,"ml":1534,"Ġblock":1535,"ug":1536,"Ġused":1537,"Ġcheck":1538,"Is":1539,"Ġparam":1540,"ich":1541,"ptions":1542,"19":1543,"Param":1544,"pon":1545,"FLA":1546,"stance":1547,"SO":1548,"23":1549,"lete":1550,"assert":1551,"CI":1552,"SU":1553,"mod":1554,"vector":1555,"Ġpar":1556,"Num":1557,"ample":1558,")(":1559,"group":1560,"++;":1561,"hw":1562,"Ġpos":1563,"Context":1564,"Count":1565,"upport":1566,"CTION":1567,"pdate":1568,"Ġdouble":1569,"BO":1570,"03":1571,"lf":1572,"anag":1573,"28":1574,"Ġ|=":1575,"xf":1576,"ITE":1577,"Ġdefined":1578,"object":1579,"Buffer":1580,"ĠĊĠĠĠĠĠ":1581,"SSERT":1582,"ĠJ":1583,"ark":1584,"SR":1585,"mat":1586,"ĠOR":1587,"ĠCon":1588,"tmp":1589,"abled":1590,"context":1591,"irst":1592,"tree":1593,"17":1594,"Ġspec":1595,"Ġindex":1596,"GET":1597,"Ġ++":1598,"ower":1599,"Ġlen":1600,"DC":1601,"ling":1602,"sm":1603,"000000":1604,"pell":1605,"Un":1606,"'s":1607,"lot":1608,"ULT":1609,"usb":1610,"ĊĉĉĉĠĠĠ":1611,"egi":1612,"cs":1613,"frame":1614,"client":1615,"SA":1616,"Ġhas":1617,"Ġ/**":1618,"IM":1619,"mutex":1620,"Ġbase":1621,"Ġflags":1622,"MODE":1623,"KE":1624,"current":1625,"header":1626,"Ġnumber":1627,"idx":1628,"Ġstring":1629,"Ġnode":1630,"OT":1631,"ations":1632,"ender":1633,"[]":1634,"Ġinter":1635,"50":1636,"LOG":1637,"Ġfree":1638,"ops":1639,"egin":1640,"Ġinline":1641,"ton":1642,"quest":1643,"rray":1644,"Ġbit":1645,"Map":1646,"MI":1647,"obj":1648,"abel":1649,"ning":1650,"================================":1651,"handle":1652,"ery":1653,"Ġbyt":1654,"ui":1655,"CF":1656,"SB":1657,"ite":1658,"layer":1659,"Ġsk":1660,"86":1661,"INVAL":1662,"EL":1663,"RAN":1664,"trans":1665,"local":1666,"ages":1667,"unlock":1668,"Ġinit":1669,"raw":1670,"tent":1671,"float":1672,"ys":1673,"CHAN":1674,"ell":1675,"CHE":1676,"call":1677,"Ġ>>":1678,"rap":1679,"Ġwhile":1680,"LOCK":1681,"esc":1682,"22":1683,"ĠMA":1684,"Ġ10":1685,"eter":1686,"****************************************************************":1687,"anager":1688,"PR":1689,"Ġcol":1690,"Ġoper":1691,"ign":1692,"Ġonly":1693,"*)":1694,"rq":1695,"Ġ9":1696,"skb":1697,"Ġadd":1698,"cb":1699,"PL":1700,"WR":1701,"ĠOF":1702,"FLAG":1703,"Test":1704,"Ġsub":1705,"Ġover":1706,"input":1707,"com":1708,"ĊĉĠĠĠĠĠ":1709,"Ġdev":1710,"sor":1711,"ndef":1712,"amp":1713,"her":1714,"nect":1715,"Ġtrans":1716,"Ġtest":1717,"33":1718,"ĠCopyright":1719,"Ġ///":1720,"BIT":1721,"Ġclass":1722,"Ġyou":1723,"var":1724,"ONE":1725,"Ġ\"\\":1726,"gs":1727,"Ġ**":1728,"enc":1729,"check":1730,"udio":1731,"Comp":1732,"Ġprint":1733,"Req":1734,"En":1735,"ĠIn":1736,"URE":1737,"ection":1738,"Ġcopy":1739,"Ġwhen":1740,"Ġfloat":1741,"READ":1742,"Ġdefault":1743,"ifndef":1744,"ĠY":1745,"ride":1746,"xF":1747,"lose":1748,"upt":1749,"rx":1750,"pename":1751,"Ġobject":1752,"Block":1753,"INFO":1754,"EQ":1755,"ute":1756,"fix":1757,"rem":1758,"height":1759,"ĊĉĉĉĉĠĠ":1760,"802":1761,"View":1762,"Ġevent":1763,"DATA":1764,"Ġunder":1765,"xx":1766,"ĠĊĠĠĠĠĠĠ":1767,"vert":1768,"Ġlo":1769,"60":1770,"ww":1771,"cd":1772,"rix":1773,"Ġpl":1774,"Ġstatus":1775,"fir":1776,"pa":1777,"debug":1778,"OK":1779,"OS":1780,"lobal":1781,"Ġtemp":1782,"tribute":1783,"MEM":1784,"Ġ<=":1785,"Addr":1786,"Out":1787,"Th":1788,"Ġvirtual":1789,"HT":1790,"Ġother":1791,"ĉĉĉ":1792,"double":1793,"tk":1794,"opt":1795,"date":1796,"Ġinput":1797,"ALSE":1798,"ession":1799,"ĠĊĠĠĠĠĠĠĠ":1800,"Ġrequest":1801,"Ref":1802,"ply":1803,"br":1804,"ote":1805,"ĠCONFIG":1806,"width":1807,"(_":1808,"Cl":1809,"ally":1810,"ctrl":1811,"ctl":1812,"Ġcal":1813,"CODE":1814,"bri":1815,"Ġwhich":1816,"dent":1817,"Val":1818,"...":1819,"ump":1820,"Len":1821,"Ġmust":1822,"tail":1823,"plic":1824,"gn":1825,"ALL":1826,"ob":1827,"PECT":1828,"rec":1829,"typedef":1830,"ĊĊĉĉ":1831,"LEN":1832,"ocket":1833,"field":1834,"SD":1835,"enum":1836,"Sy":1837,"TX":1838,"Ġ~":1839,"ension":1840,"Loc":1841,"56":1842,"Ġbuf":1843,"///":1844,"pes":1845,"88":1846,"!<":1847,"Ġmay":1848,"push":1849,"ared":1850,"VICE":1851,"errupt":1852,"eature":1853,"_.":1854,"Pri":1855,"pre":1856,"from":1857,"Inter":1858,"wh":1859,"apter":1860,"cache":1861,"ies":1862,"Ġup":1863,"\"),":1864,"FT":1865,"44":1866,"ĠSoftware":1867,"Ġdir":1868,"WA":1869,"Ġline":1870,"Ġrc":1871,"eb":1872,"ssion":1873,"tinue":1874,"ĠANY":1875,"fl":1876,"PER":1877,"ts":1878,"Dev":1879,"request":1880,"Ġone":1881,"Lo":1882,"RL":1883,"hd":1884,"ater":1885,"TRA":1886,"ox":1887,"ors":1888,"Array":1889,"For":1890,"Ġwrite":1891,")))":1892,"čĊĠĠĠĠĠĠĠĠĠĠĠĠ":1893,"ero":1894,"word":1895,"(\"%":1896,"MC":1897,"ical":1898,"Ġneed":1899,"',":1900,"DU":1901,"Ġnet":1902,"Ġpart":1903,"gp":1904,"thread":1905,"Ġad":1906,"create":1907,"Ċĉĉĉĉĉĉ":1908,"27":1909,"ffff":1910,"DEF":1911,"ics":1912,"ume":1913,"Read":1914,"uth":1915,"RES":1916,"sert":1917,"wi":1918,"PAR":1919,"Window":1920,"Ġty":1921,"----------------------------------------------------------------":1922,"Ġpublic":1923,"STATUS":1924,"bus":1925,"Ġ\"%":1926,"FOR":1927,"ative":1928,"Message":1929,"ilter":1930,"xa":1931,"Ġfirst":1932,"NAME":1933,"pm":1934,"hash":1935,"Ġ};":1936,"Path":1937,"čĊĠĠĠĠĠĠĠĠĠĠĠĠĠ":1938,"Ġ;":1939,"nk":1940,"register":1941,"nection":1942,"inode":1943,"Ġprogram":1944,"ILITY":1945,"PT":1946,"Dis":1947,"pol":1948,"34":1949,"USE":1950,"spin":1951,"mpl":1952,"ES":1953,"ia":1954,"ices":1955,"80211":1956,"Al":1957,"Log":1958,"cfg":1959,"FS":1960,"tings":1961,"xb":1962,"params":1963,"oot":1964,"Ġ32":1965,"hs":1966,"XX":1967,"Base":1968,"%%":1969,"fc":1970,"PH":1971,"Ġmi":1972,"ble":1973,"gl":1974,"čĊĠĠĠĠĠĠĠĠĠĠĠĠĠĠ":1975,"sys":1976,"ner":1977,"unk":1978,"])":1979,"igh":1980,"Ġpage":1981,"pyx":1982,"ĠEXPECT":1983,"ie":1984,"Ġwithout":1985,"PU":1986,"ived":1987,"Add":1988,"Ġap":1989,"26":1990,"ORD":1991,"TER":1992,"channel":1993,"Trans":1994,"čĊĠĠĠĠĠĠĠĠĠĠĠĠĠĠĠ":1995,"Ġtarget":1996,"Ġalloc":1997,"cap":1998,"FUN":1999,"Call":2000,"otal":2001,"bits":2002,"Ġauto":2003,"Ġext":2004,"Ġav":2005,"enu":2006,"Ġaddress":2007,"RT":2008,"open":2009,"xc":2010,"89":2011,"_;":2012,"cmp":2013,"utton":2014,"Ġsource":2015,"target":2016,"Ġoutput":2017,"Ġdistribut":2018,"(__":2019,"yn":2020,"CONFIG":2021,"ĠAR":2022,"Ġsoftware":2023,"vide":2024,"Def":2025,"lib":2026,"update":2027,"last":2028,"Ġmore":2029,"Status":2030,"atform":2031,"ates":2032,"fore":2033,"IB":2034,"Par":2035,"brief":2036,"dest":2037,"Ġter":2038,"ponse":2039,"Vector":2040,"Ġtmp":2041,"ITH":2042,"Ġtable":2043,"TEST":2044,"ifier":2045,"omain":2046,"parent":2047,"ĊĉĉĠĠĠĠ":2048,"Ġfield":2049,"Ġlength":2050,"Ġinfo":2051,"ĠReturn":2052,"ger":2053,"MT":2054,"Ġregister":2055,"Ġcpu":2056,"cpy":2057,"36":2058,"Code":2059,"ializ":2060,"yle":2061,"ĠST":2062,"Init":2063,"ĠTHE":2064,"PRE":2065,"lect":2066,"uid":2067,"uration":2068,"21":2069,"Frame":2070,"pend":2071,"From":2072,"Mem":2073,"level":2074,"Entry":2075,"ĠWAR":2076,"core":2077,"Ġnull":2078,"args":2079,"Stream":2080,"ĠFree":2081,"ariable":2082,"Config":2083,"(!":2084,"mis":2085,"Ġme":2086,"xE":2087,"RX":2088,"ception":2089,"Ġconfig":2090,"move":2091,"////////////////////////////////":2092,"QU":2093,"90":2094,"task":2095,"Ġ/*!<":2096,"ely":2097,"CTL":2098,"enable":2099,"************************************************************************":2100,"sb":2101,"Lay":2102,"version":2103,"Pr":2104,"ĊĉĉĉĉĠĠĠ":2105,"On":2106,"Ġport":2107,"://":2108,"dst":2109,"OST":2110,"CESS":2111,"Ġsrc":2112,"hdr":2113,"Ġ(\"":2114,"first":2115,"erved":2116,"off":2117,"ov":2118,"fn":2119,"FE":2120,"VENT":2121,"rate":2122,"DEVICE":2123,"ified":2124,"att":2125,"STATE":2126,"LINE":2127,"quir":2128,"35":2129,"ĊĊĠĠĠĠĠĠĠĠĠĠĠĠ":2130,"output":2131,"proto":2132,"dma":2133,"Form":2134,"mbol":2135,"ause":2136,"Ġmap":2137,"sync":2138,"OFF":2139,"ose":2140,"Handle":2141,"oundation":2142,"ĊĊĠĠĠĠĠĠĠĠĠĠĠĠĠ":2143,"codec":2144,"Line":2145,"ABILITY":2146,"\"));":2147,"atrix":2148,"ĊĉĉĉĠĠĠĠ":2149,"Ġlast":2150,"ĠFOR":2151,"CLK":2152,"ĠInt":2153,"77":2154,"CHECK":2155,"ape":2156,"29":2157,"atter":2158,"Ġact":2159,"aster":2160,"sent":2161,"Ġlog":2162,"ĠWARRAN":2163,"Ġnext":2164,"ffect":2165,"Ġmin":2166,"Ġuser":2167,"fil":2168,"ank":2169,"31":2170,"ĠRE":2171,"Ġitem":2172,"Table":2173,"xd":2174,"Image":2175,"ua":2176,"ĠPy":2177,"FAULT":2178,"ollow":2179,"begin":2180,"BE":2181,"send":2182,"CD":2183,"Ġ200":2184,"format":2185,"38":2186,"erver":2187,"KER":2188,"over":2189,"ken":2190,"čĊĉĉ":2191,"Ġmemory":2192,"cept":2193,"control":2194,"Ġimp":2195,"Ġright":2196,"Ġhandle":2197,"Color":2198,"ins":2199,"driver":2200,"CTRL":2201,"Widget":2202,"Ġ201":2203,"sizeof":2204,"KEY":2205,"xe":2206,"</":2207,"ĠQString":2208,"=%":2209,"ions":2210,"ĊĊĠĠĠĠĠĠĠĠĠĠĠĠĠĠ":2211,"ĠWe":2212,"ĠCo":2213,"ql":2214,"tl":2215,"Result":2216,"CMD":2217,"bytes":2218,"so":2219,"Ġev":2220,"Ġrece":2221,"omic":2222,"has":2223,"long":2224,"Ġfailed":2225,"server":2226,"private":2227,"SION":2228,"TIME":2229,"Ġpath":2230,"54":2231,"__,":2232,"ML":2233,"ĊĊĠĠĠĠĠĠĠĠĠĠĠĠĠĠĠ":2234,"OB":2235,"chip":2236,"BASE":2237,"Ġframe":2238,"part":2239,"API":2240,"stats":2241,"MAP":2242,"WN":2243,"Ġcr":2244,"ful":2245,"100":2246,"box":2247,"itor":2248,"Request":2249,"anged":2250,"freq":2251,"elease":2252,"MENT":2253,"card":2254,"icy":2255,"sw":2256,"Element":2257,"FILE":2258,"GPIO":2259,"Ġsi":2260,"root":2261,"Device":2262,"ATION":2263,"switch":2264,"ject":2265,"Ġwork":2266,"Manager":2267,"template":2268,"Desc":2269,"ĠUSB":2270,"66":2271,"ither":2272,"order":2273,"ENABLE":2274,"seq":2275,"clear":2276,"05":2277,"cm":2278,"NT":2279,"ĠEx":2280,"48":2281,"07":2282,"buff":2283,"ĠFoundation":2284,"uccess":2285,"OC":2286,"Py":2287,"fp":2288,"Dir":2289,"view":2290,"AGE":2291,"copy":2292,"PS":2293,"Ġred":2294,"ĠSee":2295,"gth":2296,"_->":2297,"Ġgl":2298,"Ġoption":2299,"ility":2300,"ĊĉĉĉĉĉĠ":2301,"timer":2302,"Ġop":2303,"Mod":2304,"UX":2305,"Ġentry":2306,"Ġfollow":2307,"Ġab":2308,"eight":2309,"\\\"":2310,"ding":2311,"IFT":2312,"Ġswitch":2313,"Ġnamespace":2314,">::":2315,"kt":2316,"Ġtask":2317,"Field":2318,"Ġgoto":2319,"Ġpointer":2320,"Check":2321,"ift":2322,"EINVAL":2323,"ernel":2324,"ĊĊĊ":2325,"DEV":2326,"ĠPro":2327,"Ġbytes":2328,"ADDR":2329,"ECT":2330,"CFG":2331,"ialize":2332,"lp":2333,"INTER":2334,"TRY":2335,"sum":2336,"namespace":2337,"Ġsupport":2338,"mpty":2339,"ĠTR":2340,"MSG":2341,"Model":2342,"Start":2343,"fter":2344,"ta":2345,"_,":2346,"find":2347,"LAY":2348,"Ġassert":2349,"Ġgr":2350,"sec":2351,"wait":2352,"flag":2353,"my":2354,"self":2355,"org":2356,"UD":2357,"Ġwas":2358,"OD":2359,"Ġqu":2360,"Class":2361,"formation":2362,"PP":2363,"second":2364,"sign":2365,"pth":2366,"ĠCh":2367,"dition":2368,"eters":2369,"COMP":2370,"ARG":2371,"vol":2372,"Ġcontext":2373,"cnt":2374,"####":2375,"06":2376,"reset":2377,"aint":2378,"vb":2379,"ĠĊĠĠĠĠĠĠĠĠ":2380,"EE":2381,"ĠPAR":2382,"SM":2383,"NEL":2384,"Ġcommand":2385,"eta":2386,"CLA":2387,"SL":2388,"ASSERT":2389,"SHIFT":2390,"Action":2391,"gpio":2392,"ttp":2393,"tag":2394,"achine":2395,"lean":2396,"Ġthread":2397,"iterator":2398,"function":2399,"spec":2400,"Ġfail":2401,"window":2402,"MAT":2403,"regs":2404,"ĠFALSE":2405,"ries":2406,"message":2407,"PUT":2408,"used":2409,"env":2410,"ments":2411,"ormal":2412,"INIT":2413,"roy":2414,"Box":2415,"PM":2416,"flow":2417,"rect":2418,"Function":2419,"96":2420,"Ġsig":2421,"mc":2422,"Ġdoes":2423,"troll":2424,"ocument":2425,"address":2426,"FP":2427,"Create":2428,"Max":2429,"riptor":2430,"Byt":2431,"ĠRes":2432,"son":2433,"REE":2434,"iff":2435,"Ġinto":2436,"ĠWITH":2437,"umn":2438,"Ġusing":2439,"ENO":2440,"DA":2441,"resh":2442,"packet":2443,"Qu":2444,"Ġlock":2445,"Ġdesc":2446,"xy":2447,"ses":2448,"Input":2449,"Ġfr":2450,"rypt":2451,"ready":2452,"false":2453,"ped":2454,"lied":2455,"ĠĊĠĠĠĠĠĠĠĠĠ":2456,"){":2457,"rid":2458,"76":2459,"tra":2460,"oper":2461,"connect":2462,"Ġcontain":2463,"0000000":2464,"ĠPRO":2465,"expr":2466,"nr":2467,"ĠRT":2468,"tect":2469,"can":2470,"HA":2471,"TION":2472,"74":2473,"ures":2474,"eger":2475,"inal":2476,"go":2477,"ATTR":2478,"session":2479,"ĠLO":2480,"printk":2481,"Ġtext":2482,"Char":2483,"CS":2484,"Op":2485,"Thread":2486,"\"))":2487,"ervice":2488,"ĠID":2489,"Ġ::":2490,"Ġmessage":2491,"vate":2492,"Ġthen":2493,"way":2494,"WRITE":2495,"Ġarray":2496,"Ġ--":2497,"ĊĉĉĠĠĠĠĠ":2498,"active":2499,"ĠGPIO":2500,"fb":2501,"ader":2502,"78":2503,"Ġterms":2504,"Ġhere":2505,"ĠNO":2506,"UM":2507,"UI":2508,"Write":2509,"Ġback":2510,"Format":2511,"čĊčĊ":2512,"39":2513,"nce":2514,"mac":2515,"Ġpacket":2516,"down":2517,"256":2518,"Ġ*,":2519,"Ġdistributed":2520,"sn":2521,"xA":2522,"nline":2523,"ĠTO":2524,"TIC":2525,"Ġvalues":2526,"onent":2527,"xB":2528,"SN":2529,"nown":2530,"pected":2531,"module":2532,"Ġnon":2533,"public":2534,"ĠDE":2535,"troller":2536,"empty":2537,"Ġhe":2538,"Ed":2539,"tails":2540,"____":2541,"Address":2542,"RC":2543,"inline":2544,"eal":2545,"Ġmsm":2546,"sr":2547,"New":2548,"ĠĊĠĠĠĠĠĠĠĠĠĠ":2549,"Ġeither":2550,"EXPORT":2551,"fe":2552,",\"":2553,"Pl":2554,"Ġtypename":2555,"_(":2556,"peed":2557,"source":2558,"xC":2559,"ialog":2560,"ĠSO":2561,"Rect":2562,"Ġpi":2563,"adapter":2564,"ĠReg":2565,"hci":2566,"200":2567,"LAN":2568,"Ġent":2569,"true":2570,"58":2571,"ĠZ":2572,"End":2573,"Of":2574,"ĠĊĠĠĠĠĠĠĠĠĠĠĠ":2575,"Ġthere":2576,"Ġrec":2577,"Ġchannel":2578,"377":2579,"orage":2580,"Sub":2581,"Ġfollowing":2582,"number":2583,"ription":2584,"olean":2585,"ten":2586,"url":2587,"ulti":2588,"Ġold":2589,"dp":2590,"ible":2591,"70":2592,"prev":2593,"vec":2594,"Ġfound":2595,"MIN":2596,"SUP":2597,"untime":2598,"Ġpre":2599,"Ac":2600,"Ġnullptr":2601,"msm":2602,"Ġformat":2603,"Ġar":2604,"REQ":2605,"proc":2606,"Offset":2607,"Ġgener":2608,"Command":2609,"util":2610,"ra":2611,"NESS":2612,"ĠBO":2613,"handler":2614,"Target":2615,"DMA":2616,"ider":2617,"ĠAV":2618,"ubli":2619,"raph":2620,"remove":2621,"Length":2622,"Script":2623,"75":2624,"Ġstream":2625,"128":2626,"IX":2627,"ink":2628,"property":2629,"exit":2630,"Ġwrit":2631,"ENTRY":2632,"ĠIS":2633,"Ġcreate":2634,"Ġmodify":2635,"CB":2636,"WAR":2637,"]->":2638,"ĠASSERT":2639,"Arg":2640,"ĠMAX":2641,"esh":2642,"ĠTRUE":2643,"conn":2644,"With":2645,"')":2646,"struction":2647,"ĠĠĊĠĠĠ":2648,"****************************************************************************":2649,"filter":2650,"00000":2651,"Number":2652,"Per":2653,"tc":2654,"byte":2655,"Ġsend":2656,"Del":2657,"CALL":2658,"scan":2659,"ULAR":2660,"Ġrequir":2661,"http":2662,"NONE":2663,"while":2664,"del":2665,"Ġelement":2666,"location":2667,"color":2668,"image":2669,"coder":2670,"Ġeven":2671,"ĠCheck":2672,"the":2673,"ĊĉĉĉĉĉĠĠ":2674,"Ġafter":2675,"wl":2676,"OW":2677,"Ġ15":2678,"writ":2679,"CHANT":2680,"Head":2681,"mission":2682,"mplement":2683,"round":2684,"Rec":2685,"POSE":2686,"ĊĉĉĉĠĠĠĠĠ":2687,"Client":2688,"ĠSD":2689,"USB":2690,"sz":2691,"Ġprintf":2692,"Ġupdate":2693,"command":2694,"Ġsnd":2695,"by":2696,"Ġrun":2697,"65":2698,"sect":2699,"Ġmsg":2700,"BY":2701,"lection":2702,"SER":2703,"čĊĠĠĠĠĠĠĠĠĠĠĠĠĠĠĠĠ":2704,"Ġvector":2705,"VM":2706,"URPOSE":2707,"Ġcmd":2708,"system":2709,"sock":2710,"ITNESS":2711,"Group":2712,"bd":2713,"------------------------------------------------------------------------":2714,"xD":2715,"EM":2716,"RAY":2717,"Ġcur":2718,"ĊĉĉĉĉĠĠĠĠ":2719,"Ġbefore":2720,"Sele":2721,"Source":2722,"Ġsp":2723,"09":2724,"Ġ'\\":2725,"Ġdest":2726,"ĠCO":2727,"UINT":2728,"power":2729,"exp":2730,"parse":2731,"ERCHANT":2732,"Ġcalled":2733,"ĠDe":2734,"Ġdst":2735,"ERCHANTABILITY":2736,"As":2737,"Ġsee":2738,")));":2739,"Ġmake":2740,"ĠPURPOSE":2741,"Spell":2742,"Or":2743,"space":2744,"nsert":2745,"atomic":2746,"te":2747,"TEXT":2748,"insert":2749,"TRUE":2750,"84":2751,"WORD":2752,"Ġus":2753,"ĠPARTIC":2754,"Handler":2755,"cal":2756,"WIN":2757,"REF":2758,"CCESS":2759,"Ġits":2760,"ĠPARTICULAR":2761,"TL":2762,"pect":2763,"čĊĠĠĠĠĠĠĠĠĠĠĠĠĠĠĠĠĠ":2764,"ĠFITNESS":2765,"Ġtree":2766,"Ġcor":2767,"ixel":2768,"nary":2769,"okup":2770,"ody":2771,"Ġ&=":2772,"ĠĠĠĊĠĠĠ":2773,"Ġoverride":2774,"ĠFor":2775,"Ġ12":2776,"td":2777,"Ġmethod":2778,"IVE":2779,"ane":2780,"Ġgroup":2781,"ification":2782,"Ġlevel":2783,"oi":2784,"OBJ":2785,"ĠWITHOUT":2786,"Ġpubli":2787,"An":2788,"QL":2789,"SPE":2790,"ADD":2791,"VERSION":2792,"left":2793,"ency":2794,"close":2795,"pdev":2796,"imum":2797,"ĠYou":2798,"sa":2799,"PF":2800,"Ġreceived":2801,".\\":2802,"THER":2803,"Ġproto":2804,"EVENT":2805,"Ġenum":2806,"Ġag":2807,"top":2808,"mon":2809,"ailable":2810,"Ġmask":2811,"conf":2812,"NOT":2813,"ĠAl":2814,"Ġcondition":2815,"wo":2816,"uch":2817,"cre":2818,"iven":2819,"lip":2820,"Ġbo":2821,"PIN":2822,"OF":2823,"range":2824,"68":2825,"ONG":2826,"ideo":2827,"phy":2828,"Flags":2829,"ĠMERCHANTABILITY":2830,"Ġbits":2831,"save":2832,"Ġ14":2833,"sched":2834,"DULE":2835,"Filter":2836,"hes":2837,"bs":2838,"COL":2839,"Ġho":2840,"čĊĠĠĠĠĠĠĠĠĠĠĠĠĠĠĠĠĠĠ":2841,"mark":2842,"CM":2843,"Bit":2844,"Ġoperator":2845,"ĠUn":2846,"angle":2847,"FFFF":2848,"ĠĠĠĠĊĠĠĠ":2849,"GEN":2850,"pool":2851,"Ġdetails":2852,"NUM":2853,"Ġph":2854,"Ġ24":2855,"Ġgo":2856,"run":2857,"rigger":2858,"LIST":2859,"Ġyour":2860,"1000":2861,"Cr":2862,"Not":2863,"delay":2864,"Ġwindow":2865,"ĠAdd":2866,"air":2867,"wr":2868,"yy":2869,"TIM":2870,"Ġ-=":2871,"Ġvalid":2872,"ertex":2873,"cel":2874,"čĊĠĠĠĠĠĠĠĠĠĠĠĠĠĠĠĠĠĠĠ":2875,"rest":2876,"ROM":2877,"pix":2878,"Instance":2879,"Ġlater":2880,"NS":2881,"Ġfind":2882,"PRI":2883,"FL":2884,"Ġ->":2885,"www":2886,"Ġhttp":2887,"drv":2888,"Ġcontinue":2889,"ict":2890,"shed":2891,"Act":2892,"stop":2893,"nv":2894,"UB":2895,"ILE":2896,"ĠAll":2897,"Channel":2898,"stack":2899,"Ġusb":2900,"Oper":2901,"IE":2902,"SW":2903,"ĠTr":2904,"Button":2905,"orld":2906,"defined":2907,"97":2908,"Position":2909,"Player":2910,"\"},":2911,"Ġimplied":2912,"Ġheader":2913,"98":2914,"__);":2915,"EG":2916,"medi":2917,"Ġiter":2918,">&":2919,"auto":2920,"evel":2921,"Ġclient":2922,"MAC":2923,"ACK":2924,"eed":2925,"pack":2926,"serv":2927,"pipe":2928,"plication":2929,"gen":2930,"EP":2931,"START":2932,"sens":2933,"BL":2934,"94":2935,"options":2936,"release":2937,"urface":2938,"ĠComp":2939,":%":2940,"Ġinst":2941,"war":2942,"Ġbi":2943,"Ġdon":2944,"No":2945,"Ġsame":2946,"Ġprocess":2947,"MODULE":2948,"IST":2949,"ectory":2950,"SUCCESS":2951,"ĠAND":2952,"ĠINT":2953,"Ġthan":2954,"Ġdriver":2955,"amer":2956,"main":2957,"IND":2958,"VALUE":2959,"show":2960,"null":2961,"Property":2962,"ba":2963,"Ġargument":2964,"chan":2965,"mov":2966,"Ġprev":2967,"ĊĉĊ":2968,"Ġload":2969,"ient":2970,"using":2971,"Iter":2972,"Unit":2973,"typename":2974,"hpp":2975,"ating":2976,"attribute":2977,"Ġrow":2978,"Temp":2979,"ious":2980,"scr":2981,"store":2982,"OM":2983,"afe":2984,"la":2985,"Ġinclude":2986,"IGN":2987,"ACT":2988,"ĠSPE":2989,"bind":2990,"process":2991,"EC":2992,"aa":2993,"Ġhost":2994,"place":2995,"ght":2996,"UID":2997,"ĠReturns":2998,"Mi":2999,"STRING":3000,"np":3001,"ouse":3002,"model":3003,"Ġwx":3004,"ĠOn":3005,"fg":3006,"Ġpublished":3007,"TRACE":3008,"ached":3009,"actor":3010,"43":3011,"Update":3012,"DBG":3013,"adata":3014,"Ġprovide":3015,"BUFF":3016,"ĠRe":3017,"Ġem":3018,"AG":3019,"Ġdelete":3020,"cul":3021,"wise":3022,"nis":3023,"MAGE":3024,"ward":3025,"ique":3026,"Callback":3027,"Ġ(_":3028,"Ġinformation":3029,"DIS":3030,"Ġvar":3031,"mount":3032,"ĉĠ":3033,"match":3034,"ĠWARRANTY":3035,"ds":3036,"Ġalready":3037,"Ġreserved":3038,"Control":3039,"Ġargs":3040,"TP":3041,"72":3042,"Ġparent":3043,"Ġass":3044,"Ġgiven":3045,"nst":3046,"fx":3047,"asic":3048,"Ġinode":3049,"Ġinterrupt":3050,"DS":3051,"Ġdr":3052,"This":3053,"ution":3054,"slot":3055,"section":3056,"Ġsome":3057,"Tree":3058,"Ġ20":3059,"callback":3060,"Ġhash":3061,"Ġallow":3062,"Render":3063,"ping":3064,"Ġredistribut":3065,"SIG":3066,"Ġflag":3067,"Ġnow":3068,"Ġlink":3069,"Ġsuccess":3070,"pid":3071,"Ġopt":3072,"App":3073,"itle":3074,"Expr":3075,"leep":3076,"Msg":3077,"ĊĉĠĠĠĠĠĠ":3078,"asm":3079,"retval":3080,"95":3081,"SEL":3082,"Ġ`":3083,"ade":3084,"Register":3085,"Ġshort":3086,"SYS":3087,"ĠTh":3088,"ire":3089,"limit":3090,"trace":3091,"ke":3092,"Ġoff":3093,"čĊčĊĠĠĠ":3094,"ugi":3095,"CHAR":3096,"common":3097,"dbg":3098,"And":3099,"pg":3100,"Ext":3101,"NC":3102,"Output":3103,"uple":3104,"Ġbyte":3105,"Ġimage":3106,"ugin":3107,"Ġ100":3108,"label":3109,"IRQ":3110,"rowser":3111,"Ġbeen":3112,"pha":3113,"oken":3114,"GHT":3115,"Ġuseful":3116,"Ġeach":3117,"ĠInc":3118,"imp":3119,"ĠTH":3120,"Ġrefer":3121,"rop":3122,"Ġredistribute":3123,"Ġtx":3124,"rel":3125,"Ġenable":3126,"very":3127,"ynam":3128,"85":3129,"append":3130,"roll":3131,"Ġorder":3132,"The":3133,"Current":3134,"memory":3135,"201":3136,"dim":3137,"OFFSET":3138,"cope":3139,"Debug":3140,"Rem":3141,"Ut":3142,"board":3143,"Width":3144,">>":3145,"other":3146,"':":3147,"WARE":3148,"Ty":3149,"Ġfl":3150,"Net":3151,"inst":3152,"shared":3153,"Ġ\",":3154,"continue":3155,"AUT":3156,"Min":3157,"fmt":3158,"Ġui":3159,"pdata":3160,"LOW":3161,"erence":3162,"bp":3163,"---":3164,"ĠSh":3165,"RET":3166,"Ġdone":3167,"ĠPCI":3168,"Ġwidth":3169,"disable":3170,"dec":3171,"Ġcontrol":3172,"bar":3173,"red":3174,"bove":3175,"ASE":3176,"Ġsystem":3177,"WARN":3178,"ARD":3179,"CPU":3180,"etadata":3181,"ulator":3182,"Ġposition":3183,"Matrix":3184,"45":3185,"Ġcallback":3186,"ĠRegister":3187,"actory":3188,"each":3189,"Ent":3190,"internal":3191,"SG":3192,"child":3193,"iod":3194,"AI":3195,"MBOL":3196,"Ġip":3197,"platform":3198,"BUFFER":3199,"timeout":3200,"leanup":3201,"seg":3202,"Ġobj":3203,"stamp":3204,"ether":3205,"Ġwait":3206,"equ":3207,"TK":3208,"42":3209,"Ġind":3210,"46":3211,"acter":3212,"token":3213,"ĠDMA":3214,"ority":3215,"audio":3216,"Ġed":3217,"DIO":3218,"Level":3219,"Ġmatch":3220,"pan":3221,"Ġlocal":3222,"sible":3223,"Ġrange":3224,"alar":3225,"ision":3226,"';":3227,"atab":3228,"Ġlay":3229,"amera":3230,"fail":3231,"Decl":3232,"Ġabove":3233,"ĠAd":3234,"ĠREG":3235,"Mask":3236,"pci":3237,"UNT":3238,":(":3239,"Has":3240,"ENSE":3241,"ariant":3242,"pages":3243,"DD":3244,"DEFAULT":3245,"Ġheight":3246,"Ġleft":3247,"etch":3248,"ĊĉĉĉĉĉĠĠĠ":3249,"domain":3250,"Ġ64":3251,"ĠIP":3252,"hi":3253,"arrant":3254,"Default":3255,"AV":3256,")\\":3257,"blk":3258,"present":3259,"chr":3260,"ORY":3261,"tab":3262,"ynamic":3263,"andom":3264,"tt":3265,"Ġwarrant":3266,"ĠOP":3267,"BUS":3268,"Ġmy":3269,"BUF":3270,"ĊĠĠĠĠĊĠĠĠ":3271,"DED":3272,"ĠString":3273,"LIC":3274,"FUNCTION":3275,"cause":3276,"allet":3277,"HEAD":3278,"filename":3279,"GR":3280,"enter":3281,"Lock":3282,"UND":3283,"exec":3284,"ĠĊĠĠĠĠĠĠĠĠĠĠĠĠ":3285,"Ġ{}":3286,"82":3287,"Ġvariable":3288,"91":3289,"ĠInit":3290,"setup":3291,"ingle":3292,"Range":3293,"Ġlow":3294,"gener":3295,"non":3296,"Packet":3297,"INK":3298,"ATH":3299,"Ġreset":3300,"87":3301,"now":3302,"Page":3303,"52":3304,"User":3305,"ĠCHE":3306,"Can":3307,"query":3308,"dm":3309,"%%%%":3310,"Ġexpr":3311,"ties":3312,"ĠCreate":3313,"VAR":3314,"Ġwarranty":3315,"Ġref":3316,"FRA":3317,"Ġtemplate":3318,"see":3319,"attern":3320,"Do":3321,"clock":3322,"URL":3323,"ĠDo":3324,"Ġqueue":3325,"SYMBOL":3326,"FC":3327,"Ġrights":3328,"ĠCPU":3329,"RG":3330,"Ġstructure":3331,"any":3332,"ilder":3333,"83":3334,"Ġvol":3335,"dc":3336,"content":3337,"Print":3338,"zone":3339,"sample":3340,"LY":3341,"Ġtypedef":3342,"kely":3343,"ways":3344,"Ġ(&":3345,"Ġhope":3346,"TS":3347,"BLOCK":3348,"PD":3349,"Ġcache":3350,"ĠIt":3351,"perties":3352,"boolean":3353,"Ġopen":3354,"Ġptr":3355,"ĠCHECK":3356,"ĠUSE":3357,"pkt":3358,"Ġorig":3359,"COMM":3360,"Ġpol":3361,"Ġ$":3362,"Layer":3363,"ĠĠĊĠ":3364,"Ġjust":3365,"~~":3366,"By":3367,"tainer":3368,"atabase":3369,"CLASS":3370,"FD":3371,"ĠĊĠĠĠĠĠĠĠĠĠĠĠĠĠ":3372,"ho":3373,"Timer":3374,"gate":3375,"rb":3376,"creen":3377,"make":3378,"ELD":3379,"53":3380,"Memory":3381,"___":3382,"Impl":3383,"plit":3384,"LOC":3385,"ete":3386,"nstance":3387,"widget":3388,"FAIL":3389,"decl":3390,"Ġsock":3391,"lease":3392,"92":3393,"change":3394,"73":3395,"display":3396,"Header":3397,"rs":3398,"ARE":3399,"Ġfunctions":3400,"{\"":3401,"OBJECT":3402,"Height":3403,"instance":3404,"GO":3405,"41":3406,"61":3407,"UTE":3408,"CAP":3409,"ws":3410,"INVALID":3411,"BYTE":3412,"PROC":3413,"System":3414,"Mac":3415,"Load":3416,"uspend":3417,"ĠNOT":3418,"BACK":3419,"LOAD":3420,"eep":3421,"pointer":3422,"eded":3423,"Ġmodule":3424,"PTR":3425,"YS":3426,"Ġ11":3427,"unit":3428,"tributes":3429,"iffer":3430,"VEL":3431,"ultip":3432,"aces":3433,"atile":3434,"ized":3435,"Menu":3436,"Ġ{\"":3437,"63":3438,"Send":3439,"Ġexit":3440,"ND":3441,"ARGET":3442,"Obj":3443,"Ġ();":3444,"soc":3445,"Part":3446,"Interface":3447,"ources":3448,"oth":3449,"ature":3450,",-":3451,"virtual":3452,"Ġbecause":3453,"ĠĊĠĠĠĠĠĠĠĠĠĠĠĠĠĠ":3454,"Ġclear":3455,"81":3456,"Ċĉĉĉĉĉĉĉ":3457,"api":3458,"ored":3459,"Cur":3460,"ĠLI":3461,"bt":3462,"FALSE":3463,"method":3464,"Ġbl":3465,"FB":3466,"stant":3467,"Ġstack":3468,"ura":3469,"Ġctx":3470,"Ġsd":3471,"ommon":3472,"Cache":3473,"FR":3474,"policy":3475,"Next":3476,"Ġim":3477,"ĠTest":3478,"):":3479,"scale":3480,"Ġtry":3481,"Process":3482,"RD":3483,"ensor":3484,"destroy":3485,"čĊĉĉĉ":3486,"Ġexist":3487,"ĊĉĉĠĠĠĠĠĠ":3488,"snd":3489,"FTWARE":3490,"argv":3491,"Pol":3492,"Layout":3493,"Ġspecified":3494,"Valid":3495,"omet":3496,"Gener":3497,"Ġconditions":3498,"All":3499,"auth":3500,"global":3501,"Ġchange":3502,"coding":3503,"DEC":3504,"ily":3505,"Method":3506,"Ġimplement":3507,"ĠCH":3508,"light":3509,"ĠEn":3510,"WE":3511,"bb":3512,"cle":3513,"RESULT":3514,"Ġcom":3515,")*":3516,"Ġapp":3517,"(-":3518,"ason":3519,"Ġlimit":3520,"Byte":3521,"zero":3522,"ĠĊĠĠĠĠĠĠĠĠĠĠĠĠĠĠĠ":3523,"tv":3524,"HAND":3525,")),":3526,"Service":3527,"Ġzero":3528,"RAM":3529,"Hash":3530,"57":3531,"ayload":3532,"ĠHA":3533,"types":3534,"Ġfprintf":3535,"vc":3536,"KERN":3537,"Ġalong":3538,"position":3539,"ANCE":3540,"oci":3541,"signal":3542,"Ġparameter":3543,"ea":3544,"ear":3545,"Ġcolor":3546,"....":3547,"Row":3548,"69":3549,"čĊĠĠĠĠĠĠĠĠĠĠĠĠĠĠĠĠĠĠĠĠ":3550,"Ġcontent":3551,"rd":3552,"Ġroot":3553,"Ġrt":3554,"METH":3555,"Ġserver":3556,"Ġinterface":3557,"Ġclock":3558,"interface":3559,"rg":3560,"WI":3561,"URN":3562,"Ġreturns":3563,"()));":3564,"MPL":3565,"bin":3566,"ogle":3567,"YPE":3568,"anges":3569,"Style":3570,"ialized":3571,"Ġtag":3572,"Params":3573,"Tag":3574,"Version":3575,"RECT":3576,"Ġexec":3577,"real":3578,"element":3579,"elf":3580,"FUNC":3581,"Ġskb":3582,"tected":3583,"62":3584,"uper":3585,"sensor":3586,"Pointer":3587,"ĠSOFTWARE":3588,"Host":3589,"fw":3590,"Ġmd":3591,"ĊĉĉĉĉĠĠĠĠĠ":3592,"79":3593,"Vis":3594,"quence":3595,"_);":3596,"CONTR":3597,"Content":3598,"Port":3599,"likely":3600,"LEVEL":3601,"enabled":3602,"done":3603,"ĠQgs":3604,"strcmp":3605,"bound":3606,"total":3607,"select":3608,"Float":3609,"Ġspecific":3610,"urned":3611,"dump":3612,"Local":3613,"nl":3614,"pass":3615,"ync":3616,"Ġparams":3617,"DIR":3618,"čĊĠĠĠĠĠĠĠĠĠĠĠĠĠĠĠĠĠĠĠĠĠ":3619,"Ġ(!(":3620,"255":3621,"================================================================":3622,"straint":3623,"HD":3624,"pcm":3625,"PAGE":3626,"cene":3627,"side":3628,"ĠNS":3629,"SUB":3630,"ending":3631,"51":3632,"duct":3633,"Ġspace":3634,".,":3635,"less":3636,"brary":3637,"ustom":3638,"ĠBOOST":3639,"NET":3640,"Ġhf":3641,"pair":3642,"aph":3643,"Ġmain":3644,"Vertex":3645,"ĠRead":3646,"ueue":3647,"Back":3648,"ĠType":3649,"ĉĉĉĉĉĉĉĉ":3650,"Ġsl":3651,"Ġsecond":3652,"TIES":3653,"Ġinstance":3654,"Ġbet":3655,"59":3656,"bh":3657,"step":3658,"older":3659,"socket":3660,"DP":3661,"license":3662,"Buf":3663,"option":3664,"Ġempty":3665,"ĠUN":3666,"Ġidx":3667,"ches":3668,"Tx":3669,"FN":3670,"ugh":3671,"malloc":3672,"PARAM":3673,"Effect":3674,"ĠDI":3675,"eated":3676,"abs":3677,"kfree":3678,"arge":3679,"Util":3680,"equal":3681,"orig":3682,"čĊĠĠĠĠĠĠĠĠĠĠĠĠĠĠĠĠĠĠĠĠĠĠ":3683,"FIX":3684,"Open":3685,"agma":3686,"ĠData":3687,"ĠDis":3688,"024":3689,"loop":3690,"icle":3691,"Ap":3692,"Ġsession":3693,"Ġalso":3694,"Ġloop":3695,"Ġ...":3696,"Settings":3697,"Ġdebug":3698,"Run":3699,"DEX":3700,"Ġaccess":3701,"patch":3702,"Ġ/**<":3703,"ĠSk":3704,"Ġtotal":3705,"Ġfilter":3706,"ĠIs":3707,"Ġsched":3708,"structor":3709,"Token":3710,"ENOMEM":3711,"erge":3712,"ĠFT":3713,"Free":3714,"gress":3715,"just":3716,"tom":3717,"Options":3718,"71":3719,"mary":3720,"vis":3721,"wake":3722,"Ġwhere":3723,"ATURE":3724,"Label":3725,"da":3726,"čĊĠĠĠĠĠĠĠĠĠĠĠĠĠĠĠĠĠĠĠĠĠĠĠ":3727,"win":3728,"CUR":3729,"lim":3730,"Spec":3731,"Var":3732,"ĠADC":3733,"URCE":3734,"ĉĠĠ":3735,"eee":3736,"WM":3737,"Track":3738,"hy":3739,"eap":3740,"memcpy":3741,"rad":3742,"istance":3743,"VT":3744,"FLAGS":3745,"lected":3746,"rough":3747,"Ġself":3748,"tm":3749,"ness":3750,"Ġprovided":3751,"Ġ(%":3752,"imes":3753,"Session":3754,"apture":3755,"dl":3756,"NV":3757,"reshold":3758,"ĠLo":3759,"ĠSC":3760,"man":3761,"LC":3762,"OLD":3763,"FIELD":3764,"cg":3765,"RIGHT":3766,"49":3767,"cla":3768,"apping":3769,"ground":3770,"dhd":3771,"Ġwant":3772,"Dialog":3773,"Ġstat":3774,"WER":3775,"Query":3776,"delete":3777,"FORMAT":3778,"errno":3779,"tcp":3780,"Ġsw":3781,"SUPPORT":3782,"Hel":3783,"CG":3784,"vl":3785,"METHOD":3786,"DM":3787,"Module":3788,"sym":3789,"ĠWARRANTIES":3790,"COUNT":3791,"runtime":3792,"ĠTE":3793,"Sk":3794,"Web":3795,"wc":3796,"UAL":3797,"ted":3798,"ni":3799,"Ġyy":3800,"Ġtwo":3801,"ĠRed":3802,"sel":3803,"Ġavailable":3804,"KERNEL":3805,"pending":3806,"curr":3807,"rdev":3808,"plus":3809,"ateg":3810,"Ġrel":3811,"ibr":3812,"iver":3813,"ram":3814,"Ġnotice":3815,"USED":3816,"GA":3817,"video":3818,"HAL":3819,"SOURCE":3820,"wm":3821,"Ġglobal":3822,"ĠSPELL":3823,"CLUD":3824,"button":3825,"flush":3826,"ular":3827,"ĊĉĉĉĉĉĉĠ":3828,"ORM":3829,"ĠSH":3830,"dup":3831,"xffffff":3832,"Ġrout":3833,"Ġreq":3834,"Flag":3835,"Ġthrow":3836,"PRINT":3837,"DESC":3838,"Ġexp":3839,"RESS":3840,"SOC":3841,"Server":3842,"Display":3843,"CLUDING":3844,"Ġmachine":3845,"Ġprivate":3846,"Ġow":3847,"Last":3848,"Font":3849,"ĠBu":3850,"letion":3851,"ĠQt":3852,"ipher":3853,"Com":3854,"stderr":3855,"ords":3856,"div":3857,"]=":3858,"47":3859,"Ġsignal":3860,"ĊĉĉĉĠĠĠĠĠĠ":3861,"tract":3862,"Task":3863,"Ġslot":3864,"Att":3865,"nation":3866,"Draw":3867,"Ġmac":3868,"Ġinvalid":3869,"Texture":3870,"67":3871,"Ġoptions":3872,"anch":3873,"only":3874,"resource":3875,"pad":3876,"ITION":3877,"WID":3878,"ĊĊĊĠ":3879,"eff":3880,"Ġrequired":3881,"ities":3882,"sole":3883,"VO":3884,"MUX":3885,"ARY":3886,"Ġ*);":3887,"dat":3888,"_)":3889,"ixed":3890,"den":3891,"ĠIO":3892,"angu":3893,"eatures":3894,"boost":3895,"Se":3896,"Sig":3897,"mux":3898,"script":3899,"Parameter":3900,"Proto":3901,"Invalid":3902,"with":3903,"ometry":3904,"Ġdi":3905,"Changed":3906,"PACK":3907,"CONTROL":3908,"settings":3909,"SYNC":3910,"WS":3911,"NG":3912,"alk":3913,"SSL":3914,"Ġirq":3915,"ORS":3916,"nition":3917,"NAL":3918,"Alloc":3919,"service":3920,"undef":3921,"Ġplatform":3922,"tbl":3923,"ENC":3924,"values":3925,"FG":3926,"bc":3927,"Ġcopyright":3928,"etr":3929,"sive":3930,"MOD":3931,"support":3932,"Ġaction":3933,"Ġ13":3934,"ĊĊĠĠĠĠĠĠĠĠĠĠĠĠĠĠĠĠ":3935,"Ġob":3936,"isters":3937,"LIB":3938,"player":3939,"ability":3940,"Ġremove":3941,"ĠValue":3942,"ween":3943,"su":3944,"PY":3945,"CODEC":3946,"known":3947,"Ġpower":3948,"Ġdiffer":3949,"Ġfd":3950,"Ġsm":3951,"HW":3952,"ĠDB":3953,"ĊĊĠĠĠĠĠĠĠĠĠĠĠĠĠĠĠĠĠ":3954,"Ali":3955,"Bar":3956,"style":3957,"TRAN":3958,"Ġhandler":3959,"Ġthem":3960,"93":3961,"ĠPoint":3962,"Inst":3963,"Ġtop":3964,"TAG":3965,"POWER":3966,"Ġinternal":3967,"ĠDA":3968,"cell":3969,"ĊĊĉĉĉ":3970,"Ġview":3971,"Ġlibrary":3972,"Ġmark":3973,"Ġsocket":3974,"MIT":3975,"parser":3976,"Ġdisplay":3977,"ĠIR":3978,"cpp":3979,"ĠAPI":3980,"Struct":3981,"Empty":3982,"sure":3983,"Fr":3984,"Ġparameters":3985,"Up":3986,"draw":3987,"../":3988,"inis":3989,"Ġbound":3990,"restore":3991,"ĠBit":3992,"andard":3993,"ĠFile":3994,"ls":3995,"ian":3996,"area":3997,"Ġour":3998,"Func":3999,"Ġenv":4000,"fill":4001,"Ġconnection":4002,"0001":4003,"Ġdocument":4004,"ination":4005,"Ġbus":4006,"screen":4007,"uce":4008,"ĊĠĠĊĠ":4009,"Ġchild":4010,"Ġio":4011,"Response":4012,"gine":4013,"Ġmp":4014,"001":4015,"ched":4016,"ĠĊĠĠĠĠĠĠĠĠĠĠĠĠĠĠĠĠ":4017,"Ġfiles":4018,"Ge":4019,"Ġtimer":4020,"connection":4021,"kernel":4022,"ĠBIT":4023,"GTH":4024,"ACE":4025,"LD":4026,"ĠUse":4027,"BB":4028,"Ġreference":4029,"SPI":4030,"gh":4031,"Ġplayer":4032,"Connection":4033,"ous":4034,"graph":4035,"ĠMO":4036,"Ġreturned":4037,"licenses":4038,"Ġexpected":4039,"iteral":4040,"access":4041,"epare":4042,"/*!":4043,"amily":4044,"Iterator":4045,"mmc":4046,"Ġpass":4047,"track":4048,"requ":4049,"pose":4050,"REA":4051,"LOT":4052,"Resource":4053,"########":4054,"Stack":4055,"ĊĊĠĠĠĠĠĠĠĠĠĠĠĠĠĠĠĠĠĠ":4056,"vma":4057,"ids":4058,"ĠLOG":4059,"SON":4060,"Ġ(((":4061,"ĠLL":4062,"TC":4063,"Ġvm":4064,"trl":4065,"Ġactive":4066,"anguage":4067,"xffff":4068,"Ġcp":4069,"ĊĊĠĠĠĠĠĠĠĠĠĠĠĠĠĠĠĠĠĠĠ":4070,"Dest":4071,"verse":4072,"Socket":4073,"Ġ),":4074,"Enabled":4075,"ĠOpen":4076,"Ġhead":4077,"Attribute":4078,"ummy":4079,"Graph":4080,"Pre":4081,"GRO":4082,"COM":4083,"aded":4084,"pixel":4085,"names":4086,"CONST":4087,"arm":4088,"ĠNote":4089,"ĠHAVE":4090,"ĠStr":4091,"ĠPri":4092,"gt":4093,"Ġlabel":4094,"Exception":4095,"Queue":4096,"ycle":4097,"rapper":4098,"FRAME":4099,"RESET":4100,"Access":4101,"ĠĊĠĠĠĠĠĠĠĠĠĠĠĠĠĠĠĠĠ":4102,"qual":4103,"ĠStat":4104,"Ġgtk":4105,"=(":4106,"LAB":4107,"Ġpermission":4108,"DOWN":4109,"ensions":4110,"Ġthey":4111,"ĠHAL":4112,")\",":4113,"Link":4114,"full":4115,"edia":4116,"erial":4117,"Ġtoken":4118,"PHY":4119,"mix":4120,"Ġfields":4121,"xml":4122,"Ġconnect":4123,"Ġsys":4124,"Ġdown":4125,"Ġlicense":4126,"manager":4127,"shift":4128,"LINK":4129,"Ġoperation":4130,"ca":4131,"MPLE":4132,"gle":4133,"INPUT":4134,"ithm":4135,"Ġtimeout":4136,"ĠTIM":4137,"OPY":4138,"search":4139,"counter":4140,"Ġsample":4141,"Over":4142,"PROTO":4143,"lx":4144,"chunk":4145,"Ġput":4146,"ĠGFP":4147,"Ġreal":4148,"utable":4149,"istr":4150,"LENGTH":4151,"--;":4152,"Ġ255":4153,"Ġgen":4154,"Ġsure":4155,"FX":4156,"Cmd":4157,"Ġbinary":4158,"Ġvec":4159,"Ġstore":4160,"Ġscan":4161,"ĊĉĉĉĉĉĠĠĠĠ":4162,"ottom":4163,"Audio":4164,"Store":4165,"memset":4166,"<<<<":4167,"Ġsymbol":4168,"Ġ\\\"":4169,"sist":4170,"arning":4171,"Ġparse":4172,"Ġform":4173,"Ġstop":4174,"PCI":4175,"short":4176,"Ġsection":4177,"Ġenabled":4178,"ĠNo":4179,"STRU":4180,"ĠCr":4181,"('":4182,"Failed":4183,"Ġstrlen":4184,"Child":4185,"lu":4186,"dt":4187,"Ġsince":4188,"ngine":4189,"Ġvis":4190,"Ġresponse":4191,"bers":4192,"IGH":4193,"ount":4194,"TABLE":4195,"unlikely":4196,"nf":4197,"insn":4198,"QString":4199,"aved":4200,"GPL":4201,"pragma":4202,"ĠĊĠĠĠĠĠĠĠĠĠĠĠĠĠĠĠĠĠĠ":4203,"ioctl":4204,"points":4205,"font":4206,"pb":4207,"Ġet":4208,"urb":4209,"Ġdecl":4210,"INDEX":4211,"spi":4212,"menu":4213,"Ġtrack":4214,"GUID":4215,"ildr":4216,"Ret":4217,"DRV":4218,"*>(":4219,"IAL":4220,"ava":4221,"ĠSy":4222,"ĠCOPY":4223,"notify":4224,"ĠTHIS":4225,"Bind":4226,"LONG":4227,"Ġfull":4228,"spell":4229,"ĠUINT":4230,"Ġ^":4231,"CRE":4232,"leted":4233,"Core":4234,"ctor":4235,"----------------------------------------------------------------------------":4236,"QUE":4237,"vp":4238,"ernal":4239,"Ġspell":4240,"Ġbetween":4241,"mplex":4242,"Global":4243,"eer":4244,"disk":4245,"Ġign":4246,"ildren":4247,"ardware":4248,"Ġskip":4249,"ĠOut":4250,"mdp":4251,"frag":4252,"ĠTYPE":4253,"\\\\":4254,"eft":4255,"oice":4256,"pret":4257,"ĠNum":4258,"otg":4259,"gor":4260,"ings":4261,"nected":4262,"Ph":4263,"Ġpci":4264,"gc":4265,"ĠAT":4266,"vs":4267,"=\"":4268,"->_":4269,"ENUM":4270,"hf":4271,"ARRAY":4272,"Copy":4273,"Return":4274,"Ġpas":4275,"lass":4276,"NI":4277,"ADC":4278,"Ġseg":4279,"uring":4280,"po":4281,"lex":4282,"400":4283,"Vec":4284,"ĠLess":4285,"ĠAD":4286,"DEO":4287,"suspend":4288,"Ġmat":4289,"ĠUpdate":4290,"ĠĊĠĠĠĠĠĠĠĠĠĠĠĠĠĠĠĠĠĠĠ":4291,"\",\"":4292,"render":4293,"FMT":4294,"ĠError":4295,"Bytes":4296,"ĠCL":4297,"RATE":4298,"ĠDEBUG":4299,"===":4300,"&&":4301,"Ġwhether":4302,"FIL":4303,"vider":4304,"RST":4305,"wx":4306,"interrupt":4307,"endl":4308,"oin":4309,"MSM":4310,"_[":4311,"IV":4312,"probe":4313,"NR":4314,"cat":4315,"Active":4316,"Ġendl":4317,">.":4318,"Ġ\"/":4319,"dentifier":4320,"DECL":4321,"hal":4322,"cor":4323,"Ġdel":4324,"speed":4325,"ANT":4326,"df":4327,"Controller":4328,"oom":4329,"iler":4330,"Ġalways":4331,"ĠPar":4332,"region":4333,"Video":4334,"TREE":4335,"unique":4336,"Ġunit":4337,"Ġkernel":4338,"Ġboost":4339,"EY":4340,"Bits":4341,"DEFINE":4342,"va":4343,"Change":4344,"aps":4345,"čĊĠĠĠĠĠĠĠĠĠĠĠĠĠĠĠĠĠĠĠĠĠĠĠĠ":4346,"ĠEnable":4347,"ization":4348,"fine":4349,"Ġ(__":4350,"ĠLesser":4351,"Creature":4352,"NL":4353,"Ġthrough":4354,"Ġmatrix":4355,"mapping":4356,"ĠTODO":4357,"Bound":4358,"NODE":4359,"matrix":4360,"FACE":4361,"UNIT":4362,"inc":4363,"]*":4364,"pop":4365,"Ġotherwise":4366,"Ġproc":4367,"ĠOUT":4368,"chain":4369,"Ġloc":4370,"Ġsave":4371,"PATH":4372,"Ġabout":4373,"roid":4374,"ĠVector":4375,"Ġbeing":4376,"Ġsn":4377,"eport":4378,"txt":4379,"build":4380,"adow":4381,"Ġsingle":4382,"HANDLE":4383,"Args":4384,"Ġdefi":4385,"Location":4386,"symbol":4387,"ired":4388,"icon":4389,"RETURN":4390,"cout":4391,"ERS":4392,"BITS":4393,"bg":4394,"(%":4395,"owner":4396,"CHANNEL":4397,"Edit":4398,"ĠTrans":4399,"depth":4400,"erve":4401,"ha":4402,"sv":4403,"cket":4404,"eh":4405,"ĠSTR":4406,"POS":4407,"Ġtransaction":4408,"ĠIMP":4409,"ĠAC":4410,"Ġthese":4411,"impl":4412,"ĠFunction":4413,"nb":4414,"ended":4415,"ging":4416,"response":4417,"Ġdrm":4418,"GLE":4419,"Ġmm":4420,"amage":4421,"Ġnr":4422,"Idx":4423,"phys":4424,"stri":4425,"Ġsupported":4426,"Ġmodel":4427,"UNK":4428,"SED":4429,"Bo":4430,"tri":4431,"qp":4432,"aterial":4433,"Sp":4434,"ĠHandle":4435,"imple":4436,"files":4437,"Ġdim":4438,"ntil":4439,"čĊĠĠĠĠĠĠĠĠĠĠĠĠĠĠĠĠĠĠĠĠĠĠĠĠĠ":4440,"REAM":4441,"gnu":4442,"Kind":4443,"Msk":4444,"PLL":4445,"google":4446,"Main":4447,"Ġargv":4448,"plicit":4449,"Icon":4450,"utdown":4451,"PG":4452,"Ġ19":4453,"Ġwritten":4454,"Ġneeded":4455,"ĠLog":4456,"high":4457,"Di":4458,"Ġ18":4459,"BT":4460,"Ġcould":4461,"DT":4462,"WOR":4463,"lookup":4464,"rome":4465,"PAD":4466,",&":4467,"Ġtypes":4468,"Ġrx":4469,"rev":4470,"Ġassoci":4471,"apped":4472,"Cal":4473,"ITEM":4474,"prop":4475,"SEC":4476,"ĠObject":4477,"prefix":4478,"ĠOTHER":4479,"swap":4480,"ough":4481,"COLOR":4482,"ĠPAGE":4483,"Ġshow":4484,"ITED":4485,"pio":4486,"CORE":4487,"Ġ1000":4488,"wq":4489,"LIED":4490,"ĠPer":4491,"ROW":4492,"ually":4493,"Ġ*(":4494,"hc":4495,"!=":4496,"ros":4497,"Ġ199":4498,"II":4499,"Ġatt":4500,"report":4501,"AF":4502,"coped":4503,"olution":4504,"imation":4505,"*,":4506,"pf":4507,"RF":4508,"Private":4509,"fprintf":4510,"anc":4511,"boot":4512,"Ġdef":4513,"ĠRedistribut":4514,"ĠCal":4515,"LOAT":4516,"ident":4517,"ĠLIM":4518,"Ġstep":4519,"chron":4520,"Ġmis":4521,"AST":4522,"Pi":4523,"čĊĠĠĠĠĠĠĠĠĠĠĠĠĠĠĠĠĠĠĠĠĠĠĠĠĠĠ":4524,"Bool":4525,"culate":4526,"idle":4527,"Ġattribute":4528,"dig":4529,"med":4530,"MR":4531,"Ġmov":4532,"uff":4533,"lper":4534,"WL":4535,"Ġconfiguration":4536,"Ġlayer":4537,"align":4538,"ACTIVE":4539,"ultiple":4540,".\");":4541,"Ġ17":4542,"trfs":4543,"Dec":4544,"Pass":4545,"izer":4546,"semb":4547,"Ġindic":4548,"________":4549,"ĠAn":4550,"diff":4551,"ĠDAMAGE":4552,"UST":4553,"Record":4554,"Ġmove":4555,"Ġprevious":4556,"FORM":4557,"Ġ'%":4558,"ARB":4559,"Ġacc":4560,"Move":4561,"Tool":4562,"erase":4563,"Qt":4564,"ece":4565,"Ġrecord":4566,"ĠBUT":4567,"USER":4568,"blocks":4569,"/****************************************************************************":4570,"Ġquery":4571,"DISABLE":4572,"import":4573,"curity":4574,"ĠARRAY":4575,"istory":4576,"ise":4577,"LP":4578,"If":4579,"band":4580,"Pixel":4581,"netdev":4582,"PCM":4583,"Ġver":4584,"SV":4585,"PLAY":4586,")[":4587,"ifo":4588,"ARM":4589,"ATOR":4590,"lua":4591,"Work":4592,"ias":4593,"Ġclose":4594,"UInt":4595,"ordi":4596,"dentry":4597,"Ġns":4598,"ĠAddr":4599,"uf":4600,"ACTION":4601,"okie":4602,"crypt":4603,"MAIN":4604,"Ġbuild":4605,"čĊĠĠĠĠĠĠĠĠĠĠĠĠĠĠĠĠĠĠĠĠĠĠĠĠĠĠĠ":4606,"ĉĠĠĠ":4607,"OPT":4608,"Ġpriv":4609,"stmt":4610,"Ġseq":4611,"complete":4612,"Ġpixel":4613,"========================================================================":4614,"-+":4615,"events":4616,"ĊĉĉĉĉĉĉĠĠ":4617,"Ġrate":4618,"Ġsign":4619,"***":4620,"//!":4621,"ĠTo":4622,"ĠMode":4623,"GIN":4624,"Ġagain":4625,"__)":4626,"acity":4627,"iltin":4628,"serial":4629,"RM":4630,"Game":4631,"rows":4632,"Ġconvert":4633,"Descriptor":4634,"Ġwl":4635,"ordin":4636,"DL":4637,"ĠEVENT":4638,"CTOR":4639,"ffers":4640,"Ġbr":4641,"ATCH":4642,"ARCH":4643,"Ġselect":4644,"sid":4645,"ĠCAN":4646,"ĠVOS":4647,"Ġdifferent":4648,"Left":4649,"ii":4650,"Option":4651,"Ġtoo":4652,"ĠPyObject":4653,"tty":4654,"ĠIMPLIED":4655,"ialization":4656,"post":4657,"Ġdoesn":4658,"ĠTX":4659,"rep":4660,"ĠĊĠĠĠĠĠĠĠĠĠĠĠĠĠĠĠĠĠĠĠĠ":4661,"cent":4662,"Ġ..":4663,"Err":4664,"crement":4665,"DIV":4666,"Pool":4667,"Ġpin":4668,"rout":4669,"MUL":4670,"ĠWrite":4671,"mote":4672,"Rate":4673,"ĠNode":4674,"nvalid":4675,"Remove":4676,"entries":4677,"////////////////////////////////////////////////////////////////":4678,"STA":4679,"ĠRem":4680,"ĊĊĊĠĠ":4681,"ENS":4682,"ctionary":4683,"record":4684,"Ġbfd":4685,"Ġcop":4686,"SPACE":4687,"Attr":4688,"ged":4689,"Mgr":4690,"BOOL":4691,"gorithm":4692,"invalid":4693,"Ġclk":4694,"Ġpm":4695,"800":4696,"ĠNot":4697,"*(":4698,"211":4699,"Storage":4700,"TARGET":4701,"EXP":4702,"Find":4703,"World":4704,"peg":4705,"wd":4706,"layout":4707,"ĠAp":4708,"failed":4709,"Ab":4710,"ĉĉĉĉĉ":4711,"Gui":4712,"master":4713,"PEND":4714,"Ġemit":4715,"cessing":4716,"AA":4717,"Down":4718,"UDIO":4719,"nodes":4720,"Ġpack":4721,"Ġtcp":4722,"Ġcomm":4723,"Ġargc":4724,"jo":4725,"DISP":4726,"bad":4727,"(\"\\":4728,"rot":4729,"Ġwould":4730,"Ġnormal":4731,"Ġonce":4732,"Ġll":4733,"force":4734,"body":4735,"Ġsum":4736,"Proc":4737,"Ġaudio":4738,"8000":4739,"Types":4740,"Ġsettings":4741,"Factory":4742,"CHED":4743,"elif":4744,"writel":4745,"(((":4746,"Pyx":4747,"found":4748,"Ġhold":4749,"CNT":4750,"Ġproperty":4751,"Container":4752,"ences":4753,"delta":4754,"ĠIm":4755,"ĠTEST":4756,"TIMER":4757,"Clear":4758,"Cast":4759,"ĠSc":4760,"INST":4761,"Aura":4762,"mv":4763,"ENDOR":4764,"VIDEO":4765,"ĠĊĠĠĠĠĠĠĠĠĠĠĠĠĠĠĠĠĠĠĠĠĠ":4766,"gpu":4767,"Date":4768,"ru":4769,"ONLY":4770,"ĠLIMITED":4771,"VR":4772,"Ġcannot":4773,"ressed":4774,"Ġrender":4775,"Mon":4776,"Ġhand":4777,"Use":4778,"ĠCall":4779,"ĠKEY":4780,"xis":4781,"atio":4782,"Ġinsert":4783,"Instruction":4784,"alle":4785,"HY":4786,"Ġchunk":4787,"gb":4788,"ĠSend":4789,"Enable":4790,"CONNE":4791,"Ġdelay":4792,"ĠUART":4793,"dw":4794,"fies":4795,"ENU":4796,"prec":4797,"Ġ30":4798,"peer":4799,"eloc":4800,"Det":4801,"CAST":4802,"Domain":4803,"Delete":4804,"Null":4805,"ips":4806,"Ġtvb":4807,"vcpu":4808,"Match":4809,"WAIT":4810,"vt":4811,"PK":4812,"Ġsearch":4813,"recv":4814,"Fl":4815,"pll":4816,"ĠVAL":4817,"BI":4818,"essages":4819,"Tab":4820,"CACHE":4821,"ĠSPI":4822,"Ġnames":4823,"Ġdirectory":4824,"OPEN":4825,"Ġreport":4826,"vas":4827,"SRC":4828,"lem":4829,"915":4830,"Ġos":4831,"ĊĊĊĠĠĠ":4832,"ĠPl":4833,"doc":4834,"protocol":4835,"cursor":4836,"termi":4837,"Ġlocation":4838,"elem":4839,"pref":4840,"Ġmmc":4841,"ILED":4842,"Ġinteger":4843,"HI":4844,"Network":4845,"Ġcontains":4846,"sta":4847,"!!":4848,"Env":4849,"MX":4850,"Ġtp":4851,"Ġvir":4852,"Template":4853,"bf":4854,"protobuf":4855,"ASS":4856,"ĠMSM":4857,"ĠĠĊĠĠĠĠĠĠĠ":4858,"HS":4859,"Ġpossible":4860,"ĠSo":4861,"pfn":4862,"mg":4863,"'r":4864,"'re":4865,"VALID":4866,"OUTPUT":4867,"iform":4868,"channels":4869,"Ġcap":4870,"Gr":4871,"bitmap":4872,"rv":4873,"inv":4874,"Ġallocate":4875,"STREAM":4876,"stract":4877,"Ġhw":4878,"ĠSY":4879,"Ġcharacter":4880,"dx":4881,"umns":4882,"ster":4883,"Parent":4884,"tact":4885,"Engine":4886,"BC":4887,"Ġdraw":4888,"Profile":4889,"VENDOR":4890,"ĠFLA":4891,"Ind":4892,"ĠGO":4893,"Ġresource":4894,"Sample":4895,"iffies":4896,"MBER":4897,"sup":4898,"()),":4899,"exception":4900,"ius":4901,"HER":4902,"}}":4903,"ĠPO":4904,"ĠĊĠĠĠĠĠĠĠĠĠĠĠĠĠĠĠĠĠĠĠĠĠĠ":4905,"CID":4906,"riter":4907,"BR":4908,"CLE":4909,"shot":4910,"HIGH":4911,"ENABLED":4912,"Ġattr":4913,"itional":4914,"Ġpages":4915,"Ġč":4916,"coded":4917,"Variant":4918,"irect":4919,"Enum":4920,"ĠUSA":4921,"Sync":4922,"xxx":4923,"Ġword":4924,"FILTER":4925,"------------------------":4926,"Ġscale":4927,"Scale":4928,"igned":4929,"Bi":4930,"Ġboth":4931,"ĠLIABILITY":4932,"Ġhigh":4933,"stride":4934,"Ġdb":4935,"allow":4936,"Src":4937,"LECT":4938,"Ġevents":4939,"olver":4940,"Ġcolumn":4941,"ĠPM":4942,"Transaction":4943,"Ġcore":4944,"Pair":4945,"FLOAT":4946,"Ġman":4947,"Ġdisable":4948,"leg":4949,"shape":4950,"ĠIRQ":4951,"First":4952,"note":4953,"tvb":4954,"ĠMake":4955,"[(":4956,"Ġbegin":4957,"Ġfilename":4958,"erred":4959,"Ġpipe":4960,"gtk":4961,"Ġuntil":4962,"Ġrelease":4963,"Symbol":4964,"Parse":4965,"Ġchanged":4966,"Ġlp":4967,"profile":4968,"Ġssize":4969,";}":4970,"Cell":4971,"Adapter":4972,"ĠInput":4973,"UART":4974,"ĠĠĠĊĠĠĠĠĠĠĠ":4975,"Ġxml":4976,"DIRECT":4977,"Ġaut":4978,"normal":4979,"DATE":4980,"Ġtri":4981,"','":4982,"Constant":4983,"ior":4984,"operator":4985,"Parser":4986,"imal":4987,"Ġ()":4988,"ga":4989,"ĠStatus":4990,"------":4991,"ĠGET":4992,"VOL":4993,"HOST":4994,"FEATURE":4995,"Ġbind":4996,"ĠGST":4997,"CLI":4998,"Ġ128":4999,"Screen":5000,"ERRUP":5001,"crtc":5002,"RGB":5003,"valu":5004,"ĠMem":5005,"Long":5006,"ĠCol":5007,"json":5008,"Multi":5009,"ained":5010,"Ġinv":5011,"ĠĊĠĠĠĠĠĠĠĠĠĠĠĠĠĠĠĠĠĠĠĠĠĠĠ":5012,"Ġ25":5013,"GROUP":5014,"Ġdirect":5015,"Ġsetting":5016,"Ctx":5017,"ĠEV":5018,"HASH":5019,"ĠFILE":5020,"Ġpc":5021,"Mat":5022,"Mesh":5023,"Ġpoints":5024,"Ġcard":5025,"adc":5026,"Ġblocks":5027,"COMMAND":5028,"icode":5029,"PEG":5030,"PTION":5031,"riend":5032,"RPC":5033,"sem":5034,"Ġretval":5035,"Ġlib":5036,"urnal":5037,"job":5038,"ĠAt":5039,"AUTO":5040,"interpret":5041,"Ġentries":5042,"POINT":5043,"Exec":5044,"olve":5045,">,":5046,"Ġcorrect":5047,"ibrary":5048,"Shader":5049,"cleanup":5050,"Operand":5051,"column":5052,"RENT":5053,"Ġder":5054,"GP":5055,"ĠĠĠĠĊĠĠĠĠĠĠĠ":5056,"alt":5057,"-+-+":5058,"Ġzone":5059,"Double":5060,"EW":5061,"MAN":5062,"PRESS":5063,"FREE":5064,"Ġsz":5065,"rank":5066,"ALIGN":5067,"Ġassociated":5068,"safe":5069,"ĠBE":5070,"Ġfunc":5071,"Space":5072,"sort":5073,"Ġrb":5074,"attrs":5075,"rcu":5076,"chg":5077,"fields":5078,"prot":5079,"FAILURE":5080,"Ġinitial":5081,"ĠWeb":5082,"panel":5083,"EEE":5084,"Scan":5085,"FILL":5086,"eply":5087,"Internal":5088,"ĠWM":5089,"IA":5090,"Ġcfg":5091,"Ġrepresent":5092,"Ġlua":5093,"RED":5094,"HAS":5095,"equence":5096,"GTK":5097,"gsl":5098,"sf":5099,"ĠBY":5100,"Component":5101,"bss":5102,"Sec":5103,"FFFFFF":5104,"descriptor":5105,"Imp":5106,"USH":5107,"WIDTH":5108,"Builder":5109,"čĊĠĠĠĠĠĠĠĠĠĠĠĠĠĠĠĠĠĠĠĠĠĠĠĠĠĠĠĠ":5110,"Ġ___":5111,"Ġeffect":5112,"Ġbad":5113,"ĠDev":5114,"Ġarguments":5115,"vi":5116,"*>":5117,"ĠFIX":5118,"Ġinstead":5119,"Ġavoid":5120,"Ġconstant":5121,"integer":5122,"oo":5123,"ĠRTC":5124,"Ġupd":5125,"ORMAL":5126,"THREAD":5127,"Ġmemcpy":5128,"keys":5129,"extra":5130,"++++":5131,"tage":5132,"Shape":5133,"iron":5134,"FIFO":5135,"Ġhow":5136,"Ġwhat":5137,"ĠDATA":5138,"ured":5139,"ĠDesc":5140,"Âµ":5141,"Column":5142,"ONT":5143,"Ġ//!":5144,"INTR":5145,"skip":5146,"reply":5147,"ILD":5148,"Root":5149,"rive":5150,"Ġgu":5151,"ĠInterrupt":5152,"uri":5153,"TF":5154,"activ":5155,"ĠPR":5156,"Ġway":5157,"\"\\":5158,"Ġalign":5159,"CHANGE":5160,"OPTION":5161,"edge":5162,"changed":5163,"Ġcreated":5164,"lyph":5165,"Be":5166,"media":5167,"Ġduring":5168,"INLINE":5169,"Ġexception":5170,"Entity":5171,"EQUAL":5172,"ĠStart":5173,"title":5174,"FW":5175,"00000001":5176,"Ġstill":5177,"Ġ\");":5178,"ĠAuth":5179,"uart":5180,"ĠRX":5181,"Ġdec":5182,"Variable":5183,"browser":5184,"Ġ40":5185,"Ġfailure":5186,"Ġsetup":5187,"opts":5188,"acy":5189,"ah":5190,"TRACT":5191,"loor":5192,"Proxy":5193,"resume":5194,".\",":5195,"Prev":5196,"ssl":5197,"Ġallocated":5198,"Ġrect":5199,"ssert":5200,"poll":5201,"ech":5202,"vid":5203,"Rece":5204,"texture":5205,"512":5206,"Ġmight":5207,"zz":5208,"Ġieee":5209,"WARNING":5210,"Ġĉ":5211,"QUI":5212,"RANGE":5213,"Ġ\"\",":5214,"Ġregisters":5215,"dsi":5216,"UEST":5217,"acc":5218,"TIMEOUT":5219,"Hz":5220,"weight":5221,"Play":5222,"Ġscript":5223,"interval":5224,"UCH":5225,"volatile":5226,"ĠPORT":5227,"Media":5228,"Ġsprintf":5229,"Ġcb":5230,"Auto":5231,"mware":5232,"Ġsync":5233,"SSAGE":5234,"component":5235,"Power":5236,"Ġroutine":5237,"PIX":5238,"une":5239,"ĠLIC":5240,"ĠSI":5241,"ĠSET":5242,"ATED":5243,"edit":5244,"network":5245,"Ġocc":5246,"heap":5247,"ĠConfig":5248,"period":5249,"Transform":5250,"AUTH":5251,"ategory":5252,"na":5253,"ges":5254,"čĊĠĠĠĠĠĠĠĠĠĠĠĠĠĠĠĠĠĠĠĠĠĠĠĠĠĠĠĠĠ":5255,"Ġcontainer":5256,"ĠME":5257,"rule":5258,"async":5259,"Ġbased":5260,"STOP":5261,"Ġcell":5262,"caps":5263,"nx":5264,"Slot":5265,"Document":5266,"BAD":5267,"%%%%%%%%":5268,"html":5269,"lv":5270,"ĠERR":5271,"Ġremov":5272,"ARGS":5273,"ena":5274,"Ġpool":5275,"machine":5276,"[\"":5277,"CONF":5278,"003":5279,"ĊĉĉĉĉĠĠĠĠĠĠ":5280,"TIF":5281,"rece":5282,"Ġelements":5283,"isp":5284,"bat":5285,"Ġvideo":5286,"acing":5287,"LOB":5288,"Ġdelta":5289,"ĠLICENSE":5290,"Ġdomain":5291,"!\\":5292,"hing":5293,"itr":5294,"Top":5295,"hell":5296,"Ġadded":5297,"Ġpid":5298,"ilt":5299,"Sl":5300,"thing":5301,"eric":5302,"SCAN":5303,"FAILED":5304,"ĠAddress":5305,"ĊĉĠĠĠĠĠĠĠ":5306,"lg":5307,"fm":5308,"Ġhap":5309,"dict":5310,"Ġmon":5311,"Lim":5312,"dai":5313,"ADDRESS":5314,"sql":5315,"opcode":5316,"()))":5317,"ĠMSG":5318,"aut":5319,"~~~~":5320,"Ġtrigger":5321,"HCI":5322,"Right":5323,"Ġdma":5324,"ĠSource":5325,"IME":5326,"Tex":5327,"sq":5328,"Ġlike":5329,"Ġdocumentation":5330,"Rel":5331,"Save":5332,"NOWN":5333,"ĠĠĠĠĠĊĠĠĠĠĠĠĠ":5334,"utils":5335,"adding":5336,"unregister":5337,"attery":5338,"Ġneeds":5339,"Ġnetwork":5340,"irqrestore":5341,"TON":5342,"ILL":5343,"sib":5344,"hema":5345,"lap":5346,"atal":5347,"Ġevery":5348,"ĠPr":5349,"IFY":5350,"uster":5351,"Ġpassed":5352,"respon":5353,"REC":5354,"STRUCT":5355,"Ġ31":5356,"IZ":5357,"Reset":5358,"GC":5359,"TRIB":5360,"ysql":5361,"Non":5362,"ĠÂ":5363,"Exp":5364,"Ġ///<":5365,"CAM":5366,"Ġchip":5367,"ĠÃ":5368,"ĠĠĠĠĠĠĊĠĠĠĠĠĠĠ":5369,"264":5370,"ĠSER":5371,"Ġ]":5372,"cx":5373,"čĊĠĠĠĠĠĠĠĠĠĠĠĠĠĠĠĠĠĠĠĠĠĠĠĠĠĠĠĠĠĠ":5374,"proxy":5375,"road":5376,"Ġdiff":5377,"Ġtab":5378,"CTX":5379,"WINDO":5380,"sin":5381,"ĠBase":5382,"Ġmeans":5383,"TLS":5384,"Ġsim":5385,"Close":5386,"ĠTime":5387,"itive":5388,"rw":5389,"ĠĊĠĠĠĠĠĠĠĠĠĠĠĠĠĠĠĠĠĠĠĠĠĠĠĠ":5390,"Area":5391,"Ġsuch":5392,"bfd":5393,"Ġ*_":5394,"Ġss":5395,"ipv":5396,"ALLOC":5397,"Values":5398,"Br":5399,"otion":5400,"ĠCR":5401,"Argument":5402,"Application":5403,"Ġcomponent":5404,"ĠCA":5405,"');":5406,"Ġep":5407,"alpha":5408,"Ġbelow":5409,"ĠCan":5410,"Surface":5411,"Ġpt":5412,"items":5413,"Scalar":5414,"Release":5415,"TING":5416,"det":5417,"Gen":5418,"mpt":5419,"ĠAr":5420,"Ġoriginal":5421,"bed":5422,"Ġgpio":5423,"ĠĠĠĠĠĠĠĊĠĠĠĠĠĠĠ":5424,"Program":5425,"bio":5426,"Opt":5427,"Ġbutton":5428,"pk":5429,"ĠHT":5430,"HEADER":5431,"Ġraw":5432,"alet":5433,"Reader":5434,"Loop":5435,"Ġshared":5436,"Show":5437,"DF":5438,"resp":5439,"grp":5440,"endor":5441,"sequence":5442,"Utils":5443,"PID":5444,"emu":5445,"Policy":5446,"img":5447,"WORK":5448,"Ġexplicit":5449,"ĠSDL":5450,"ĠOp":5451,"Cursor":5452,"Ġlook":5453,"čĊĉĉĉĉ":5454,"Ġ_(\"":5455,"Ġshift":5456,"Select":5457,"pv":5458,"ĠVersion":5459,"Helper":5460,"mixer":5461,"tun":5462,"oston":5463,"olate":5464,"ĠDCHECK":5465,"ĠInter":5466,"Grid":5467,"Ġimplementation":5468,"Ġ*)&":5469,"SQL":5470,"**/":5471,"ĠName":5472,"plug":5473,"Ġrad":5474,"rp":5475,"Parameters":5476,"mid":5477,"ighb":5478,"ĠRCC":5479,"BOX":5480,"SF":5481,"engine":5482,"Word":5483,"Ġ0211":5484,"ĠĠĠĠĠĠĠĠĊĠĠĠĠĠĠĠ":5485,"VID":5486,"Ġdiv":5487,"Ġ50":5488,"Ġservice":5489,"Ġregion":5490,"ĠQu":5491,"ĠBoston":5492,"Ġrhs":5493,"čĊĠĠĠĠĠĠĠĠĠĠĠĠĠĠĠĠĠĠĠĠĠĠĠĠĠĠĠĠĠĠĠ":5494,"PB":5495,"LETE":5496,"::~":5497,"Ġec":5498,"Ġ256":5499,"anel":5500,"CLARE":5501,"ulation":5502,"ĠParam":5503,"LED":5504,"lc":5505,"ĠWhen":5506,"frames":5507,"hdev":5508,"cam":5509,"ĠĊĉ":5510,"Ġprotocol":5511,"Ġ!(":5512,"ĠMAC":5513,"Ġvolatile":5514,"PLY":5515,"Cap":5516,"apshot":5517,"Tri":5518,"claimer":5519,"ISTER":5520,"Ċĉĉĉĉĉĉĉĉ":5521,"Ġwr":5522,"ĠEnd":5523,"mail":5524,"seek":5525,"ĠĊĠĠĠĠĠĠĠĠĠĠĠĠĠĠĠĠĠĠĠĠĠĠĠĠĠ":5526,"istics":5527,"._":5528,"ĠControl":5529,"Mark":5530,"nn":5531,"ĠCOPYRIGHT":5532,"Ġsequence":5533,"thon":5534,"erson":5535,"camera":5536,"101":5537,"SCAL":5538,"tim":5539,"čĊčĊĠ":5540,"APP":5541,"Red":5542,"Stop":5543,"jor":5544,"Names":5545,"ĠERROR":5546,"ĠMod":5547,"Ġdescriptor":5548,"Selection":5549,"Gtk":5550,"awn":5551,":\\":5552,"Stats":5553,"Ġsent":5554,"tile":5555,"RB":5556,"atom":5557,"pte":5558,"rtc":5559,"ĠSE":5560,"agic":5561,"ulate":5562,"Ġmaximum":5563,"assign":5564,"storage":5565,"Wait":5566,"ĠFind":5567,"IDE":5568,"RUN":5569,"ĠLoad":5570,"ctxt":5571,"ĠCode":5572,"CU":5573,"mult":5574,"Orig":5575,"Ġneg":5576,"ĠEXT":5577,"trigger":5578,"ĠDIS":5579,"Extension":5580,"Mouse":5581,"AX":5582,"covery":5583,"compr":5584,"Ġspecial":5585,"az":5586,"clo":5587,"++]":5588,"exist":5589,"Ġel":5590,"Literal":5591,"mitted":5592,"Ġok":5593,"ĠBASE":5594,"Ver":5595,"CKET":5596,"ĠON":5597,"ĠTemp":5598,"Ġnodes":5599,"Ġauth":5600,"UNUSED":5601,"LS":5602,"Ġmapping":5603,"Ġprefix":5604,"need":5605,"Ġcaller":5606,"ross":5607,"CN":5608,"NEW":5609,"direction":5610,"argc":5611,"TCP":5612,"ĠNumber":5613,"icro":5614,"Ġgover":5615,"MESSAGE":5616,"RIPT":5617,"remote":5618,"Ġselected":5619,"Vol":5620,"Bl":5621,"member":5622,"Ġva":5623,"prite":5624,"Ġexpression":5625,"EV":5626,"container":5627,"front":5628,"uv":5629,"rpc":5630,"LICENSE":5631,"Ġsql":5632,"multi":5633,"ands":5634,"Ġfont":5635,"300":5636,"uler":5637,")/":5638,"ironment":5639,"}},":5640,"Dim":5641,"ĠList":5642,"ĠAc":5643,"tick":5644,"Ġfill":5645,"alette":5646,"Ġextra":5647,"899":5648,"ĠLoc":5649,"2000":5650,"tern":5651,"drvdata":5652,"Ġbtrfs":5653,"oke":5654,"icen":5655,"PRIV":5656,"utf":5657,"lour":5658,"UV":5659,"Case":5660,"Report":5661,"lick":5662,"iphy":5663,"NORMAL":5664,"ÃĬ":5665,"Ġknow":5666,"UTF":5667,"Ġactual":5668,"ctp":5669,"tg":5670,"payload":5671,"ĊĉĉĉĉĉĠĠĠĠĠ":5672,"Ġmultiple":5673,"decode":5674,"Ġdisclaimer":5675,"MAR":5676,"ever":5677,".</":5678,"Ġ\"../":5679,"Ġ28":5680,"ĠĊĠĠĠĠĠĠĠĠĠĠĠĠĠĠĠĠĠĠĠĠĠĠĠĠĠĠ":5681,"sage":5682,"ĠDef":5683,"Description":5684,"OPER":5685,"Ġpending":5686,"AY":5687,"ren":5688,"ibility":5689,"yg":5690,"LABEL":5691,"GB":5692,"argument":5693,"cv":5694,"mnt":5695,"Ġdentry":5696,"ĠYY":5697,"Normal":5698,"Ġcons":5699,"Ġobjects":5700,"Ġdirection":5701,"CSR":5702,"pub":5703,"Ġfinal":5704,"ĠOutput":5705,"segment":5706,"SELECT":5707,"Ġcounter":5708,"NA":5709,"Ġforce":5710,"ĠSQL":5711,"Hal":5712,"STATIC":5713,"metadata":5714,"fast":5715,"COPY":5716,"elegate":5717,"ited":5718,"warning":5719,"dirty":5720,"]))":5721,"SING":5722,"ĠTCP":5723,"mfd":5724,"Support":5725,"ENTI":5726,"ati":5727,"Step":5728,"LV":5729,"try":5730,"INTERFACE":5731,"Ġwithi":5732,"Ġwithin":5733,"Ġanother":5734,"ather":5735,"scsi":5736,"VERT":5737,"Ġfs":5738,"prod":5739,"compat":5740,".\"":5741,"ĠInitialize":5742,"ĊĉĉĉĉĉĉĠĠĠ":5743,"Ġnl":5744,"Ġnfs":5745,"ĠKey":5746,"||":5747,"OV":5748,"BS":5749,"xFFFFFFFF":5750,"TEXTURE":5751,"ToString":5752,"aration":5753,"XML":5754,"Order":5755,"surface":5756,"EFAULT":5757,"cfs":5758,"ELE":5759,"INCLUDING":5760,"asses":5761,"locked":5762,"Ġarea":5763,"hand":5764,"Region":5765,"ĠÐ":5766,"Ġedge":5767,"ACCESS":5768,"akes":5769,"ically":5770,"Ġexcept":5771,"ĠReset":5772,"Ġ</":5773,"meta":5774,"Ġyet":5775,"Database":5776,"buffers":5777,"Wallet":5778,"VOID":5779,"ĠSystem":5780,"MOVE":5781,"Ġ\"-":5782,"LOCAL":5783,"cover":5784,"Sequence":5785,"[%":5786,"cluding":5787,"commit":5788,"Real":5789,"acl":5790,"Ġ%%":5791,"Ġmemset":5792,"pow":5793,"dge":5794,"ANY":5795,"ĠSele":5796,"dk":5797,"variable":5798,"Ġspeed":5799,"Ġurl":5800,"ĠĠĊ":5801,"generic":5802,"Ġdiag":5803,"Ġdisabled":5804,"dep":5805,"ENCE":5806,"hcd":5807,"finit":5808,"Ġsort":5809,"rf":5810,"Sw":5811,"Ġwriting":5812,"ĠXML":5813,"MIX":5814,"Ġincluded":5815,"tool":5816,"mgr":5817,"xhci":5818,"Ġ&(":5819,"CLU":5820,"ĠRef":5821,"Ġcurrently":5822,"game":5823,"Ġ*=":5824,"warn":5825,"MACH":5826,"ĉĉĉĉĉĉ":5827,"Ġident":5828,"fixed":5829,"web":5830,"Reference":5831,"ĠAlloc":5832,"Ġes":5833,"ĠRedistributions":5834,"VED":5835,"rier":5836,"mu":5837,"Ġuses":5838,"Search":5839,"ĠĊĠĠĠĠĠĠĠĠĠĠĠĠĠĠĠĠĠĠĠĠĠĠĠĠĠĠĠ":5840,"ĠWindow":5841,"Ġchain":5842,"ond":5843,"Ow":5844,"Ġ*)(":5845,"ens":5846,"CLO":5847,"Meta":5848,"Ġdynamic":5849,"ãģ":5850,"Ġkeep":5851,"Integer":5852,"Ġdw":5853,"Ġgst":5854,"Ġ26":5855,"Ġdistribution":5856,"ITS":5857,"Ġrunning":5858,"Ġlower":5859,"RAW":5860,"resize":5861,"ĠAs":5862,"acters":5863,"ĠDevice":5864,"intel":5865,"Ġwidget":5866,"Ġobtain":5867,"fa":5868,"INTERNAL":5869,"Ġapply":5870,"rm":5871,"+=":5872,"SIGN":5873,"reserve":5874,"slice":5875,"irqsave":5876,"CAN":5877,"split":5878,"Ġhal":5879,"Ġproduct":5880,"CAL":5881,"BEGIN":5882,"fifo":5883,"ĠEvent":5884,"family":5885,"uted":5886,"Seg":5887,"encoder":5888,"509":5889,"Ġarch":5890,"ĠAws":5891,"Ġms":5892,"plane":5893,"Ġ1024":5894,"ĠPointer":5895,"ĠOS":5896,"IGHT":5897,"ĠArray":5898,"au":5899,"Ġsuccessful":5900,"Ġfinis":5901,"STACK":5902,"Section":5903,"Pack":5904,"Ġge":5905,"GER":5906,"extent":5907,"ommu":5908,"xffffffff":5909,"threshold":5910,"emit":5911,"Ġnt":5912,"constant":5913,"Ġ51":5914,"unmap":5915,"Ġcleanup":5916,"ĠVal":5917,"ees":5918,"AUDIO":5919,"ĠItem":5920,"esses":5921,"Ġstyle":5922,"Ġcalls":5923,"Auth":5924,"Ġside":5925,"coi":5926,"ISING":5927,"ĠCMD":5928,"transaction":5929,"ĠMax":5930,"\":":5931,"]));":5932,"Ġcurr":5933,"Properties":5934,"ĠCor":5935,"Protocol":5936,"Ġhardware":5937,"Ġcorrespon":5938,"IPS":5939,"Points":5940,"Delegate":5941,"Inv":5942,"BUT":5943,"arger":5944,"Ġsmall":5945,"usage":5946,"nse":5947,"Common":5948,"acon":5949,"ĠApp":5950,"ances":5951,"ĠVM":5952,"DY":5953,"Ġ22":5954,"ĠNL":5955,"pwr":5956,"MEMORY":5957,"SND":5958,"Acc":5959,"Ġtrace":5960,"alance":5961,"UNKNOWN":5962,"tuple":5963,"Feature":5964,"vertex":5965,"plugin":5966,"COND":5967,"Ġexample":5968,"ERO":5969,"MEDI":5970,"XY":5971,"Chain":5972,"Ġcs":5973,"hp":5974,"supported":5975,"Ġpresent":5976,"DAP":5977,"ATTRIB":5978,"setting":5979,"HC":5980,"Plugin":5981,"ird":5982,"ioc":5983,"gu":5984,"Only":5985,"BG":5986,"ĠSIGN":5987,"LT":5988,"reference":5989,"Ġinstruction":5990,"ĠPFN":5991,"Ġmenu":5992,"ĠClear":5993,"bose":5994,"ulong":5995,"Unknown":5996,"requency":5997,"ives":5998,"Guid":5999,"Ġreason":6000,"Ġsuper":6001,"Ġinitialize":6002,"ĠUnit":6003,"Ġdump":6004,"ĠNew":6005,"ĠDO":6006,"Ġcomplete":6007,"ntic":6008,"tok":6009,"Ġregulator":6010,"HDR":6011,"HO":6012,"Ġpop":6013,"STER":6014,"mar":6015,"=-":6016,"slave":6017,"oss":6018,"CONTEXT":6019,"psz":6020,"Ġleast":6021,"ĠDAMAGES":6022,"002":6023,"JS":6024,"Ġassign":6025,"Ġendif":6026,"seconds":6027,"Ġps":6028,"Ġfix":6029,"RESER":6030,"lower":6031,"Ob":6032,"coin":6033,"Ġfp":6034,"Ġsup":6035,".*":6036,"skill":6037,"Ġts":6038,"egra":6039,"BD":6040,"Ġown":6041,"Wi":6042,"Connect":6043,"andid":6044,"sector":6045,"Ġtimes":6046,"entity":6047,"ĠDel":6048,"Ġperform":6049,"ulk":6050,"RESOURCE":6051,"Ġ21":6052,"Ġdisk":6053,"Items":6054,"Ġtransfer":6055,"MAG":6056,"ocus":6057,"NON":6058,"extension":6059,"ĠAUT":6060,"Ġfmt":6061,"ĠINCLUDING":6062,"prepare":6063,"Ġscreen":6064,"program":6065,"INS":6066,"gy":6067,"intr":6068,"Provider":6069,"Expression":6070,"Ġbox":6071,"Ġ{{":6072,"Ġsec":6073,"STEM":6074,"Ġ23":6075,"mesh":6076,"ĠIF":6077,"Ġitems":6078,"Begin":6079,"ude":6080,"soft":6081,"aux":6082,"SPELL":6083,"***/":6084,"GT":6085,"Depth":6086,"None":6087,"IDX":6088,"GUI":6089,"egr":6090,"cessary":6091,"features":6092,"cessed":6093,"png":6094,"Ġsens":6095,"Ġ27":6096,"PASS":6097,"fff":6098,"Ġdevices":6099,"]]":6100,"LIMIT":6101,"\").":6102,"Ġclo":6103,"ĠSN":6104,"ngx":6105,"ĠRemove":6106,"ANI":6107,"Ġlines":6108,"Ġcontroller":6109,"Ġstored":6110,"Off":6111,"Ġmet":6112,"ĠSV":6113,"tls":6114,"UPDATE":6115,"Ġtheir":6116,"ĠARM":6117,"Ġplay":6118,"HZ":6119,"Ġ60":6120,"finis":6121,"Ġmdss":6122,"illi":6123,"Ġhappen":6124,"((\"":6125,"Ġgint":6126,"Ġdefinition":6127,"ĠSTM":6128,"Ġguint":6129,"nic":6130,"siz":6131,"inet":6132,"helper":6133,",%":6134,"ĠPrint":6135,"BUSY":6136,"Ġsegment":6137,"Ġ~(":6138,"SIS":6139,"dist":6140,"MULTI":6141,"AMETER":6142,"Ġpair":6143,"attle":6144,"čĊĠĠĠĠĠĠĠĠĠĠĠĠĠĠĠĠĠĠĠĠĠĠĠĠĠĠĠĠĠĠĠĠ":6145,"lines":6146,"Ġequal":6147,"License":6148,"Ġiterator":6149,"Ġerrors":6150,"sistent":6151,"STD":6152,"Ġcert":6153,"čĊčĊĉ":6154,"0002":6155,"ĠTARGET":6156,"flash":6157,"Ġdig":6158,"Align":6159,"timestamp":6160,"ĠAP":6161,"MON":6162,"Ġaccount":6163,"Ġgood":6164,"Ġalpha":6165,"SETTING":6166,"ĠPROVI":6167,"ĠOther":6168,"CIAL":6169,"transfer":6170,"Mis":6171,"Ġdepth":6172,"osition":6173,"urpose":6174,"sleep":6175,"avig":6176,"Ġ48":6177,"Ġwi":6178,"Ġfrag":6179,"account":6180,"oriz":6181,"XT":6182,"mach":6183,"EFF":6184,"ĠWIN":6185,"Ġvariables":6186,"Ġappro":6187,"ĠSize":6188,"ĠĊĠĠĠĠĠĠĠĠĠĠĠĠĠĠĠĠĠĠĠĠĠĠĠĠĠĠĠĠ":6189,"ĠSpell":6190,"ĊĠĠĠĠĠĠĠĠĊĠĠĠĠĠĠĠ":6191,"Ġnever":6192,"QUEUE":6193,"ĠSub":6194,"GENER":6195,"schedule":6196,"ĠSHA":6197,"istry":6198,"wallet":6199,"perf":6200,"ĠTC":6201,"hid":6202,"reserved":6203,"FileName":6204,"ysical":6205,"mul":6206,"umask":6207,"Ġpkt":6208,"Ġintel":6209,"Ġperf":6210,"Ġcommon":6211,"Scene":6212,"ĠCRC":6213,"Ġbuffers":6214,"Ġomap":6215,"OVER":6216,"pear":6217,"du":6218,"Rad":6219,"union":6220,"DRI":6221,"(___":6222,"XG":6223,"Des":6224,"Ġrequire":6225,"icient":6226,"WITH":6227,"DELAY":6228,"aining":6229,"ÃĦ":6230,")+":6231,"yte":6232,"/>.":6233,"Ġring":6234,"Ġchanges":6235,"builtin":6236,"Sum":6237,"notifier":6238,"cred":6239,"Operation":6240,"tb":6241,"ĠFIXME":6242,"Ġllvm":6243,"EF":6244,"CONNECT":6245,"Ġconn":6246,"OG":6247,"aud":6248,"Ġitr":6249,"ĠEXPRESS":6250,"Ġrule":6251,"Scope":6252,"ERN":6253,"Been":6254,")&":6255,"AIN":6256,"Edge":6257,"ĠHFILL":6258,"Im":6259,"ĠCY":6260,"aced":6261,"ied":6262,"convert":6263,"ĠPROVIDED":6264,"ĠSHALL":6265,"Ġgraph":6266,"ier":6267,"SEQU":6268,"Ġmember":6269,"ĠKIND":6270,"Ġtake":6271,"Driver":6272,"]),":6273,"TRIG":6274,"controller":6275,"RTC":6276,"Full":6277,"ately":6278,"lm":6279,"ilities":6280,"final":6281,"Ġlanguage":6282,"lat":6283,"asure":6284,"lcd":6285,"PROG":6286,"Scroll":6287,"oam":6288,"Ġframes":6289,"unch":6290,"iface":6291,"DIAN":6292,"disp":6293,"************************":6294,"ĊĊĠĠĠĠĠĠĠĠĠĠĠĠĠĠĠĠĠĠĠĠ":6295,"ets":6296,"Ġallowed":6297,"isto":6298,"gain":6299,"Ġfixed":6300,"pred":6301,"NEXT":6302,"čĊčĊč":6303,"faces":6304,"MIC":6305,"Body":6306,"sol":6307,"Av":6308,"DV":6309,"CLOCK":6310,")-":6311,"Total":6312,"ĠUS":6313,"Ġjson":6314,"CONT":6315,"quot":6316,"Ctrl":6317,"4000":6318,"Ġparser":6319,"transport":6320,"WISE":6321,"cancel":6322,"Const":6323,"mal":6324,"Ġmalloc":6325,"Ġconf":6326,"ĠSSL":6327,"VA":6328,"HasBeen":6329,"SHA":6330,"Ġ*__":6331,"Sign":6332,"compare":6333,"hl":6334,"Ġrequested":6335,"Ġresults":6336,"CRY":6337,"roadcast":6338,"lan":6339,">();":6340,"regulator":6341,"Ġ\".":6342,"Rout":6343,"cgroup":6344,"cpus":6345,">\\":6346,")},":6347,"EXPR":6348,"plan":6349,"ĠSUB":6350,"ĠMMC":6351,"ĠGLint":6352,"oll":6353,"ĠJS":6354,"protected":6355,"Equal":6356,"ĠSTAT":6357,"ĠĊĠĠĠĠĠĠĠĠĠĠĠĠĠĠĠĠĠĠĠĠĠĠĠĠĠĠĠĠĠ":6358,"ENSOR":6359,"attach":6360,"Ġremoved":6361,"Ġenough":6362,"čĊĠĠĠĠĠĠĠĠĠĠĠĠĠĠĠĠĠĠĠĠĠĠĠĠĠĠĠĠĠĠĠĠĠ":6363,"Ġaccept":6364,"por":6365,"devices":6366,"cons":6367,"ĠSIGNAL":6368,"ĠWHE":6369,"Ġ\";":6370,"adv":6371,"icensed":6372,"description":6373,"Ġkvm":6374,"rtx":6375,"expected":6376,"Ġrq":6377,"ĠLi":6378,"tot":6379,"GS":6380,"130":6381,"ĠThese":6382,"Ġdet":6383,"dialog":6384,"omap":6385,"Append":6386,"Ġdat":6387,"drm":6388,"Ġ----------------------------------------------------------------":6389,"ĠSW":6390,"ĠEN":6391,"HasBeenSet":6392,"Ġblk":6393,"ENTER":6394,"ĠLIABLE":6395,"Ġpolicy":6396,"ĠBT":6397,"sim":6398,"atin":6399,"Url":6400,"Ġvia":6401,"rag":6402,"feature":6403,"ĠDefault":6404,"Ġpref":6405,"ĠMC":6406,"cos":6407,"ITER":6408,"Ġgot":6409,"ĠWHETHER":6410,"nder":6411,"WINDOW":6412,"ĠWLAN":6413,"Ġfb":6414,"GU":6415,"Account":6416,"ĊĊĠĠĠĠĠĠĠĠĠĠĠĠĠĠĠĠĠĠĠĠĠ":6417,"LER":6418,"chrome":6419,"Counter":6420,"ĠCONTRACT":6421,"Ġcast":6422,"//#":6423,"scope":6424,"Ġignore":6425,"Ġrandom":6426,"single":6427,"Ġ(;":6428,"Ġdid":6429,"argi":6430,"ued":6431,"Ġmulti":6432,"hub":6433,"MALL":6434,"kind":6435,"Ġmost":6436,"MMC":6437,"Man":6438,"ĠCS":6439,"HAVE":6440,"SEQ":6441,"ãĥ":6442,"ved":6443,"Ġrot":6444,"ĠARISING":6445,"Editor":6446,"Ġallocation":6447,"Cor":6448,"FULL":6449,"Browser":6450,"Trace":6451,"Ġ##":6452,"Attributes":6453,"Shared":6454,"zalloc":6455,"mer":6456,"Ġapplication":6457,"]\\":6458,"FIN":6459,"ĠMB":6460,"virt":6461,"mx":6462,"It":6463,"cut":6464,"csi":6465,"Ġextension":6466,"Ġmany":6467,"LEFT":6468,"term":6469,"resources":6470,"ĠDBUG":6471,"Ġpush":6472,"Ġatomic":6473,"help":6474,"Coord":6475,"thd":6476,"security":6477,"One":6478,"Fail":6479,"contents":6480,"Title":6481,"čĊčĊĠĠĠĠĠĠĠ":6482,"Clo":6483,"heme":6484,"Ġbest":6485,"SLOT":6486,"Ġbig":6487,"LOBAL":6488,"mediate":6489,"Ġser":6490,"drop":6491,"SINGLE":6492,"Geometry":6493,"ĠArg":6494,"ternal":6495,"Ġcatch":6496,"cert":6497,"Ġbt":6498,"gg":6499,"Ġnothing":6500,"stdio":6501,"FREQ":6502,"ĠFROM":6503,"ĠCC":6504,"Ġmutex":6505,"BUTTON":6506,"ENDIAN":6507,"rsp":6508,"IOC":6509,"Signal":6510,"ATT":6511,"ats":6512,"ĠDWORD":6513,"Metadata":6514,"ĠNone":6515,"ĠHW":6516,"1024":6517,"lb":6518,"aling":6519,"ĠAL":6520,"STATS":6521,"rypto":6522,"TOP":6523,"UTORS":6524,"BIG":6525,"Ġremote":6526,"ĠReserved":6527,"ĊĊĠĠĠĠĠĠĠĠĠĠĠĠĠĠĠĠĠĠĠĠĠĠ":6528,"tains":6529,"čĊĠĠĠĠĠĠĠĠĠĠĠĠĠĠĠĠĠĠĠĠĠĠĠĠĠĠĠĠĠĠĠĠĠĠ":6530,"Ġerrno":6531,"Ġ59":6532,"uture":6533,"REQUEST":6534,"strlen":6535,"INUX":6536,"vd":6537,"DONE":6538,"accept":6539,"ENODEV":6540,"Ġwarning":6541,"-----":6542,"Native":6543,"argin":6544,"Ġstorage":6545,"ĠOper":6546,"Ġtile":6547,"ĠĊĠĠĠĠĠĠĠĠĠĠĠĠĠĠĠĠĠĠĠĠĠĠĠĠĠĠĠĠĠĠ":6548,"Ġremain":6549,"pattern":6550,"Ġwere":6551,"etric":6552,"cq":6553,"blem":6554,"ports":6555,"ĠBU":6556,"EGER":6557,"Ġconstexpr":6558,"Ġsyn":6559,"Ġff":6560,"basic":6561,"Ġpeer":6562,"VIEW":6563,"Ġrtx":6564,"ĊĊĠĠĠĠĠĠĠĠĠĠĠĠĠĠĠĠĠĠĠĠĠĠĠ":6565,"direct":6566,"ĠField":6567,"\".":6568,"Identifier":6569,"ĠMD":6570,"Ġwake":6571,"ĠTRA":6572,"ĠText":6573,"ĠGtk":6574,"TypeDef":6575,"Ġflush":6576,"Ġ29":6577,"REGISTER":6578,"Ġamount":6579,"diag":6580,"ĠREAD":6581,"hook":6582,"ĠCONTRIB":6583,"DECLARE":6584,"icast":6585,"ĠDEFAULT":6586,"ĊĉĉĊĉ":6587,"after":6588,"ntax":6589,"Ġvert":6590,"EXIT":6591,"factor":6592,"ength":6593,"eek":6594,"STO":6595,"equest":6596,"-------":6597,"Ġ\"[":6598,"Ġcalling":6599,"Post":6600,"ãĤ":6601,"ORDER":6602,"straints":6603,"500":6604,"Ġlayout":6605,"Ġpriority":6606,"IMAGE":6607,"ites":6608,"CURRENT":6609,"Tick":6610,"ĠCONTRIBUTORS":6611,"condition":6612,"OLE":6613,"mk":6614,"DAC":6615,"snprintf":6616,"vfe":6617,"ĠIndex":6618,"Ġstats":6619,"ĊĉĠĠĠĠĠĠĠĠ":6620,"licit":6621,"GRA":6622,"uite":6623,"Ġdatabase":6624,"ĠSLOT":6625,"ĊĊĉĠ":6626,"Ġmaterial":6627,"iov":6628,"CLIENT":6629,"neg":6630,"unknown":6631,"Low":6632,"ĉĠĠĠĠ":6633,"Rule":6634,"Member":6635,"Ġcnt":6636,"console":6637,"PyObject":6638,"parameter":6639,"Uniform":6640,"dom":6641,"Build":6642,"(\"[":6643,"192":6644,"nux":6645,"journal":6646,"Ġnecessary":6647,"Ġcursor":6648,"Ġtexture":6649,"Ġgchar":6650,"ĠThere":6651,"Sys":6652,"words":6653,"Ang":6654,"priority":6655,"Ð¾":6656,"intf":6657,"Ðµ":6658,"ritical":6659,"Pref":6660,"ializer":6661,"DAPM":6662,"Ġbitmap":6663,"Ġdist":6664,"ĠMT":6665,"amma":6666,"ĠChannel":6667,"ivity":6668,"ysis":6669,"REEN":6670,"running":6671,"ĠGLenum":6672,"PFN":6673,"Visible":6674,"ĠCFG":6675,"ĠOTHERWISE":6676,"rtl":6677,"Ġpg":6678,"Ġensure":6679,"Ġpp":6680,"ĠNet":6681,"PWR":6682,"ĠCont":6683,"ixer":6684,"Ġdetermi":6685,"Sound":6686,"ĠPlayer":6687,"FLOW":6688,"prom":6689,"unused":6690,"ĠDefine":6691,"Ġsimple":6692,"ygon":6693,"hdmi":6694,"factory":6695,"omat":6696,"Ġcc":6697,"allocate":6698,"mitive":6699,"ĠTORT":6700,"MDP":6701,"FROM":6702,"202":6703,"Nodes":6704,"UBLE":6705,"Ġ\"<":6706,"ĠBuffer":6707,"Doc":6708,"PLAYER":6709,"Ġcompat":6710,"Ð°":6711,"ĠCopy":6712,"ĠSYS":6713,"Ġapplic":6714,"ĠĊĠĠĠĠĠĠĠĠĠĠĠĠĠĠĠĠĠĠĠĠĠĠĠĠĠĠĠĠĠĠĠ":6715,"SUS":6716,"px":6717,"lang":6718,"čĊĠĠĠĠĠĠĠĠĠĠĠĠĠĠĠĠĠĠĠĠĠĠĠĠĠĠĠĠĠĠĠĠĠĠĠ":6719,"Ser":6720,"RU":6721,"syn":6722,"Renderer":6723,"ĠVIR":6724,"Ġsockaddr":6725,"]+":6726,"ores":6727,"Ġcompute":6728,"Ġpost":6729,"Ġjob":6730,"ipheral":6731,"ENTIAL":6732,"tensor":6733,"Ġruntime":6734,"Ġcopies":6735,"Heap":6736,"Raw":6737,"Ġgfx":6738,"ĉĉĠ":6739,"Xml":6740,"cluster":6741,"Ġdestination":6742,"join":6743,"errors":6744,"tol":6745,"pped":6746,"Push":6747,"Ġunion":6748,"Win":6749,"hentic":6750,"origi":6751,"Delay":6752,"udev":6753,"SLI":6754,"INC":6755,"etype":6756,"Ġfriend":6757,"ium":6758,"Me":6759,"origin":6760,"cu":6761,"sink":6762,"partition":6763,"dap":6764,"IMP":6765,"ĠPFNGL":6766,"kill":6767,"Ġtick":6768,"Vert":6769,"Sched":6770,"/****************************************************************":6771,"foo":6772,"isEmpty":6773,"bm":6774,"ifies":6775,"Ġprofile":6776,"Ġgenerate":6777,"Ġcout":6778,"nex":6779,"........":6780,"adget":6781,"COD":6782,"XP":6783,"ĠSND":6784,"Ġbar":6785,"Ġrv":6786,"MF":6787,"car":6788,"ĠMPI":6789,"dot":6790,"Ġcontents":6791,"ĠRender":6792,"Ġmedi":6793,"ĠAF":6794,"Ġadditional":6795,"Configuration":6796,"Writer":6797,"RESH":6798,"dn":6799,"Make":6800,"aff":6801,"PULL":6802,"selected":6803,"vals":6804,"Ġplace":6805,"kcontrol":6806,"orary":6807,"ÃĲ":6808,"math":6809,"Ġkeys":6810,"allel":6811,"ĠOnly":6812,"Light":6813,"lation":6814,"102":6815,"Ġcharacters":6816,"CASE":6817,"etrics":6818,"VERIFY":6819,"REACH":6820,"0100":6821,"eplace":6822,"llvm":6823,"book":6824,"mr":6825,"Codec":6826,"Json":6827,"Ġpayload":6828,"super":6829,"Ãĸ":6830,"ribe":6831,"Opcode":6832,"ĠProcess":6833,"GF":6834,"Ġ****************************************************************************":6835,"BM":6836,"tsk":6837,"Ġcodec":6838,"jection":6839,"Directory":6840,"uda":6841,"Ġabort":6842,"Ġadapter":6843,"Kit":6844,"peat":6845,"lers":6846,"gui":6847,"ĠLibrary":6848,"Ġlookup":6849,"ĠHD":6850,"ĠForm":6851,"Limit":6852,"endpoint":6853,"Ter":6854,"sprintf":6855,"VC":6856,"Ġ(-":6857,"ires":6858,"Ġbody":6859,"replace":6860,"ĠRec":6861,"ĠConvert":6862,"cdev":6863,"TT":6864,";\\":6865,"umb":6866,"Ġsplit":6867,"Ġfeature":6868,"Ġsafe":6869,"Job":6870,"BAR":6871,"Attrib":6872,"ĠUI":6873,"js":6874,"ison":6875,"++,":6876,"ĠSK":6877,"ĠAudio":6878,"Â»":6879,"random":6880,"WLAN":6881,"lt":6882,"Lookup":6883,"strdup":6884,"Ġoperations":6885,"route":6886,"tid":6887,"aled":6888,"gfx":6889,"Ġpattern":6890,"Ġtty":6891,"Ġprior":6892,"Static":6893,"ios":6894,"ĠBlock":6895,"encode":6896,"Ġreceive":6897,"Destroy":6898,"ĠPHY":6899,"ĠSi":6900,"mouse":6901,"Ġperiod":6902,"IOCTL":6903,"tle":6904,"aving":6905,"nstr":6906,"Insert":6907,"{{":6908,"SPEED":6909,"irr":6910,"Chunk":6911,"fh":6912,"reader":6913,"Tuple":6914,"ĠDW":6915,"============================================================================":6916,"Ġsym":6917,"sip":6918,"ĠState":6919,"ĠMap":6920,"pinfo":6921,"liance":6922,"Quest":6923,"iommu":6924,"ifs":6925,"Master":6926,"packed":6927,"ATOM":6928,"transform":6929,"Ġcause":6930,"vars":6931,"Ġpix":6932,"Ġattributes":6933,"Ġadjust":6934,"legate":6935,"igen":6936,"Ġpad":6937,"ĠFF":6938,"ĠPort":6939,"//----------------------------------------------------------------------------":6940,"PARAMETER":6941,"Ġselection":6942,"EXCE":6943,"SYSTEM":6944,"Contents":6945,"utation":6946,"dummy":6947,"sound":6948,"ĊĊĊĊ":6949,"xfe":6950,"=\\\"":6951,"hz":6952,"LAST":6953,"ĠDisable":6954,"Ġactually":6955,"Ġ--------------------------------":6956,"RS":6957,"dy":6958,"MU":6959,"Ġaccord":6960,"SUPPORTED":6961,"pic":6962,"Pop":6963,"Mutex":6964,"ĠMIN":6965,"9999":6966,"POST":6967,"Ġboot":6968,"################":6969,"ostream":6970,"axis":6971,"PN":6972,"jiffies":6973,"abilities":6974,"irmware":6975,"ĠLay":6976,"gid":6977,"EIO":6978,"cli":6979,"ei":6980,"600":6981,"Ġsepar":6982,"VS":6983,"Async":6984,"...)":6985,"Ġmaster":6986,"Ġincluding":6987,"day":6988,"ĠMessage":6989,"ĠWh":6990,"SSION":6991,"Ġnetdev":6992,"FORCE":6993,"parameters":6994,"Wrapper":6995,"Rot":6996,"nfs":6997,"ALI":6998,"IDLE":6999,"UA":7000,"Ġswap":7001,"Ġprop":7002,"TV":7003,"Ġhdr":7004,"Ġmesh":7005,"ĠJSON":7006,"CY":7007,"rict":7008,"Ġpa":7009,"Ġmessages":7010,"TRANS":7011,"110":7012,"ĠClass":7013,"limits":7014,"ieee":7015,"MENU":7016,"orizont":7017,"Ġextern":7018,"ĠOMAP":7019,"DEP":7020,"Printf":7021,"xFFFF":7022,"ĠĊĠĠĠĠĠĠĠĠĠĠĠĠĠĠĠĠĠĠĠĠĠĠĠĠĠĠĠĠĠĠĠĠ":7023,"duration":7024,"vf":7025,"SEND":7026,"sbi":7027,"rase":7028,"press":7029,"Ġproject":7030,"ZERO":7031,"Ġexists":7032,"CPP":7033,"Ġatom":7034,"mic":7035,"bridge":7036,"nonatomic":7037,"PROP":7038,"NX":7039,"ital":7040,"Ġupper":7041,"ĊĉĠĠĠĠĠĠĠĠĠ":7042,"YY":7043,"Ġflow":7044,"eve":7045,"='":7046,"Ġweight":7047,"reloc":7048,"ĠParse":7049,"RW":7050,"Ġbasic":7051,"Condition":7052,"substream":7053,"SDL":7054,"grid":7055,"INSTANCE":7056,"Ġpng":7057,"arator":7058,"guid":7059,"Ġnegative":7060,"SERVER":7061,"watch":7062,"complex":7063,"Comm":7064,"Ġdissect":7065,"fetch":7066,"selection":7067,"Ġgeneric":7068,"mmap":7069,"Zero":7070,"CREATE":7071,"XXX":7072,"MATCH":7073,"GLenum":7074,"cont":7075,"properties":7076,"Ġdt":7077,"ĠImGui":7078,"INED":7079,"ĠFA":7080,"Ġsnprintf":7081,"ĠOK":7082,"istogram":7083,"FLASH":7084,"Ġinitialized":7085,"DOMAIN":7086,"alias":7087,"Interval":7088,"ERRIDE":7089,"Pattern":7090,"Ġtermin":7091,"EXEC":7092,"clip":7093,"izes":7094,"ĠPIN":7095,"ĠDEF":7096,"success":7097,"smb":7098,"Ġcont":7099,"LCD":7100,"crease":7101,"](":7102,"ĠHOLD":7103,"Go":7104,"INTERRUP":7105,"Ġphy":7106,"groups":7107,"Ġreply":7108,"SPEC":7109,"ĠExt":7110,"LAT":7111,"Ġextent":7112,"Ġscoped":7113,"URA":7114,"PACKET":7115,"Ġscope":7116,"dv":7117,"ĠPTR":7118,"dsp":7119,"Ġstandard":7120,"bank":7121,"batch":7122,"stdlib":7123,"Ġgame":7124,"ron":7125,"Rest":7126,"ictim":7127,"><":7128,"CONN":7129,"ordinate":7130,"EMP":7131,"ĠETH":7132,"Tile":7133,"scroll":7134,"Ċĉĉĉĉĉĉĉĉĉ":7135,"Generic":7136,"Direct":7137,"DAT":7138,"MG":7139,"smp":7140,"Uint":7141,"SHARE":7142,"RESERVED":7143,"touch":7144,"Ġmlx":7145,"dynamic":7146,"mmu":7147,"NUMBER":7148,"Ġmerge":7149,"lision":7150,"Short":7151,"operations":7152,"cplus":7153,"ĠSpec":7154,"HB":7155,"lies":7156,"Ġlet":7157,"RESP":7158,"Rx":7159,"hot":7160,"čĊĠĠĠĠĠĠĠĠĠĠĠĠĠĠĠĠĠĠĠĠĠĠĠĠĠĠĠĠĠĠĠĠĠĠĠĠ":7161,"DWORD":7162,"tf":7163,"POINTER":7164,"wakeup":7165,"completion":7166,"Diff":7167,"Ġtimestamp":7168,"Second":7169,"aligned":7170,"CDC":7171,"nid":7172,"Ġctrl":7173,"Ġfreq":7174,"battery":7175,"Ġtool":7176,"aset":7177,"ĠBOOL":7178,"cookie":7179,"children":7180,"SHORT":7181,"Ġpsz":7182,"uuid":7183,"MARK":7184,"CMP":7185,"STRI":7186,"JSON":7187,"Ġib":7188,"bucket":7189,"CLR":7190,"ĠNET":7191,"Graphics":7192,"Ġcases":7193,"Ġorigi":7194,"Ġmethods":7195,"Ġmacro":7196,"Ġvertex":7197,"abort":7198,"gest":7199,"Enc":7200,"Ġdescription":7201,"ceed":7202,"SIC":7203,"ĠFUN":7204,"Ġorigin":7205,"READY":7206,"Ġgrant":7207,"except":7208,"Ġast":7209,"ĠChar":7210,"bottom":7211,"High":7212,"8994":7213,"ETH":7214,"OLEAN":7215,"__((":7216,"ĠCP":7217,"Ġcorresponding":7218,"ĠApache":7219,"sizei":7220,"Ġopcode":7221,"ny":7222,"Ġfall":7223,"Ġconstructor":7224,"Â´":7225,"Ġsensor":7226,"IPV":7227,"/************************************************************************":7228,"kb":7229,"ĠSP":7230,"Progress":7231,"Ġoptim":7232,"ĠOV":7233,"COMPARE":7234,"rhs":7235,"Ġreading":7236,"processor":7237,"Selected":7238,"Observer":7239,"ino":7240,"Ġetc":7241,"ĠTREE":7242,"},{":7243,"Ġoverflow":7244,"nor":7245,"Sm":7246,"XFF":7247,"ifiers":7248,"Delta":7249,"TEMP":7250,"Ġgrpc":7251,"Ġreinterpret":7252,"Ġ2010":7253,"effect":7254,"INET":7255,"cn":7256,"250":7257,"TRI":7258,"ĠĊĠĠĠĠĠĠĠĠĠĠĠĠĠĠĠĠĠĠĠĠĠĠĠĠĠĠĠĠĠĠĠĠĠ":7259,"ĠMi":7260,"BYTES":7261,"Generator":7262,"Ġbeh":7263,"glew":7264,"orizontal":7265,"Ġretain":7266,"ometh":7267,"BIND":7268,"shutdown":7269,"Ġgenerated":7270,"Listener":7271,"ssid":7272,"IW":7273,"ncmp":7274,"ks":7275,"sfr":7276,"Ġoptional":7277,"ĠCOMP":7278,":\"":7279,"ĠGo":7280,"Ġfn":7281,"ĠIEEE":7282,"ATTA":7283,"uplic":7284,"omething":7285,"Ġserial":7286,"cost":7287,"expression":7288,"Ġderived":7289,"LAPI":7290,"claim":7291,"cipher":7292,"upper":7293,"Elements":7294,"alent":7295,"ĠVK":7296,"eason":7297,"Ġmid":7298,"GNU":7299,"Ġpindex":7300,"KEN":7301,"ĠBSD":7302,"ĠDescription":7303,"ehicle":7304,"ĠBA":7305,"logy":7306,"Help":7307,"Collection":7308,"unref":7309,"ĠResult":7310,"kvm":7311,"lier":7312,"Ġcv":7313,"Ġul":7314,"ĠCount":7315,"Wh":7316,"ĠGEN":7317,"DOUBLE":7318,"Ġchannels":7319,"specific":7320,"Ġpackets":7321,"cplusplus":7322,"Ġexisting":7323,"UNI":7324,"instr":7325,"Speed":7326,"::_":7327,"Ġprec":7328,"Ġusage":7329,"ĠGTK":7330,"come":7331,"BOOST":7332,"queues":7333,"Ġisn":7334,"Angle":7335,"ĊĉĉĉĉĉĉĠĠĠĠ":7336,"234":7337,"Ġnv":7338,"connected":7339,"Ġrecv":7340,"Ġpthread":7341,"slab":7342,"SCR":7343,"ĠBUS":7344,"dh":7345,"DIG":7346,",(":7347,"pn":7348,"Ġvma":7349,"Warning":7350,"pened":7351,"Ġdestroy":7352,"avctx":7353,"crc":7354,"\"]":7355,"ĠDon":7356,"SZ":7357,"XF":7358,"Ġpermissions":7359,"ĠInvalid":7360,"mq":7361,"Clip":7362,"ĠImage":7363,"Sort":7364,"Anim":7365,"ĠNE":7366,"ĠPER":7367,"ves":7368,"bda":7369,"Ġunknown":7370,"pendent":7371,"Ġinsn":7372,"rand":7373,"'.":7374,"nes":7375,"pts":7376,"ĠCLA":7377,"six":7378,"ae":7379,"HP":7380,"REV":7381,"anal":7382,"PIPE":7383,"reason":7384,"Kernel":7385,"Ġsaved":7386,"cture":7387,"Ġcontaining":7388,"_(\"":7389,"Defi":7390,"Ġear":7391,"agement":7392,"avior":7393,"misc":7394,"Ġsb":7395,"GLOBAL":7396,"Ġidle":7397,"Ġwin":7398,"Ġfil":7399,"Ġreplace":7400,"Basic":7401,"aits":7402,"Ġthose":7403,"Ġrequests":7404,"Ġengine":7405,"SMP":7406,"QT":7407,"denc":7408,"Camera":7409,"Ġgboolean":7410,"available":7411,"inf":7412,"Ġless":7413,"160":7414,"Arch":7415,"pw":7416,"Bitmap":7417,"ĠOB":7418,"Ġix":7419,"////////////////////////////////////////////////////////////////////////":7420,"forward":7421,"bw":7422,"Fill":7423,"CLEAR":7424,"ĠSelect":7425,"Custom":7426,"sted":7427,"Seq":7428,"evt":7429,"RP":7430,"strings":7431,"Ġperson":7432,"voltage":7433,"ificate":7434,"pres":7435,"Ġ36":7436,"Ġappear":7437,"Bounds":7438,"ones":7439,"ĠFL":7440,"(&(":7441,"Tensor":7442,"iph":7443,"cols":7444,"mf":7445,"Ġconversion":7446,"ERY":7447,"Ġstmt":7448,"Prop":7449,"rip":7450,"ĠLCD":7451,"avg":7452,"111":7453,"apply":7454,"Lib":7455,"Ġwell":7456,"wiphy":7457,"Ġpartition":7458,"shader":7459,"ĠSIG":7460,"loaded":7461,"TASK":7462,"Requ":7463,"NOP":7464,"ĠĊĠĠĠĠĠĠĠĠĠĠĠĠĠĠĠĠĠĠĠĠĠĠĠĠĠĠĠĠĠĠĠĠĠĠ":7465,"Ġdirectly":7466,"epi":7467,"Loader":7468,"DLL":7469,"ĠMP":7470,"BOARD":7471,"Ġboard":7472,"xfs":7473,"Ġfi":7474,"ĠTA":7475,"Ġ**/":7476,"allocated":7477,"anced":7478,"Origi":7479,"Ġrestri":7480,"Origin":7481,"sembler":7482,"Ġmt":7483,"RELOC":7484,"ĠAUTH":7485,"progress":7486,"ĠUSART":7487,"initialized":7488,"ĠNOTE":7489,"frm":7490,"WD":7491,"??":7492,"Ġsubject":7493,"ofs":7494,"coming":7495,"ssize":7496,"Ġmo":7497,"Ġround":7498,"Â£":7499,"ĠPROC":7500,"initial":7501,"Ġnb":7502,"eet":7503,"Â·":7504,"verage":7505,"iw":7506,"Ġinet":7507,"MAGIC":7508,"HR":7509,"ĠCommand":7510,"connector":7511,"Import":7512,"Ġdoc":7513,"--)":7514,"Ġprob":7515,"vir":7516,"00000002":7517,"ĠFrame":7518,"export":7519,"Clock":7520,"verify":7521,"lend":7522,"Ġlarge":7523,"igr":7524,"zip":7525,"Ġmdp":7526,"ĠCurrent":7527,"LK":7528,"ĠFrank":7529,"Face":7530,"itude":7531,"BIN":7532,"rcv":7533,"EFFECT":7534,"wb":7535,"Ġ2012":7536,"DRIVER":7537,"Ġexternal":7538,"simple":7539,"010":7540,"andidate":7541,"ighbor":7542,"ĠRET":7543,"HTTP":7544,"ĠCOND":7545,"airo":7546,"cy":7547,"Ġregs":7548,"JECT":7549,"VD":7550,"Std":7551,"0000000000000000":7552,"OKUP":7553,"'\\":7554,"FAT":7555,"004":7556,"ĠDISC":7557,"document":7558,"Ġmodification":7559,"operand":7560,"adjust":7561,"forms":7562,"Ġdue":7563,"Ġoperand":7564,"ven":7565,"BLE":7566,"ĠCWE":7567,"vif":7568,"NAMESPACE":7569,"ampler":7570,"qt":7571,"QP":7572,"ĠThread":7573,"cpufreq":7574,"Ġencoding":7575,"Finis":7576,"VP":7577,"VOS":7578,"PKT":7579,"Ġcf":7580,"ĊĉĉĉĉĉĉĉĠ":7581,"DSP":7582,"Direction":7583,"ignore":7584,"ook":7585,"ĠRight":7586,"ĠRequest":7587,"monitor":7588,"Ġassume":7589,"Ġdistance":7590,"Ġut":7591,"Usage":7592,"threads":7593,"center":7594,"Ġcompletion":7595,"heet":7596,"Ġinterval":7597,"urity":7598,"PROPER":7599,"VEC":7600,"---------------------------------------------------------------------------":7601,"eapon":7602,"ality":7603,"tw":7604,"vers":7605,"VECTOR":7606,"ambda":7607,"gent":7608,"Http":7609,"PROM":7610,"Ġvp":7611,"creature":7612,"quire":7613,"aws":7614,"1301":7615,"ĠVer":7616,"none":7617,"/%":7618,"Ġinterrupts":7619,"avail":7620,"nost":7621,"ITCH":7622,"ĠOtherwise":7623,"CALLBACK":7624,"volume":7625,"ĠMI":7626,"ĠGLuint":7627,"ĠCG":7628,"Ġimport":7629,"hex":7630,"Ġcontribut":7631,"Cut":7632,"compute":7633,"EVER":7634,"UG":7635,"Ġsqlite":7636,"ifth":7637,"Ġproperties":7638,"Ġstride":7639,"Ġowner":7640,"Ġsets":7641,"Dictionary":7642,"ĠALL":7643,"RING":7644,"EA":7645,"Db":7646,"Flow":7647,"Ð¸":7648,"Ġthreads":7649,"RELE":7650,"TIFY":7651,"SAMPLE":7652,"ĠSe":7653,"Ġexpress":7654,"ĠSA":7655,"icate":7656,"Ġ2013":7657,"*-":7658,"samples":7659,"ĠRA":7660,"elements":7661,"ĠSTD":7662,"ampling":7663,"ĠFirst":7664,"ivers":7665,"Ġheap":7666,"retry":7667,"backend":7668,"Animation":7669,"fin":7670,"formed":7671,"Notify":7672,"Switch":7673,"Ġprocessing":7674,"Abstract":7675,"Ġexpect":7676,"overlay":7677,"Ġmetadata":7678,"ĠACTION":7679,"finish":7680,"tex":7681,"Ġ){":7682,"netif":7683,"Disable":7684,"Ġ2011":7685,"phase":7686,"Ġ33":7687,"Axis":7688,"Ġfrequency":7689,"Stmt":7690,"ĠĊĠĠĠĠĠĠĠĠĠĠĠĠĠĠĠĠĠĠĠĠĠĠĠĠĠĠĠĠĠĠĠĠĠĠĠ":7691,"Ġcgroup":7692,"thr":7693,"Ġ[%":7694,"ndev":7695,"secs":7696,"PRIVATE":7697,"Ġendpoint":7698,"ĠFranklin":7699,"MISC":7700,"Project":7701,"Volume":7702,"Simple":7703,"dog":7704,"fv":7705,"Ġelf":7706,"ĠFloor":7707,"ratio":7708,"ĠLIB":7709,"ANG":7710,"Ġprotected":7711,"got":7712,"worker":7713,"Ġ2014":7714,"Ġfast":7715,"anaged":7716,"Ġmodified":7717,"uction":7718,"ROP":7719,"ĠENC":7720,"Compare":7721,"ĠVALUE":7722,"Ġsleep":7723,"CTP":7724,"acpi":7725,"ĠMemory":7726,"HPP":7727,"ICT":7728,"Ġngx":7729,"ACCE":7730,"Ġdc":7731,"Exit":7732,"share":7733,"Ġindent":7734,"author":7735,"undle":7736,"FM":7737,"Ġface":7738,"Ġ*>(":7739,"Li":7740,"wrap":7741,"Dep":7742,"scall":7743,"ki":7744,"Ġupdated":7745,"ĠWait":7746,"Ġdrop":7747,"Setup":7748,"Ġseconds":7749,"initialize":7750,"SYN":7751,"before":7752,"erator":7753,"Assert":7754,"IOS":7755,"Trigger":7756,"HL":7757,"Ġ*>":7758,"vlan":7759,"ric":7760,"Ġcalcul":7761,"Dst":7762,"readl":7763,"coeff":7764,"Ġdummy":7765,"vsp":7766,"nullptr":7767,"tempt":7768,"Distance":7769,"xFE":7770,"tables":7771,"MPEG":7772,"SQ":7773,"perm":7774,"Cfg":7775,"Ġproper":7776,"Ġ02110":7777,"aaaa":7778,"android":7779,"Pin":7780,"ĠĠĠĊ":7781,"COR":7782,"Events":7783,"Ġcycle":7784,"oy":7785,"Ġanal":7786,"Ġdhd":7787,"sumer":7788,")\"":7789,"ANK":7790,"relax":7791,"ails":7792,"dle":7793,"ively":7794,"attributes":7795,"Ġrest":7796,"Ne":7797,"ĠLine":7798,"capture":7799,"score":7800,"Reply":7801,"Ġbin":7802,"throw":7803,"clone":7804,"Anal":7805,"oring":7806,"Ġcommands":7807,"ially":7808,"ĠWorld":7809,"ĊĉĠĠĠĠĠĠĠĠĠĠ":7810,"________________":7811,"Ġshape":7812,"Dat":7813,"Ġinside":7814,"gdb":7815,"osite":7816,"ryption":7817,"Priority":7818,"Ġ35":7819,"Ġdecode":7820,"STORE":7821,"FIRST":7822,"Ġcustom":7823,"ĠUser":7824,"ĠPACK":7825,"arp":7826,"Ġtcg":7827,"vdd":7828,"Ġrs":7829,"ĠFifth":7830,"Timeout":7831,"DK":7832,"Ġpo":7833,"ordered":7834,"Gu":7835,"ĠRun":7836,"blob":7837,"Ġhandling":7838,"Ġstarting":7839,"dapm":7840,"conv":7841,"SSID":7842,"Owner":7843,"ĠBFD":7844,"PED":7845,"ĠGr":7846,"assoc":7847,"Ġtim":7848,"ĠSPECIAL":7849,"ĠDISCLA":7850,"Ġband":7851,"Instr":7852,"ecode":7853,"xaa":7854,"LB":7855,"Pipe":7856,"ouch":7857,"NSString":7858,"bounds":7859,"Amount":7860,"SOCKET":7861,"Ġpred":7862,"sets":7863,"ĠNow":7864,"Âĥ":7865,"Ġdate":7866,"ĊĊĉĉĉĉ":7867,"Weight":7868,"INSN":7869,"ĠTimer":7870,"ĠDIRECT":7871,"Ġangle":7872,"may":7873,"ĠNEG":7874,"Ġscr":7875,"party":7876,"toString":7877,"ypes":7878,"SEG":7879,"<<<<<<<<":7880,"Capture":7881,"Ġaxis":7882,"big":7883,"Ġpointers":7884,"pthread":7885,"tor":7886,")]":7887,"Single":7888,"lineno":7889,"GLuint":7890,"JO":7891,"Ġstrings":7892,"EXTEN":7893,"ĠExpr":7894,"Rep":7895,"Ġready":7896,"Ãı":7897,"merge":7898,"Ġrequires":7899,"hint":7900,"written":7901,"0004":7902,"Ġ34":7903,"ndo":7904,"Ġunique":7905,"BF":7906,"ome":7907,"Ġpermitted":7908,"ĠReal":7909,"Ġenter":7910,"10000":7911,"Ġspi":7912,"210":7913,"pMac":7914,"vreg":7915,"SUM":7916,"Success":7917,"ĠPC":7918,"Ġmedia":7919,"uous":7920,"queued":7921,"mbhc":7922,"Ġest":7923,"cycle":7924,"ĉĊ":7925,"sha":7926,"Ġscsi":7927,"phone":7928,"RV":7929,"Ġclean":7930,"():":7931,"ĠčĊ":7932,"Ġgrid":7933,"Ġtitle":7934,"abab":7935,"bias":7936,"AURA":7937,"PHA":7938,"Factor":7939,"NING":7940,"Fixed":7941,"iomem":7942,"Ġsecurity":7943,"contains":7944,"ISR":7945,"SCALE":7946,"Ġdeal":7947,"SUPPLY":7948,"WAKE":7949,"ĠMDP":7950,"Ġmount":7951,"Ġunused":7952,"where":7953,"Exist":7954,"ĠFl":7955,"Ġimplemented":7956,"renderer":7957,"LEEP":7958,"Ġkzalloc":7959,"Ġcpufreq":7960,"Random":7961,"LIGHT":7962,"structions":7963,"Setting":7964,"Ġmult":7965,"ĠContext":7966,"scanf":7967,"Ġfactor":7968,"DECREF":7969,"SHAD":7970,"Ġforward":7971,"Files":7972,"APIENTRY":7973,"Ġhelp":7974,"vendor":7975,"LIT":7976,"Ġmouse":7977,"most":7978,"GX":7979,"project":7980,"Ġplugin":7981,"ĠNUM":7982,"busy":7983,"gadget":7984,"ĠSERVICE":7985,"BlockIndex":7986,"TECT":7987,"*)&":7988,"Ġnla":7989,"Â½":7990,"ĠHRESULT":7991,"ĠNV":7992,"Ġcompare":7993,"best":7994,"Click":7995,"Ġalignment":7996,"which":7997,"ordinates":7998,"MPLATE":7999,"BUILD":8000,"EB":8001,"PFNGL":8002,"chronous":8003,"ĠAnd":8004,"SCHED":8005,"cached":8006,"Ġ\"\";":8007,"builder":8008,"detail":8009,"ĠXXX":8010,"Ġacpi":8011,"Segment":8012,"validate":8013,"Ġrows":8014,"activate":8015,"termin":8016,"Ġmb":8017,"Ġhig":8018,"SCSI":8019,"Ġapplicable":8020,")\");":8021,"Ġkind":8022,"ek":8023,"riptors":8024,"Ġ2009":8025,"failure":8026,"Ġpy":8027,"usion":8028,"rgb":8029,"dwc":8030,"SEQUENTIAL":8031,"directory":8032,"MOV":8033,"rmi":8034,"Bin":8035,"Ġprevent":8036,"Ġca":8037,"<=":8038,"click":8039,"css":8040,"Ġturn":8041,"crypto":8042,"Â±":8043,"ĊĉĠĠĠĠĠĠĠĠĠĠĠ":8044,"alg":8045,"Ġforms":8046,"Ġschedule":8047,"pmd":8048,"ĠFS":8049,"Ġretry":8050,"Ġweb":8051,"ĠĊĠĠĠĠĠĠĠĠĠĠĠĠĠĠĠĠĠĠĠĠĠĠĠĠĠĠĠĠĠĠĠĠĠĠĠĠ":8052,"writer":8053,"REQUI":8054,"oved":8055,"Ġwrong":8056,"ĠTx":8057,"details":8058,"Windows":8059,"saved":8060,"leaf":8061,"Ġkgsl":8062,"walk":8063,"enced":8064,"USR":8065,"INV":8066,"TypeId":8067,"Dlg":8068,"GN":8069,"imate":8070,"native":8071,"ably":8072,"-+-+-+-+":8073,"1111":8074,"disc":8075,"BOOT":8076,"minor":8077,"kobj":8078,"Ãİ":8079,"Could":8080,"Ġappropri":8081,"Tmp":8082,"Ġ\"\");":8083,"usic":8084,"ENTAL":8085,"Focus":8086,"ÑĤ":8087,"Ġ2000":8088,"upd":8089,"LF":8090,"calc":8091,"seud":8092,"Ġequ":8093,"poration":8094,"ĠWith":8095,"Ġsg":8096,"_##":8097,"Cert":8098,"YSQL":8099,">=":8100,"OWER":8101,"ĠScript":8102,"batt":8103,"ASM":8104,"BOOLEAN":8105,"PWM":8106,"mtd":8107,"Ġinitialization":8108,"delayed":8109,"pwm":8110,"shadow":8111,"vr":8112,"FITS":8113,"scene":8114,"ĠINDIRECT":8115,"čĊĉĉĉĉĉ":8116,"Ġminimum":8117,"ĠGst":8118,"rott":8119,"ĠDBG":8120,"ĠCV":8121,"/*!<":8122,"Ġchecks":8123,"ĉĠĠĠĠĠ":8124,"Ġmaterials":8125,"Ġ2008":8126,"GAIN":8127,"=-=-":8128,"prog":8129,"etime":8130,"rans":8131,"xfer":8132,"ĠHOLDERS":8133,"ERA":8134,"*/,":8135,"Ġduration":8136,"Ġtables":8137,"ĠCorporation":8138,"aries":8139,"Ġaddresses":8140,"INITIAL":8141,"Ġprogress":8142,"Blocks":8143,"Ġitself":8144,"apache":8145,"DX":8146,"loader":8147,"good":8148,"custom":8149,"hh":8150,"Ġsq":8151,"Ġslave":8152,"LEX":8153,"UME":8154,"avigation":8155,"MEDIA":8156,"Ġloaded":8157,"Ġverify":8158,"Ġsurface":8159,"mddev":8160,"AMS":8161,"ĠAuthors":8162,"PAN":8163,"Ġimg":8164,"SIX":8165,"STS":8166,"Ġ/*!":8167,"DOM":8168,"80000000":8169,"TM":8170,"ĠSNDRV":8171,"ĠGC":8172,"*);":8173,"Ġnote":8174,"aking":8175,"Coins":8176,"hr":8177,"idual":8178,"ĠAllocate":8179,"Ġhd":8180,"Allow":8181,"getType":8182,"ridge":8183,"ä¸":8184,"Ġbranch":8185,"ĠQVariant":8186,"++){":8187,"ĠARE":8188,"Ġqp":8189,"ĠCM":8190,"Ġscalar":8191,"Ġhid":8192,"detect":8193,"PERM":8194,"Ġappend":8195,"Pix":8196,"GLAPI":8197,"Background":8198,"ĠDAC":8199,"Ġcluster":8200,"&)":8201,"java":8202,".)":8203,"3333":8204,"Â¼":8205,"Ġsigned":8206,"allowed":8207,"ÃĬÃ":8208,"Ġmk":8209,"lop":8210,"ĠSEC":8211,"home":8212,"ĠMatrix":8213,"RIPTION":8214,"ĠAli":8215,"Sn":8216,"ĠPacket":8217,"aken":8218,"Aws":8219,"ĠGLsizei":8220,"Ġsomething":8221,"fault":8222,"Ġstatement":8223,"decoder":8224,"eater":8225,"binary":8226,"ATTER":8227,"Material":8228,"DRM":8229,"ĠCONDITION":8230,"THRESH":8231,"ĉĉĠĠ":8232,"PPC":8233,"ĠWR":8234,"wrapper":8235,"caster":8236,"REL":8237,"cho":8238,"Ġnor":8239,"Ġcre":8240,"SCRIPT":8241,"čĊĠĠĠĠĠĠĠĠĠĠĠĠĠĠĠĠĠĠĠĠĠĠĠĠĠĠĠĠĠĠĠĠĠĠĠĠĠ":8242,"GPU":8243,"agick":8244,"aves":8245,"Ġhalf":8246,"Ġconnected":8247,"Ġresources":8248,"Alpha":8249,"ĠHOW":8250,"Ġ80":8251,"Ãĥ":8252,"compress":8253,"DEL":8254,"Elem":8255,"ROOT":8256,"Ġdx":8257,"Ġath":8258,"POSITION":8259,"Ġmanager":8260,"ĠCONSEQUENTIAL":8261,"Ġ[[":8262,"Ġdm":8263,"ple":8264,"Pending":8265,"cmds":8266,"ĠMask":8267,"Ġxhci":8268,"headers":8269,"//****************************************************************************":8270,"restart":8271,"ĠPLL":8272,"Ġreally":8273,"Ġ}},":8274,"ĠOffset":8275,"distance":8276,"Allocator":8277,"MOTE":8278,"ELEMENT":8279,"Ġaf":8280,"Ġ\":":8281,"ĠĊĠĠĠĠĠĠĠĠĠĠĠĠĠĠĠĠĠĠĠĠĠĠĠĠĠĠĠĠĠĠĠĠĠĠĠĠĠ":8282,"Ġthreshold":8283,"&,":8284,"ĠFIF":8285,"SIM":8286,"INTEGER":8287,"RCC":8288,"Ġwaiting":8289,"ALOG":8290,"Ġsctp":8291,"strncmp":8292,"ĠLocal":8293,"127":8294,"KP":8295,"Ġcreat":8296,"007":8297,"Complete":8298,"ĠMEM":8299,"FOUND":8300,"wchar":8301,"Ãį":8302,"DIE":8303,"numeric":8304,"ĠĊĉĉ":8305,".%":8306,"DW":8307,"TRIGGER":8308,"ĠDT":8309,"Ġfw":8310,"Found":8311,"ential":8312,"Ġidentifier":8313,"GENCE":8314,"Ġmean":8315,"ĠFE":8316,"DUMP":8317,"Ident":8318,"ĠPROFITS":8319,"ĠMS":8320,"Ġchan":8321,"aging":8322,"Ġbp":8323,"soap":8324,"sired":8325,"REAL":8326,"functions":8327,"Ġ\"(":8328,"Monitor":8329,"produce":8330,"*)(":8331,"Ġrd":8332,"Boolean":8333,"Ãĵ":8334,"PART":8335,"[],":8336,"Lower":8337,"Ġ512":8338,"++++++++":8339,"xmm":8340,"CLOSE":8341,"ĠRet":8342,"lun":8343,"ĠENABLE":8344,"Zone":8345,"ĠpMac":8346,"Cnt":8347,"visible":8348,"LIGENCE":8349,"disabled":8350,"\"%":8351,"Enter":8352,"Dist":8353,"MMU":8354,"CV":8355,"LOOP":8356,"Ġhelper":8357,"Ġvolume":8358,"Platform":8359,"DEFINED":8360,"APB":8361,"RAP":8362,"IBILITY":8363,"390":8364,"ĠNEGLIGENCE":8365,"verbose":8366,"LOOKUP":8367,"NPC":8368,"ays":8369,"Notification":8370,"Ġjiffies":8371,"ipi":8372,"PREFIX":8373,"sue":8374,"abc":8375,"ĠLOSS":8376,"ĠPA":8377,"Ġhci":8378,"SSI":8379,"Role":8380,"Ġphase":8381,"DISPLAY":8382,"ipc":8383,"ĠACPI":8384,"008":8385,"aker":8386,"hu":8387,"Ġcompliance":8388,"dential":8389,"rieve":8390,"mysql":8391,"Colour":8392,"xfc":8393,"usr":8394,"ĠCLK":8395,"ĠAb":8396,"MSC":8397,"LAYER":8398,"ÂĤ":8399,"HERE":8400,"ATOMIC":8401,"ĠSTRICT":8402,"Ġcar":8403,"DIP":8404,"Ġautomat":8405,"ĠPOWER":8406,"Information":8407,"COUN":8408,"online":8409,"OTG":8410,"Hint":8411,"fun":8412,"Ġignored":8413,"Ġoccur":8414,"Paint":8415,"Ġ).":8416,"VERTEX":8417,"Wnd":8418,"INCLU":8419,"udp":8420,"ailing":8421,"puts":8422,"Ġjs":8423,"ĠPRI":8424,"Ġbounds":8425,"Ġcompiler":8426,"Operator":8427,"JOR":8428,"Machine":8429,"Ġgfp":8430,"lict":8431,"REGION":8432,"ĠWL":8433,"ALLOW":8434,"ulse":8435,"adj":8436,"ĠSTA":8437,"Ġtransform":8438,"Ġskill":8439,"Ġ*/,":8440,"Ġ330":8441,"atype":8442,"lace":8443,"ĠPWM":8444,"(\"-":8445,"password":8446,"TG":8447,"Ġrtl":8448,"ggle":8449,"erences":8450,"Disk":8451,"Filename":8452,"FOREACH":8453,"Ġtm":8454,"Ġops":8455,"pull":8456,"operation":8457,"PROPERTY":8458,"stit":8459,"reno":8460,"branch":8461,"My":8462,"valuate":8463,"mdss":8464,"encoding":8465,"Virtual":8466,"aise":8467,"ĠPre":8468,"Ġconsider":8469,"Ġbottom":8470,"Dynamic":8471,"ACC":8472,"actual":8473,"Ġusers":8474,"Ġcamera":8475,"mtu":8476,"zer":8477,">\"":8478,"Ġdefines":8479,"Ġci":8480,"Ġicon":8481,"utor":8482,"Ġsv":8483,"span":8484,"Ġcommit":8485,")((":8486,"FilePath":8487,"chars":8488,"Ġcalculate":8489,"ĠEXTI":8490,"xpr":8491,"CRC":8492,"overflow":8493,"Wr":8494,"ĠModel":8495,"padapter":8496,"ĠHow":8497,"ĠEND":8498,"ĠĊĠĠĠĠĠĠĠĠĠĠĠĠĠĠĠĠĠĠĠĠĠĠĠĠĠĠĠĠĠĠĠĠĠĠĠĠĠĠ":8499,"Prefix":8500,"ĠNe":8501,"urst":8502,"erature":8503,"XXXX":8504,"ĠPlace":8505,"ĠLicensed":8506,"ĠSince":8507,"streams":8508,"eeprom":8509,"debugfs":8510,"clusive":8511,"SIGNAL":8512,"Ġsamples":8513,"Convert":8514,"firm":8515,",},":8516,"Ġknown":8517,"Ġlhs":8518,"xcc":8519,"yyvsp":8520,"Ġshall":8521,"gem":8522,"ittle":8523,"Latin":8524,"STIT":8525,"prio":8526,"sysfs":8527,"Sem":8528,"Diag":8529,"Ġ2015":8530,"ODS":8531,"hip":8532,"casecmp":8533,"bdev":8534,"ube":8535,"Any":8536,"Ġplane":8537,"TRACK":8538,"optional":8539,"Ġextract":8540,"čĊĠĠĠĠĠĠĠĠĠĠĠĠĠĠĠĠĠĠĠĠĠĠĠĠĠĠĠĠĠĠĠĠĠĠĠĠĠĠ":8541,"ĠSUCH":8542,"Ġaccording":8543,"MASTER":8544,"eration":8545,"CIDENTAL":8546,"ĠTRACE":8547,"ĠtANI":8548,"precated":8549,"TAB":8550,"CNTL":8551,"Old":8552,"dispatch":8553,"QUERY":8554,"Statement":8555,"Ġexact":8556,"ĠStream":8557,"install":8558,"objects":8559,"Ġfirmware":8560,"ĠARG":8561,"Ġanything":8562,"Qual":8563,"Dict":8564,"ĠColor":8565,"MPI":8566,"564":8567,"Ġ99":8568,"Ġgets":8569,"5555":8570,"Ġheaders":8571,"ĠINCIDENTAL":8572,"radio":8573,"Ġgcc":8574,"Ġgc":8575,"STEP":8576,"Ġdot":8577,"wp":8578,"ĠTry":8579,"\")));":8580,"arison":8581,"Ġ});":8582,"120":8583,"Ġcreature":8584,"accel":8585,"Patch":8586,"Done":8587,"mgmt":8588,"weak":8589,"Binary":8590,"Ġquest":8591,"Ġhttps":8592,"Ð½":8593,"020":8594,"ĠQStringLiteral":8595,"Ġpurpose":8596,"ĠVER":8597,"SCII":8598,"parm":8599,"PUB":8600,"Checked":8601,"hist":8602,"ĠLP":8603,"UREMENT":8604,"Â¹":8605,"ALPHA":8606,"world":8607,"Ġconsole":8608,"ĠGLfloat":8609,"Ġbb":8610,"Ġ45":8611,"stdout":8612,"ĠINTERRUP":8613,"indices":8614,"Constraint":8615,"elocity":8616,"major":8617,"verter":8618,"xp":8619,"ĠSm":8620,"sdio":8621,"ĠDelete":8622,"ĠWindows":8623,"Ġlim":8624,"ĠAct":8625,"ĠFIFO":8626,"INTERRUPT":8627,"Ġconstruct":8628,"Ġgoverning":8629,"Duration":8630,"lhs":8631,"Decoder":8632,"MV":8633,"arb":8634,"wer":8635,"ression":8636,"ĠMac":8637,"ĠSL":8638,"hold":8639,"SMB":8640,"Initialize":8641,"ĠAuthor":8642,"cpumask":8643,"supply":8644,"SERIAL":8645,"ĠĠĊĠĠĠĠĠ":8646,"Book":8647,"eader":8648,"Best":8649,"ĠCreature":8650,"Ġgfc":8651,"ĊĉĉĉĉĉĠĠĠĠĠĠ":8652,"Ġproxy":8653,"Ġtests":8654,"setText":8655,"imm":8656,"Ġmatches":8657,"ĠCF":8658,"SYSC":8659,"IMED":8660,"ĠCreated":8661,"External":8662,"*/)":8663,"Ãĳ":8664,"ĠTable":8665,"BLK":8666,"=*/":8667,"SYM":8668,"Ġvisible":8669,"Ġmeta":8670,"ĠCOL":8671,"Ġdead":8672,"UGO":8673,"Ġcare":8674,"~~~~~~~~":8675,"Ġrelative":8676,"ATIVE":8677,"ading":8678,"cesses":8679,"ĠURL":8680,"Ġ00":8681,",___":8682,"Ġdetermine":8683,"ĠPh":8684,"Atom":8685,"ĠMUX":8686,"Sim":8687,"INESS":8688,"early":8689,"AIF":8690,"VARI":8691,"Sir":8692,"Hit":8693,"ename":8694,"GSL":8695,"Dispatch":8696,"Ġdirty":8697,"Ġdialog":8698,"Ġreproduce":8699,"wind":8700,"ĠBuild":8701,"allocator":8702,"quant":8703,"magic":8704,"ĠĠĠĠĊ":8705,"0200":8706,"0008":8707,"FIC":8708,"ĠINVALID":8709,"Ġgranted":8710,"ĠUsed":8711,"Shift":8712,"TOM":8713,"asy":8714,"STITUTE":8715,"After":8716,"ILT":8717,"ategy":8718,"ĊĉĠĠĠĠĠĠĠĠĠĠĠĠ":8719,"ĠASN":8720,"seudo":8721,"cus":8722,"cmos":8723,"ĠMove":8724,"ced":8725,"))))":8726,"XGBE":8727,"Ġappropriate":8728,"Ġcx":8729,"ĠFLASH":8730,"AE":8731,"OID":8732,"150":8733,"ByteArray":8734,"ĠTF":8735,"traits":8736,"*****":8737,"packets":8738,"third":8739,"Ġnumbers":8740,">*":8741,"ĠDebug":8742,"Ġtesting":8743,"6000":8744,"ORITY":8745,"ajor":8746,"Ġ\"_":8747,"Ġcut":8748,"ĠĊĠĠĠĠĠĠĠĠĠĠĠĠĠĠĠĠĠĠĠĠĠĠĠĠĠĠĠĠĠĠĠĠĠĠĠĠĠĠĠ":8749,"roma":8750,"aid":8751,"arant":8752,"plat":8753,"Character":8754,"FAST":8755,"ĉĉĉĉĉĉĉ":8756,"tlv":8757,"dns":8758,"ĊĉĉĠĠĠĠĠĠĠ":8759,"Ġallows":8760,"ĠMODE":8761,"JNI":8762,"DIF":8763,"capacity":8764,"ĠModule":8765,"%%%%%%%%%%%%%%%%":8766,"Ġsu":8767,"ĠAssert":8768,"Ġremaining":8769,"VISED":8770,"Ġmysql":8771,"@@":8772,"ĠElement":8773,"Ġheld":8774,"MAJOR":8775,"NOTI":8776,"Ġaround":8777,"CXX":8778,"Ġhandled":8779,"ĠEVEN":8780,"pat":8781,"ĠQList":8782,"Ġvery":8783,"Fields":8784,"Ġdistribute":8785,"Export":8786,"phan":8787,"Panel":8788,"Ġincrement":8789,"Ġbio":8790,"oh":8791,"Unable":8792,"ĠTS":8793,"NAM":8794,"axi":8795,"mes":8796,"Fetch":8797,"Aut":8798,"Ġspin":8799,"//*****************************************************************************":8800,"variant":8801,"Ġuc":8802,"iate":8803,"STM":8804,"ĠDEFINE":8805,"ĠPi":8806,"Fn":8807,"linear":8808,"Le":8809,"Ġcm":8810,"REGS":8811,"ĠCompute":8812,"execute":8813,"kit":8814,"ĠEXE":8815,"rink":8816,"Ġprintk":8817,"]:":8818,"SSIBILITY":8819,"ĠBo":8820,"POL":8821,"Bus":8822,"ĠPF":8823,"Ġloff":8824,"});":8825,"ÑĢ":8826,"FATAL":8827,"Ġ((*":8828,"ĠBYTE":8829,"ĠWAY":8830,"104":8831,"hest":8832,"Ġ\"\"":8833,"Ġalgorithm":8834,"ĠSave":8835,"utes":8836,"listen":8837,"istic":8838,"'ll":8839,"Ġcomment":8840,"xmit":8841,"ĠBASIS":8842,"ĠMethod":8843,"Ġhdd":8844,"DEPTH":8845,"ĠHE":8846,"ĠVec":8847,"PIXEL":8848,"Ġpixels":8849,"DHD":8850,"PROCESS":8851,"parts":8852,"Received":8853,"Frag":8854,"Ġ...)":8855,"Ġcenter":8856,"Swap":8857,"SLEEP":8858,"Ġdefinit":8859,"ĠIXGBE":8860,"ĠADVISED":8861,"Ġds":8862,");\\":8863,"legal":8864,"Sink":8865,"Ġdict":8866,";)":8867,"BSD":8868,"nth":8869,"qos":8870,"ĠClient":8871,"Ġregistered":8872,"als":8873,"ĠSTATUS":8874,"Ġnoexcept":8875,"gst":8876,"quare":8877,"Ġtol":8878,"ĠPI":8879,"Ġnative":8880,"Ġuart":8881,"ubKey":8882,"ĠRO":8883,"pmu":8884,"ĠCONDITIONS":8885,"aunch":8886,"ĠSERVICES":8887,"same":8888,"DEST":8889,"sess":8890,"Stub":8891,"wpa":8892,"AK":8893,"ĠHel":8894,"ĠPOSSIBILITY":8895,"Ġdamage":8896,"INTEL":8897,">;":8898,"emon":8899,"ncpy":8900,"paint":8901,"Ġ44":8902,"IPHER":8903,"Dig":8904,"SENSOR":8905,"SESSION":8906,"VIC":8907,"should":8908,"POLL":8909,"uncate":8910,"čĊĠĠĠĠĠĠĠĠĠĠĠĠĠĠĠĠĠĠĠĠĠĠĠĠĠĠĠĠĠĠĠĠĠĠĠĠĠĠĠ":8911,"Ġarm":8912,"ĠVis":8913,"erc":8914,"ĠCalled":8915,"Ġspecify":8916,"Ã©":8917,"phba":8918,"LINUX":8919,"ĠSwitch":8920,"subdev":8921,"Ġpaint":8922,"ĠHOWEVER":8923,"dyn":8924,"Ġinstr":8925,"olved":8926,"abfd":8927,"Ġreloc":8928,"Ġoffsetof":8929,"ĠQCOMPARE":8930,"results":8931,"half":8932,"Attack":8933,"Ġssl":8934,"Lite":8935,"ĠĠĊĠĠĠĠĠĠĠĠĠĠĠ":8936,"SAFE":8937,"Keys":8938,"ĠGOODS":8939,"agent":8940,"ĠAST":8941,"Runtime":8942,"ĠPL":8943,"()[":8944,"Card":8945,"ĠEnt":8946,"Ns":8947,"<<\"":8948,"ĠLinux":8949,"zon":8950,"Ġcrypto":8951,"Ġti":8952,"ĠMy":8953,"ĠGraph":8954,"ĠSuite":8955,"Ġ{};":8956,"spinlock":8957,"Ġguid":8958,"ĠFormat":8959,"Rows":8960,"Ġdeleted":8961,"ĠPROCUREMENT":8962,"adr":8963,"CHIP":8964,"UMP":8965,"ĠTHEORY":8966,"({":8967,"Ġmade":8968,"routing":8969,"amount":8970,"Ġpatch":8971,"demux":8972,"ĠDECL":8973,"SAVE":8974,"Damage":8975,"ĠBUSINESS":8976,"UNLOCK":8977,"Upd":8978,"ĠRedistribution":8979,"Team":8980,"ĠSUBSTITUTE":8981,"Ġ\\\"%":8982,"istration":8983,"ĠSets":8984,"MPLARY":8985,"ĠACE":8986,"sts":8987,"blank":8988,"ĠNSString":8989,"NDER":8990,"Â¸":8991,"Ass":8992,"ĠRece":8993,"CHG":8994,"DSI":8995,"SUSPEND":8996,"Ġnone":8997,"SHARED":8998,"bx":8999,"ĠULONG":9000,"nner":9001,"Ġ--------":9002,"Ġdescrib":9003,"ĠEXEMPLARY":9004,"Ġgoing":9005,"ĠDraw":9006,"ĠADD":9007,"Ġcolumns":9008,"Ġatoi":9009,"tags":9010,"Der":9011,"ĠStreet":9012,"ĠCAUSED":9013,"ĠMASK":9014,"sectors":9015,"Ġnotify":9016,"des":9017,"icmp":9018,"gbe":9019,"Ġmissing":9020,"Ġcopied":9021,"Ġqemu":9022,"oser":9023,"============":9024,"ĊĉĠĠĠĠĠĠĠĠĠĠĠĠĠ":9025,"Objects":9026,"encil":9027,"Ġsr":9028,"disconnect":9029,"Ġvi":9030,"lee":9031,"history":9032,"algorithm":9033,"ĠDISCLAIMED":9034,"Ġlimitations":9035,"Ġack":9036,"Ġtouch":9037,"ĠSM":9038,"ĠNT":9039,"Drag":9040,"Ġfeatures":9041,"AUX":9042,"Â¿":9043,"Ġpartic":9044,"ifp":9045,"strcpy":9046,"GATE":9047,"adeon":9048,"stage":9049,"ĊĊĉĠĠĠ":9050,"BAND":9051,"dead":9052,"Ġbuff":9053,"inner":9054,"BP":9055,"DES":9056,"ĠInternal":9057,"Ġsf":9058,"ĠCONST":9059,"ĠINTERRUPTION":9060,"ĠMACH":9061,"Ġlight":9062,"green":9063,"Api":9064,"Ġenc":9065,"ĠVAR":9066,"die":9067,"Â¶":9068,"ĠLED":9069,"comment":9070,"PRES":9071,"lev":9072,"Ġentity":9073,"gnore":9074,"TOOL":9075,"!\");":9076,"(){":9077,"Ġchecking":9078,"ICE":9079,"ĠLOCK":9080,"mediately":9081,"Ġsoap":9082,"ĠGame":9083,"Ġwon":9084,"udc":9085,"TYPES":9086,"EXTERN":9087,"actions":9088,"pet":9089,"180":9090,"Cre":9091,"Ġ',":9092,"Ġclip":9093,"Hand":9094,"EXCEPTION":9095,"DN":9096,"ĠOver":9097,"ĠTrue":9098,"ĠEE":9099,"unic":9100,"Si":9101,"Ok":9102,"116":9103,"HDMI":9104,"COMPAT":9105,"mapped":9106,"Ġ63":9107,"ench":9108,"Ġ@{":9109,"Ġsmb":9110,"SERVICE":9111,"PLAT":9112,"Ġrestore":9113,"Ġphysical":9114,"CString":9115,"TEMPLATE":9116,"ĠCUR":9117,"LACE":9118,"THROW":9119,")].":9120,"endian":9121,"Imm":9122,"DELETE":9123,"ĠTarget":9124,"Ġinputs":9125,"Ġrelated":9126,"returns":9127,"geometry":9128,"EMPTY":9129,"pAd":9130,"ÃĪ":9131,"offsets":9132,"Ġ=>":9133,"Ġelem":9134,"Ġleg":9135,"ĠĊĠĠĠĠĠĠĠĠĠĠĠĠĠĠĠĠĠĠĠĠĠĠĠĠĠĠĠĠĠĠĠĠĠĠĠĠĠĠĠĠ":9136,"ĠGlobal":9137,"ĠMark":9138,"Ġcoeff":9139,"LANG":9140,"SLA":9141,"tn":9142,"Remote":9143,"Ġ/=":9144,"Ġtail":9145,"ĠĠĠĊĠĠĠĠĠ":9146,"Combo":9147,"Phase":9148,"Ġtok":9149,"ĠUNIT":9150,"MPLEMENT":9151,"props":9152,"Ġworks":9153,"RAD":9154,"Ġ---":9155,"iop":9156,"ĠDecl":9157,"ish":9158,"UTEX":9159,"Ġmuch":9160,"notation":9161,"ĠPG":9162,"Ġmatching":9163,"ĠCONNE":9164,"Ġproblem":9165,"ĠPlease":9166,"Dump":9167,"199":9168,"dprintk":9169,"scratch":9170,"ĠPNG":9171,"ĠDEVICE":9172,"Pred":9173,"states":9174,"Ġchildren":9175,"nil":9176,"ĠĠĠĊĠĠĠĠĠĠĠĠĠĠĠ":9177,"((*":9178,"xi":9179,"ĠPart":9180,"tod":9181,"1307":9182,"RR":9183,"rates":9184,"fname":9185,"comb":9186,"ters":9187,"Ġhit":9188,"ony":9189,"hba":9190,"Ġ37":9191,"asc":9192,"curve":9193,"ĠsLog":9194,"ĠGe":9195,"ibration":9196,"Ġ2007":9197,"Emit":9198,"greg":9199,"VB":9200,"Ġradeon":9201,"ĠDest":9202,"Sensor":9203,"ropped":9204,"seed":9205,"DataType":9206,"lut":9207,"pixels":9208,"Ġagainst":9209,"dependent":9210,"Ġtv":9211,"IRUGO":9212,"ĠException":9213,"Self":9214,"Ġrestart":9215,"nand":9216,"MIXER":9217,"ĠPRE":9218,"Ġhi":9219,"Ġcached":9220,"Ġadv":9221,"ĠDet":9222,"Ġcli":9223,"holder":9224,"rins":9225,"times":9226,"clean":9227,"644":9228,"ĠCHAR":9229,"Ġmapped":9230,"urf":9231,"peated":9232,"PAL":9233,"Ġboundary":9234,"lope":9235,"MODEL":9236,"ĠHost":9237,"Unicode":9238,"Ġlat":9239,"Ġstrcmp":9240,"567":9241,"SETUP":9242,"norm":9243,"ventory":9244,"apic":9245,"mplementation":9246,"structure":9247,"ili":9248,"-(":9249,"ĠTI":9250,"Mapping":9251,"IEEE":9252,"Ġrcu":9253,"You":9254,"ĠIter":9255,"PTO":9256,"dims":9257,"Ġexecute":9258,"ĠCom":9259,"relaxed":9260,"Ġbackground":9261,"USART":9262,"Ġstuff":9263,"VertexAttrib":9264,"ATTRIBUTE":9265,"ĠFailed":9266,"duc":9267,"xFC":9268,"True":9269,"nm":9270,"unce":9271,"ĠClock":9272,"iation":9273,"Ġlaw":9274,"Ġrev":9275,"compiler":9276,"Ġlonger":9277,"Channels":9278,"Ġmv":9279,"Ġ43":9280,"Ġ42":9281,"\">":9282,"ĠOFF":9283,"RN":9284,"pcie":9285,"cid":9286,"00000004":9287,"ĠOPT":9288,"orse":9289,"Canvas":9290,"Ġrpc":9291,"eval":9292,"Transfer":9293,"frequ":9294,"PRIORITY":9295,"ĠMat":9296,"kp":9297,"NORE":9298,"LM":9299,"arse":9300,"Ġcompleted":9301,"ĠExec":9302,"inputs":9303,"guint":9304,"filp":9305,"Ġ@}":9306,"qq":9307,"TOUCH":9308,"Ġsupports":9309,"cuda":9310,"oked":9311,"Ġduplic":9312,"Ġpackage":9313,"ientation":9314,"ilar":9315,"Ġct":9316,"receive":9317,"Â³":9318,"GFP":9319,"Used":9320,"Buffers":9321,"Ġvos":9322,"lon":9323,"Ġdy":9324,"Ġactiv":9325,"RIX":9326,"rightness":9327,"Ġstarted":9328,"PROTOCOL":9329,"ulated":9330,"reed":9331,"hostname":9332,"Definition":9333,"Accept":9334,"Ġer":9335,"Ġgdb":9336,"Â¬":9337,"Ġsector":9338,"ASSIGN":9339,"rtp":9340,"what":9341,"ĠMM":9342,"ĠExp":9343,"primary":9344,"Sta":9345,"Ġtc":9346,"ĠHas":9347,"Ġdimension":9348,"Center":9349,"SID":9350,"finity":9351,"Ġaligned":9352,"EXTI":9353,"ISO":9354,"ĠVerify":9355,"MessageBox":9356,"Ġtegra":9357,"Security":9358,"urther":9359,"trap":9360,"TD":9361,"ĠSTATE":9362,"ĊĉĉĉĉĉĉĉĠĠ":9363,"Conf":9364,"phi":9365,"maps":9366,"drive":9367,"ares":9368,"[])":9369,"TOKEN":9370,"csr":9371,"386":9372,"Locale":9373,"coord":9374,"ĠMX":9375,"spellInfo":9376,"ĠMin":9377,"dq":9378,"ĠPP":9379,"ĠNON":9380,"Ġrestriction":9381,"THIS":9382,"ĠCOPYING":9383,"ĠAM":9384,"ĠSTDMETHOD":9385,"Ġdyn":9386,"Ġtensor":9387,"SECTION":9388,"APIENTRYP":9389,"prep":9390,"Ġfinish":9391,"Ġflash":9392,"Assign":9393,"Ġhton":9394,"[];":9395,"Note":9396,"product":9397,"Ids":9398,"pause":9399,"Ġ101":9400,"columns":9401,"ĊĉĠĠĠĠĠĠĠĠĠĠĠĠĠĠ":9402,"ĠĊĠĠĠĠĠĠĠĠĠĠĠĠĠĠĠĠĠĠĠĠĠĠĠĠĠĠĠĠĠĠĠĠĠĠĠĠĠĠĠĠĠ":9403,"+(":9404,"Sep":9405,"Ġmx":9406,"Dom":9407,"SUPP":9408,"ĠGF":9409,"Slice":9410,"COMPLETE":9411,"oose":9412,"ĠMENU":9413,"Ġpj":9414,"ICAL":9415,"TAIL":9416,"ao":9417,"ITOR":9418,"Ġfails":9419,"ACPI":9420,"correct":9421,"Download":9422,")|":9423,"Ġ2006":9424,"Ġiwl":9425,"uchar":9426,"SSE":9427,"PROFILE":9428,"arn":9429,"Hex":9430,"Ġwm":9431,"COMMON":9432,"nge":9433,"MID":9434,"wifi":9435,"ĠTemple":9436,"Ġcmp":9437,"Âº":9438,"sembly":9439,"Ġsignature":9440,"Ġwallet":9441,"balance":9442,"'))":9443,"Ġproducts":9444,"ĠĠĠĠĊĠĠĠĠĠ":9445,"SIL":9446,"mvm":9447,"Ġdetect":9448,"Frames":9449,"Ġ56":9450,"oct":9451,"ĠFloat":9452,"picture":9453,"sysctl":9454,"Ġworld":9455,"REP":9456,"onus":9457,"ational":9458,"SIGNED":9459,"Ġsuspend":9460,"&);":9461,"ĠOr":9462,"ĠValid":9463,"-------------------------------------------------------------------------":9464,"Encoding":9465,"ĠCore":9466,"more":9467,"nostic":9468,"dbs":9469,"external":9470,"formance":9471,"ĠDi":9472,"COUNTER":9473,"Div":9474,"ĠEC":9475,"Ġcontact":9476,"Force":9477,"vfs":9478,"DDR":9479,"uffix":9480,"ĠDisplay":9481,"Worker":9482,"Ġfuture":9483,"Tip":9484,"ifications":9485,"application":9486,"Ġwhole":9487,"Ġrank":9488,"scalar":9489,"123":9490,"Ġprot":9491,"irror":9492,"ĠFilter":9493,"Ġindices":9494,"Apply":9495,"uk":9496,"FLUSH":9497,"Ġ02111":9498,"Results":9499,"MK":9500,"Ġdl":9501,"Ġplan":9502,"HEIGHT":9503,"Ġpdata":9504,"WH":9505,"tegra":9506,"Activ":9507,"PEN":9508,"Ġ************************************************************************":9509,"ĠUnivers":9510,"ĠMY":9511,"Ġdefinitions":9512,"background":9513,"0400":9514,"Ġrecur":9515,")];":9516,"ĠAlso":9517,"srv":9518,"Ñģ":9519,"ĠDC":9520,"ĠVol":9521,"Ready":9522,"slots":9523,"Ġcancel":9524,"Ġfreed":9525,"Ġincludes":9526,"DateTime":9527,"ĠGPL":9528,"imize":9529,"Ġpadding":9530,"CARD":9531,"005":9532,"Ġpd":9533,"YUV":9534,"grad":9535,"Ġlocked":9536,"Ġ70":9537,"Ġtemporary":9538,"GetString":9539,"locale":9540,"always":9541,"<>":9542,"Contact":9543,"\"(":9544,"ĠSim":9545,"we":9546,"Ġnpc":9547,"ĠMain":9548,"gf":9549,"Ġindicates":9550,"Ġurb":9551,"224":9552,"compressed":9553,"PRINTF":9554,"ĠGroup":9555,"(\"/":9556,"stand":9557,"refresh":9558,"Put":9559,"Mock":9560,"asn":9561,"ctr":9562,"preter":9563,"SWAP":9564,"border":9565,"Available":9566,"Structure":9567,"REAK":9568,"frequency":9569,"Ġcapture":9570,"Console":9571,"Ġsa":9572,"uspen":9573,"ENA":9574,"ators":9575,"attrib":9576,"ALT":9577,"CSS":9578,"Ġdoing":9579,"{};":9580,"ĠPower":9581,"fds":9582,"Ġii":9583,"llu":9584,"trx":9585,"idi":9586,"ĠCT":9587,"ĠRC":9588,"History":9589,"hentication":9590,"qd":9591,"ology":9592,"Ġ'/":9593,"ENV":9594,"Ġnorm":9595,"ĠĠĠĠĊĠĠĠĠĠĠĠĠĠĠĠ":9596,"previous":9597,"bulk":9598,"Ġbuilder":9599,"Ġagreed":9600,"ĠLE":9601,"ĠVk":9602,"ĠHTTP":9603,"Library":9604,"\\\":":9605,"Ġwchar":9606,"0800":9607,"********************":9608,"Schema":9609,"blue":9610,"EXPECT":9611,"AMP":9612,"Ġ2005":9613,"Ġcy":9614,"Band":9615,"checksum":9616,"ĠNPC":9617,"COMPI":9618,"Ġhr":9619,"NB":9620,"//----------------------------------------------------------------":9621,"Copyright":9622,"Folder":9623,"ĠSome":9624,"ROLL":9625,"leton":9626,"Ġlpfc":9627,"Ġbetter":9628,"Ġtuple":9629,"usec":9630,"MSK":9631,"ĠLink":9632,"Ġnd":9633,"Ġmonitor":9634,"onical":9635,"nop":9636,"114":9637,"Ð¾Ð":9638,"Ġ127":9639,"Ġimmediately":9640,"Ġtid":9641,"ĠProject":9642,"Ġshader":9643,"COVER":9644,"Ġuid":9645,"git":9646,"ĠCB":9647,"Ġ==>":9648,"asis":9649,"ynos":9650,"016":9651,"rient":9652,"Ġunlock":9653,"ĠHID":9654,"iece":9655,"Ġipv":9656,"ĠAuto":9657,"ĠPosition":9658,"Ġmc":9659,"Ġquot":9660,"klass":9661,"Ġdp":9662,"xfd":9663,"Ġdetail":9664,"'ve":9665,"'\",":9666,"mpeg":9667,"TW":9668,"Ġguarant":9669,"poly":9670,"ĠNetwork":9671,"Ġpanel":9672,"GRP":9673,"ĠĊĠĠĠĠĠĠĠĠĠĠĠĠĠĠĠĠĠĠĠĠĠĠĠĠĠĠĠĠĠĠĠĠĠĠĠĠĠĠĠĠĠĠ":9674,"Fi":9675,"acer":9676,"ĊĉĠĠĠĠĠĠĠĠĠĠĠĠĠĠĠ":9677,"Ġscroll":9678,"Io":9679,"hard":9680,"Fast":9681,"ĠRights":9682,"msr":9683,"ĊĉĉĉĉĉĉĠĠĠĠĠ":9684,"Ġfit":9685,"Ġfetch":9686,"Ġhard":9687,"fit":9688,"Ġparts":9689,"BANK":9690,"ĠHash":9691,"lru":9692,"alc":9693,"105":9694,"//-----------------------------------------------------------------------------":9695,"384":9696,"SSIP":9697,"Ġabs":9698,"Ġbug":9699,"Cannot":9700,"generate":9701,"Ġft":9702,"ĠCalculate":9703,"have":9704,"Ġprimary":9705,"exists":9706,"stub":9707,"ournal":9708,"ONA":9709,"isolate":9710,"RELEASE":9711,"Ġbucket":9712,"IMPL":9713,"-%":9714,"ĠGT":9715,"WIDGET":9716,"Ġgoverned":9717,"chor":9718,"ln":9719,"ĠDSP":9720,"ĠSkip":9721,"Wire":9722,"Ġtransition":9723,"ĠOption":9724,"Skip":9725,"Â¡":9726,"rade":9727,"plt":9728,"ĠByte":9729,"refs":9730,"role":9731,"Marker":9732,"Extra":9733,"Overflow":9734,"Interrupt":9735,"ervices":9736,"URI":9737,"ĠWi":9738,"ĠRx":9739,"ĠBG":9740,"binding":9741,"roke":9742,"ĠStop":9743,"Hdd":9744,"Shadow":9745,"Ġreader":9746,"čĊĠĠĠĠĠĠĠĠĠĠĠĠĠĠĠĠĠĠĠĠĠĠĠĠĠĠĠĠĠĠĠĠĠĠĠĠĠĠĠĠ":9747,"Â¤":9748,"ABS":9749,"Alignment":9750,"needed":9751,"peri":9752,"HTML":9753,"Transport":9754,"Ġfc":9755,"Cancel":9756,"Ġ&_":9757,"NOS":9758,"ĠSetup":9759,"Ġpartial":9760,"csd":9761,"115":9762,"ROT":9763,"Ġearly":9764,"0003":9765,"Ġcond":9766,"Grad":9767,"Ġdetected":9768,"ĠWRITE":9769,"prob":9770,"ROID":9771,"Ġ55":9772,"rtw":9773,"ĠIB":9774,"ndx":9775,"ĠCE":9776,"Ġgive":9777,"ĠResource":9778,"ĠSIZE":9779,"Ġtasks":9780,"interp":9781,"summary":9782,"Registry":9783,"Uns":9784,"Ġ39":9785,"/********************************":9786,"opa":9787,"Ġfinished":9788,"Ġbatch":9789,"Attach":9790,"ADIE":9791,"spr":9792,"CAMERA":9793,"motg":9794,"Ġtransport":9795,"Initial":9796,"signature":9797,"Ġreadl":9798,"illiseconds":9799,"tensorflow":9800,"Ġ38":9801,"Ġcharge":9802,"Ġpe":9803,"Ġ**)":9804,"modes":9805,"focus":9806,"Ġpromote":9807,"Break":9808,"RSP":9809,"((\"%":9810,"Ġsol":9811,"MUTE":9812,"Decode":9813,"Ġindicate":9814,"btrfs":9815,"Selector":9816,"Gst":9817,"ĠTRI":9818,"FIXED":9819,"ĠToken":9820,"firmware":9821,"Ġctl":9822,"bot":9823,"IMM":9824,"ĠPol":9825,"substr":9826,"Schedule":9827,"Ġ(*((":9828,"Ġslots":9829,"Ġsending":9830,"getValue":9831,"Cb":9832,"Ġsimp":9833,"ĠQT":9834,"Ġkmalloc":9835,"EST":9836,"Roam":9837,"ĠMedia":9838,"mazon":9839,"Dot":9840,"Ġ[]":9841,"Foundation":9842,"Ġ\")":9843,"Ġinner":9844,"xfb":9845,"ĠBLOCK":9846,"ral":9847,"ponent":9848,"Ġsound":9849,"Plan":9850,"Ġradius":9851,"ĠUInt":9852,"xec":9853,"paque":9854,"Ġedit":9855,"Ġpte":9856,"ceptions":9857,"]\",":9858,"HANDLER":9859,"ĠPlay":9860,"nsure":9861,"Ġchecksum":9862,"//============================================================================":9863,"gpr":9864,"Ġwatch":9865,"anging":9866,"ĠAccess":9867,"mlme":9868,"expand":9869,"ĠUnless":9870,"ĠRecord":9871,"feed":9872,"Ġrem":9873,"mutable":9874,"ĠTensor":9875,"adev":9876,"gi":9877,"ĠPK":9878,"HID":9879,"components":9880,"ĠClose":9881,"hit":9882,"ehci":9883,"lr":9884,"Modifier":9885,"ress":9886,"()(":9887,"Ġparticular":9888,"pendenc":9889,"ĠLength":9890,"INTERVAL":9891,"Period":9892,"Signature":9893,"room":9894,"ĠĠĠĠĠĊĠĠĠĠĠ":9895,"Ġnil":9896,"240":9897,"Ġcontributors":9898,"Ġ>::":9899,"lying":9900,"tml":9901,"arc":9902,"original":9903,"Ġbg":9904,"Ġ240":9905,"fid":9906,"provider":9907,"VIRT":9908,"108":9909,"Entries":9910,"Ġ500":9911,"Ġ46":9912,"PV":9913,"chk":9914,"ĠĠĠĠĠĊĠĠĠĠĠĠĠĠĠĠĠ":9915,"iocb":9916,"ĠCK":9917,"GOT":9918,"ABORT":9919,"Ġcost":9920,"ĠFI":9921,"Ġ----------------------------------------------------------------------------":9922,"Cost":9923,"THRESHOLD":9924,"Ġstrcpy":9925,"ĠĊĠĠĠĠĠĠĠĠĠĠĠĠĠĠĠĠĠĠĠĠĠĠĠĠĠĠĠĠĠĠĠĠĠĠĠĠĠĠĠĠĠĠĠ":9926,"Ġunless":9927,"Ġ>>=":9928,"sdata":9929,"ÃĶ":9930,"keep":9931,"ISP":9932,"nh":9933,"ï¼":9934,"EDTLS":9935,"Chat":9936,"PERIO":9937,"Ġtw":9938,"cerr":9939,"Ġinstructions":9940,"ĠPS":9941,"006":9942,"PARM":9943,"EXTENSION":9944,"Children":9945,"Ġ90":9946,"Ġ-*-":9947,"sibility":9948,"ONENT":9949,"pitch":9950,"ĠĠĠĠĠĊĠĠĠ":9951,"Ġjump":9952,"SWITCH":9953,"osh":9954,"Product":9955,"extensions":9956,"Ġ65":9957,"Ġunits":9958,"Ġ((__":9959,"Ġfragment":9960,"QUIR":9961,"PENDING":9962,"ĠADIE":9963,"Ġprobe":9964,"ĠChange":9965,"ĠAPIENTRY":9966,"fixup":9967,"ÃĴ":9968,"uting":9969,"ĠNAME":9970,"Arena":9971,"ĠĠĠĠĠĠĊĠĠĠĠĠĠĠĠĠĠĠ":9972,"TRFS":9973,"einterpret":9974,"ĠEMC":9975,"ĠNon":9976,"--------------------------------------------------------":9977,"UC":9978,"Merge":9979,"Particle":9980,"Ġable":9981,"SCREEN":9982,"vo":9983,"fops":9984,"Pt":9985,"Ġesc":9986,"shake":9987,"Ġtun":9988,"lab":9989,"MIPS":9990,"Failure":9991,"ĠQObject":9992,"ffffff":9993,"Serial":9994,"RGBA":9995,"ircle":9996,"INGS":9997,"PLATFORM":9998,"pas":9999,"ĠPACKET":10000,"Ġdom":10001,"Other":10002,"ĠPython":10003,"olute":10004,"Split":10005,"Peer":10006,"Ġworker":10007,"Ġdeclaration":10008,"SCI":10009,"USTOM":10010,"INO":10011,"Â²":10012,"AMD":10013,"Ġfront":10014,"Touch":10015,"spe":10016,"NAMIC":10017,"emap":10018,"ĠRelease":10019,"INGE":10020,"ĠQuery":10021,"ĠShould":10022,"NF":10023,"sense":10024,"Now":10025,"PubKey":10026,"ĠVT":10027,"GAME":10028,"Ġĉĉ":10029,"ULONG":10030,"xl":10031,"ĠĠĠĠĠĠĠĊĠĠĠĠĠĠĠĠĠĠĠ":10032,"ADAP":10033,"Ġ2016":10034,"Ġtakes":10035,"compatible":10036,"nexpected":10037,"ĠĠĉ":10038,"ĠMAP":10039,"cogn":10040,"Standard":10041,"Ġtex":10042,"ĠStore":10043,"ĠBits":10044,"Ġmail":10045,"Ġ//!<":10046,"pindex":10047,"isa":10048,"ĠIORESOURCE":10049,"ĠCSS":10050,"BPF":10051,"lk":10052,"identifier":10053,"Ġda":10054,"voice":10055,"ĠAS":10056,"ocation":10057,"aring":10058,"yyval":10059,"logical":10060,"ĠĠĠĠĠĠĊĠĠĠĠĠ":10061,"Units":10062,"125":10063,"sas":10064,"PARAMS":10065,"{}":10066,"Ġifdef":10067,"Ġexecution":10068,"ModelIndex":10069,"Ġundef":10070,"Ġam":10071,"ĠRETURN":10072,"GI":10073,"quad":10074,"Ġhy":10075,"Ġdwc":10076,"testing":10077,"ĠGN":10078,"ĠInst":10079,">(\"":10080,"Utf":10081,"Ġasn":10082,"Processor":10083,"Supported":10084,"umed":10085,"Ġ\"#":10086,"Cluster":10087,"Forward":10088,"ĠConstruct":10089,"wlan":10090,"ko":10091,"ĉĉĠĠĠ":10092,"EAR":10093,"YNOS":10094,"latency":10095,"CFGR":10096,"standard":10097,"editor":10098,"Ġmer":10099,"ĠOVERRIDE":10100,"ĠĠĠĠĠĠĠĠĊĠĠĠĠĠĠĠĠĠĠĠ":10101,"prefs":10102,"MEMBER":10103,"configure":10104,"sdp":10105,"shell":10106,"ĠCommon":10107,"COMB":10108,"Ġrespon":10109,"STE":10110,"Ġ49":10111,"Ġeff":10112,"Ġata":10113,"rnd":10114,"Ġstructures":10115,"////////////////////////////////////////////////////////////////////////////":10116,"Java":10117,"Ġglyph":10118,"pdu":10119,"()).":10120,"AES":10121,"Ġ*((":10122,"Cached":10123,"Ġro":10124,"FFF":10125,"otor":10126,"Reason":10127,"sli":10128,"sps":10129,"ERENCE":10130,"Ġexport":10131,"Ġpoll":10132,"angles":10133,"Ġioctl":10134,"GetGUID":10135,"Ġterm":10136,"database":10137,"čĊĠĠĠĠĠĠĠĠĠĠĠĠĠĠĠĠĠĠĠĠĠĠĠĠĠĠĠĠĠĠĠĠĠĠĠĠĠĠĠĠĠ":10138,"Ġprocessed":10139,"ĠMYSQL":10140,"subsys":10141,"Ġ102":10142,"Agent":10143,"124":10144,"(_(\"":10145,"controls":10146,"ĠDRM":10147,"NEED":10148,"dbus":10149,"ĠHDMI":10150,"Watch":10151,"fragment":10152,"Ġsuccessfully":10153,"ĠLock":10154,"cret":10155,"Skill":10156,"Ġpassword":10157,"alignment":10158,"partial":10159,"guest":10160,"Ġseed":10161,"gre":10162,"sctp":10163,"ĠProgram":10164,"CCR":10165,"going":10166,"delegate":10167,"hb":10168,"clif":10169,"Ġimpl":10170,"DST":10171,"tip":10172,"charger":10173,"ĠEFI":10174,"ĠOPEN":10175,"romium":10176,"ereo":10177,"ĠFP":10178,"locks":10179,"Abs":10180,"ealth":10181,"SCHE":10182,"112":10183,"Ġautomatically":10184,"CHO":10185,"WRAP":10186,"Rank":10187,"ONSE":10188,"JIT":10189,"special":10190,"Ġ2004":10191,"Required":10192,"ultiplier":10193,"SUR":10194,"Rsp":10195,"opaque":10196,"254":10197,"gboolean":10198,"Family":10199,"ĊĉĉĠĠĠĠĠĠĠĠ":10200,"ÃĹ":10201,"Ġbrowser":10202,"ingroup":10203,"Ġmacros":10204,"eof":10205,"EXIST":10206,"stick":10207,"Math":10208,"scape":10209,"Ġcomplex":10210,"override":10211,"Safe":10212,"LSB":10213,"Ġshadow":10214,"ĠĠĊĠĠ":10215,"Category":10216,"ĠWA":10217,"Recv":10218,"legacy":10219,"broadcast":10220,"ATER":10221,"Ġattach":10222,"Ġkmem":10223,"Ġdesired":10224,"Ġpk":10225,"arity":10226,"AGAIN":10227,"umes":10228,"serialize":10229,"maph":10230,"TUN":10231,"EBUSY":10232,"Ġoutside":10233,"funcs":10234,"Ġchecked":10235,"Ġsuc":10236,"ĠFAIL":10237,"construct":10238,"hide":10239,"Ġtg":10240,"Threads":10241,"ooth":10242,"sinfo":10243,"Ġwalk":10244,"VIR":10245,"radius":10246,"ership":10247,"tolua":10248,"timing":10249,"Ġleave":10250,"arrow":10251,"PERF":10252,"ĠFill":10253,"category":10254,"cii":10255,"ĠInterface":10256,"uras":10257,"ĠGenerate":10258,"ĠOpt":10259,"Bg":10260,"DEN":10261,"damage":10262,"nger":10263,"Hdr":10264,"logi":10265,"Ġ204":10266,"rol":10267,"CALLTYPE":10268,"Ġcomplet":10269,"##_":10270,"CHP":10271,"Verify":10272,"Ġins":10273,"Password":10274,"Traits":10275,"Ġax":10276,"bandwidth":10277,"Ġphys":10278,"Ġpfn":10279,"vmx":10280,"ĠSIL":10281,"Final":10282,"Ġ'-":10283,"nat":10284,"ctype":10285,"ĠPPC":10286,"Bss":10287,"ceeded":10288,"Ġiw":10289,"etooth":10290,"Drop":10291,"0010":10292,"DROP":10293,"çļ":10294,"Ġ120":10295,"mpi":10296,"Ġshare":10297,"arations":10298,"Ġaux":10299,"WB":10300,"8921":10301,"ĠGLE":10302,"Ġtransmit":10303,"ĠPermission":10304,"ĠML":10305,"OPERAND":10306,"320":10307,"Ġimm":10308,"çļĦ":10309,"CRYPT":10310,"ĊĉĠĠĠĠĠĠĠĠĠĠĠĠĠĠĠĠ":10311,"Side":10312,"Named":10313,"ĠRF":10314,"ĠFUNCTION":10315,"kgsl":10316,"Ġnotification":10317,"Backend":10318,"VF":10319,"ĠBasic":10320,"Ġlogical":10321,"SOR":10322,"descr":10323,"ĠConstant":10324,"Pad":10325,"etic":10326,"Ġ^=":10327,"ULATOR":10328,"Ġhook":10329,"Writ":10330,"Ġ54":10331,"GENERIC":10332,"00007":10333,"WND":10334,"Ġthings":10335,"gm":10336,"ĠCOMM":10337,"ĠĊĠĠĠĠĠĠĠĠĠĠĠĠĠĠĠĠĠĠĠĠĠĠĠĠĠĠĠĠĠĠĠĠĠĠĠĠĠĠĠĠĠĠĠĠ":10338,"ĠFRA":10339,"wt":10340,"Macro":10341,"rottle":10342,"00000010":10343,"SOFT":10344,"[-":10345,"Bad":10346,"ĠBe":10347,"DUCT":10348,"uspended":10349,"nstruction":10350,"jump":10351,"SCO":10352,"Ġfurther":10353,"instruction":10354,"Ġandroid":10355,"FRINGE":10356,"windows":10357,"Ġborder":10358,"Details":10359,"Ġvirt":10360,"Ġsoc":10361,"ĠPage":10362,"Ġtb":10363,"dac":10364,"Border":10365,"ÂµÃĦ":10366,"ĠCONNECTION":10367,"las":10368,"heel":10369,"Ġvtk":10370,"Ġasm":10371,"ĠInd":10372,"ENCY":10373,"ĠBad":10374,"ĠĠĠĊĠ":10375,"wards":10376,"Sprite":10377,"Ġallocator":10378,"ĠWORD":10379,"beacon":10380,"ĠQStringList":10381,"ilters":10382,"Vtbl":10383,"OMAP":10384,"Ġhot":10385,"ĠInfo":10386,"ansi":10387,"ik":10388,"reach":10389,"palette":10390,"Ġscratch":10391,"APPLE":10392,"evision":10393,"ĠER":10394,"wnd":10395,"reinterpret":10396,"00000020":10397,"Ġisl":10398,"Visitor":10399,"minal":10400,"SRV":10401,"BUILT":10402,"Idle":10403,"BREAK":10404,"ĠINIT":10405,"False":10406,"Ġbeginning":10407,"Unique":10408,"ĠUt":10409,"charset":10410,"remaining":10411,"glyph":10412,"xattr":10413,"Ins":10414,"mmio":10415,"103":10416,"elt":10417,"Ġclosed":10418,"ENOENT":10419,"memcmp":10420,"txq":10421,"UGIN":10422,"STOR":10423,"Ġgeneral":10424,"abling":10425,"ĠAny":10426,"Ġroute":10427,"ĊĊĊĠĠĠĠ":10428,"Ġgf":10429,"Software":10430,"iostream":10431,"allocation":10432,"VOLUME":10433,"Ġsat":10434,"Ġ));":10435,"Orient":10436,"ĠWork":10437,"ĠComm":10438,"444":10439,"ĠMan":10440,"utter":10441,"WNER":10442,"npc":10443,"Ġamd":10444,"Plane":10445,"bios":10446,"ĠFW":10447,"MUTEX":10448,"ĠCompare":10449,"required":10450,"Ġendorse":10451,"Score":10452,"106":10453,"Ġconfigured":10454,"xef":10455,"isc":10456,"LICY":10457,"Ġexpand":10458,"Pa":10459,"ZONE":10460,"ĠDSI":10461,"workqueue":10462,"CODER":10463,"ÃĨ":10464,"fork":10465,"bond":10466,"ÃŃ":10467,"collection":10468,"TAL":10469,"ĠRest":10470,"Ġvoltage":10471,"Ġvisit":10472,"ĠUint":10473,"Ġclasses":10474,"ĠUTF":10475,"team":10476,"Ġcompile":10477,"Ġwords":10478,"ĠĠĠĠĠĠĊĠĠĠ":10479,"Poly":10480,"čĊĠĠĠĠĠĠĠĠĠĠĠĠĠĠĠĠĠĠĠĠĠĠĠĠĠĠĠĠĠĠĠĠĠĠĠĠĠĠĠĠĠĠ":10481,"Ġ47":10482,"Ġstates":10483,"Coi":10484,"ĠBC":10485,"UDP":10486,"ivalent":10487,"DISABLED":10488,"Ġett":10489,"MIPI":10490,"warf":10491,"Ġfault":10492,"arging":10493,"245":10494,"ĠAB":10495,"Ġwrites":10496,"Shutdown":10497,"Ġasync":10498,"emplace":10499,"134":10500,"Coin":10501,"]-":10502,"ĠGURL":10503,"Ġmembers":10504,"xBF":10505,"based":10506,"bn":10507,"RENDER":10508,"sat":10509,"Ġ115":10510,"Ġteam":10511,"Vehicle":10512,"FIXUP":10513,"Pixmap":10514,"isValid":10515,"contact":10516,"ĠTri":10517,"Replace":10518,"****************************":10519,"Ġmakes":10520,"ĠBB":10521,"Present":10522,"ifa":10523,"roken":10524,"Ġide":10525,"ĠDig":10526,"ICON":10527,"></":10528,"mips":10529,"Blob":10530,"ALG":10531,"stm":10532,"Ġalias":10533,"Ġdeve":10534,"isl":10535,"quent":10536,"snapshot":10537,"ĠSupport":10538,"Ġparsing":10539,"Ops":10540,"ieve":10541,"Ġcookie":10542,"ali":10543,")){":10544,"encrypt":10545,"IZE":10546,"guard":10547,"Ġcertain":10548,"Before":10549,"CONNECTION":10550,"statement":10551,"ĠMulti":10552,"Ġlinear":10553,"ĠPath":10554,"links":10555,"RECORD":10556,"fence":10557,"Â¾":10558,"uation":10559,"Mult":10560,"ĠDriver":10561,"alth":10562,"spl":10563,"Ġpinfo":10564,"ercial":10565,"Ġenvironment":10566,"139":10567,"aper":10568,"0020":10569,"AHB":10570,"Ġhad":10571,"INF":10572,"Ġaltern":10573,"00000008":10574,"ĠIPv":10575,"sktop":10576,"Phys":10577,"MALLOC":10578,"mine":10579,"around":10580,"Ġextensions":10581,"unded":10582,"mag":10583,"OLL":10584,"Ġcd":10585,"IPH":10586,"sizes":10587,"dentials":10588,"wcd":10589,"ĠHOST":10590,"ĠPROP":10591,"Ġslice":10592,"Ġboolean":10593,"GNUC":10594,"Radius":10595,"quota":10596,"Ġpv":10597,"ASN":10598,"ĠMachine":10599,"ĠIntel":10600,"urred":10601,"Ġ2003":10602,"Caps":10603,"Ġdrivers":10604,"Ġavio":10605,"Batch":10606,"ĠSw":10607,"Ġ\"\\\"":10608,"sender":10609,"SLAVE":10610,"VIDC":10611,"Logger":10612,"Dem":10613,"prm":10614,"tlb":10615,"Rew":10616,"Ġxfs":10617,"jit":10618,"listener":10619,"Ġef":10620,"Blend":10621,"two":10622,"Leg":10623,"Ġ655":10624,"sep":10625,"Curr":10626,"Ġ{\\":10627,"QUEST":10628,"ĠHowever":10629,"MOUNT":10630,"NP":10631,"Ġversions":10632,"EVT":10633,"ĊĊĊĠĠĠĠĠ":10634,"precision":10635,"Neg":10636,"Threshold":10637,"bufs":10638,"but":10639,")==":10640,"vectors":10641,"ĠGUI":10642,"icture":10643,"ĠUniversity":10644,"received":10645,"Ġprovides":10646,"STAMP":10647,"ural":10648,"ĠAction":10649,"Ġ'.":10650,"ĠĊĠĠĠĠĠĠĠĠĠĠĠĠĠĠĠĠĠĠĠĠĠĠĠĠĠĠĠĠĠĠĠĠĠĠĠĠĠĠĠĠĠĠĠĠĠ":10651,"ĠARI":10652,"marker":10653,"pins":10654,"modify":10655,"svc":10656,"Ġcos":10657,"Ġtransactions":10658,"TED":10659,"btn":10660,"270":10661,"1234":10662,"Ġhandles":10663,"rtimer":10664,"CIPHER":10665,"Functions":10666,"named":10667,"Primitive":10668,"Raster":10669,"okia":10670,"xbf":10671,"Ġil":10672,"Ġgain":10673,"registered":10674,"offs":10675,"168":10676,"CAPT":10677,"VERB":10678,"Ġdecoder":10679,"Ġbehavior":10680,"ons":10681,"iso":10682,"Ġ****************************************************************":10683,"Ġcalc":10684,"Ġhereby":10685,"SKIP":10686,"FIER":10687,"ĊĉĠĠĠĠĠĠĠĠĠĠĠĠĠĠĠĠĠ":10688,"getName":10689,"Ġaddition":10690,"040":10691,"DH":10692,"xcb":10693,"chat":10694,"Ġstarts":10695,"NETWORK":10696,"ĠFlag":10697,"Binding":10698,"iving":10699,"Permission":10700,"ĠMV":10701,"Mov":10702,"FRINGEMENT":10703,"itect":10704,"WP":10705,"768":10706,"insertion":10707,"Ġcoordinates":10708,"apsed":10709,"Ġuv":10710,"answer":10711,"\\\",":10712,"Ġ(*(":10713,"IsValid":10714,"ĠIPC":10715,"WARD":10716,")?":10717,"ĠBCHP":10718,"idev":10719,"ĠWLC":10720,"Unlock":10721,"Ġdownload":10722,"rinsic":10723,"ĠUsage":10724,"Ġattached":10725,"ĠLabel":10726,"Ġpf":10727,"Curve":10728,"Pen":10729,"220":10730,"Ġir":10731,"Ġ96":10732,"ĠBack":10733,"Ġsymbols":10734,"ems":10735,"MAL":10736,"ĠLayout":10737,"Sent":10738,"CRIT":10739,"Ġprocessor":10740,"ĠTcl":10741,"Ãĩ":10742,"ĠRESERVED":10743,"Ġhex":10744,"BSS":10745,"ushed":10746,"ĠSDIO":10747,"everse":10748,"Ġ104":10749,"Pet":10750,"Ġbs":10751,"ĠQWidget":10752,"Ġhistory":10753,"Ġgpointer":10754,"xFD":10755,"ĠServer":10756,"Ġgroups":10757,"configuration":10758,"BROW":10759,"ĠCAM":10760,"mtab":10761,"Ġnp":10762,"syscall":10763,"(::":10764,"resolve":10765,"ATTACK":10766,"UTIL":10767,"grpc":10768,"schema":10769,"character":10770,"Ġgeometry":10771,"ĠBut":10772,"msleep":10773,"Ġqpnp":10774,"Ġ52":10775,"INER":10776,"aj":10777,"ĠProto":10778,"maphore":10779,"Execute":10780,"Bottom":10781,"ĠATA":10782,"GM":10783,"Ġoct":10784,"qcom":10785,"atively":10786,"Ċĉĉĉĉĉĉĉĉĉĉĉĉĉ":10787,"Ġreceiver":10788,"++);":10789,"ĠView":10790,"ising":10791,"NOTIFY":10792,"Flush":10793,"Ġroutines":10794,"sam":10795,"RPM":10796,"Ġjoin":10797,"ĠFB":10798,"Ġvch":10799,"()-":10800,"132":10801,"DISC":10802,"small":10803,"ĠMust":10804,"ĠQVERIFY":10805,"ĠMay":10806,"stp":10807,"Ġprobably":10808,"ĊĉĉĠĠĠĠĠĠĠĠĠ":10809,"ĠJava":10810,"Ġwrap":10811,"ĠTIMER":10812,"Ġvs":10813,"ĉĠĠĠĠĠĠ":10814,"sqlite":10815,"ĠPT":10816,"CONTA":10817,"leave":10818,"users":10819,"Ġai":10820,"ĠSig":10821,"Motion":10822,"alarm":10823,"ROUND":10824,"phrase":10825,"gd":10826,"sch":10827,"aptics":10828,"Ġvc":10829,"ĠDir":10830,"Ġinf":10831,"Qgs":10832,"RESPONSE":10833,".\";":10834,"Ġthd":10835,"https":10836,"ĠAss":10837,"IPC":10838,"Tracker":10839,"Ġparallel":10840,"pel":10841,"ĠAPP":10842,"login":10843,"Language":10844,"Ġ57":10845,"aged":10846,"ĠBool":10847,"refcount":10848,"CTR":10849,"_),":10850,"PHYS":10851,"detach":10852,"nan":10853,"SPR":10854,"setValue":10855,"ĠRS":10856,"Ġprepare":10857,"Conv":10858,"Spin":10859,"acle":10860,"EO":10861,"herit":10862,"Receive":10863,"Ġsizes":10864,"backup":10865,"Ġaud":10866,"Polygon":10867,"met":10868,"EEK":10869,"Ġcorr":10870,"ĠRPC":10871,"like":10872,"čĊĠĠĠĠĠĠĠĠĠĠĠĠĠĠĠĠĠĠĠĠĠĠĠĠĠĠĠĠĠĠĠĠĠĠĠĠĠĠĠĠĠĠĠ":10873,"GetInstance":10874,"glGet":10875,"Plot":10876,"NAND":10877,"vaddr":10878,"OPCODE":10879,"Ġoffsets":10880,"140":10881,"illa":10882,"Ġeverything":10883,"ZONA":10884,"ĠCRY":10885,"ĠPJ":10886,"ĠARIZONA":10887,"420":10888,"INFRINGEMENT":10889,"logger":10890,"clicked":10891,"ansion":10892,"Ġhub":10893,"Ġwhose":10894,"reverse":10895,"hdl":10896,"Ġfilesystem":10897,"Battle":10898,"ents":10899,"Place":10900,"ends":10901,"GRAPH":10902,"ĠĠĠĠĠĠĠĠĠĊĠĠĠĠĠĠĠĠĠĠĠ":10903,"MAKE":10904,"Ġscene":10905,"(*(":10906,"amd":10907,"Ġhint":10908,"Ġpb":10909,"Sym":10910,"Ãĭ":10911,"udelay":10912,"ĠFr":10913,"ĠIW":10914,"Ġ>(":10915,"gfp":10916,"para":10917,"Ġencoded":10918,"IER":10919,"ÃĢ":10920,"ICS":10921,"mooth":10922,"Arguments":10923,"ĠSMB":10924,"ecc":10925,"ĠSp":10926,"ka":10927,"ĠQLatin":10928,"uggest":10929,"Quad":10930,"EDGE":10931,"ĠĊĠĠĠĠĠĠĠĠĠĠĠĠĠĠĠĠĠĠĠĠĠĠĠĠĠĠĠĠĠĠĠĠĠĠĠĠĠĠĠĠĠĠĠĠĠĠ":10932,"Accessor":10933,"Ġrepl":10934,"Ġwriter":10935,"Ġol":10936,"REPORT":10937,"Ġassigned":10938,"Ġcallbacks":10939,"IGNORE":10940,"MHz":10941,"parms":10942,"Ġconfigure":10943,"Ġattempt":10944,"Ġ2002":10945,"Ġinstall":10946,"Ġsoft":10947,"ĠBy":10948,"unlink":10949,"Samples":10950,"Ġpublish":10951,"eries":10952,"Ġbnx":10953,"bcm":10954,"Ġjournal":10955,"Ġstrerror":10956,"charge":10957,"vertices":10958,"irqs":10959,"Regs":10960,"Ġgrad":10961,"clr":10962,"Ġmarked":10963,"undo":10964,"ĠLayer":10965,"THON":10966,"PROT":10967,"SHOW":10968,"ĠConfiguration":10969,"ĠCharacter":10970,"igration":10971,"Equ":10972,"ĠBL":10973,"Ġaway":10974,"stor":10975,"Ġscore":10976,"ĠCALL":10977,"Ãī":10978,"Ġtaken":10979,"Ġincrease":10980,"fatal":10981,"strcasecmp":10982,"MACRO":10983,"year":10984,"ĠčĊĠ":10985,"arest":10986,"Ġxmm":10987,"submit":10988,"ĠLLVM":10989,"ĠVideo":10990,"ĠĠĠĠĠĠĠĠĠĠĊĠĠĠĠĠĠĠĠĠĠĠ":10991,"ĠDeter":10992,"Ġdispatch":10993,"extr":10994,"ĠInsert":10995,"ErrorCode":10996,"vout":10997,"825":10998,"energy":10999,"ĠGeneric":11000,"arguments":11001,"Actor":11002,"Ġagree":11003,"Ġ\"'":11004,"DESCRIPTION":11005,"download":11006,"Ġcorrectly":11007,"Ġdd":11008,"ÃĳÃĳ":11009,"Reserved":11010,"BW":11011,"Ġfamily":11012,"elet":11013,"AUD":11014,"ĠLOC":11015,"Ġsupp":11016,"Ġgreater":11017,"ĠPIO":11018,"Ġlisten":11019,"Need":11020,"Ġperipheral":11021,"Completion":11022,"CAT":11023,"vdev":11024,"ĊĉĉĉĊĉĉ":11025,"PARSE":11026,"xdr":11027,"ĠShow":11028,"language":11029,"Ġbank":11030,"edure":11031,"isr":11032,"Ġlinked":11033,"Sql":11034,"Front":11035,"csum":11036,"Expected":11037,"--------------------------------------------------------------------------":11038,"Holder":11039,"Ġalc":11040,"anim":11041,"Us":11042,"Processing":11043,"AILAB":11044,"Ġrotation":11045,"asing":11046,"ĠCPP":11047,"ĠIM":11048,"dss":11049,"alled":11050,"ĠFlags":11051,"Ġextended":11052,"Running":11053,"Ġerase":11054,"unist":11055,"Ġcomponents":11056,"Ġcontained":11057,"Branch":11058,"Ġgn":11059,"INSERT":11060,"Weapon":11061,"Ġprecision":11062,"since":11063,"SYSCALL":11064,"grade":11065,"ĠED":11066,"ĠĠĠĠĠĠĠĠĠĠĠĊĠĠĠĠĠĠĠĠĠĠĠ":11067,"Ġholding":11068,"ĠStruct":11069,"Ġweak":11070,"canvas":11071,"Ġ66":11072,"ĠRGB":11073,"suf":11074,"presentation":11075,"Ġdrive":11076,"HEX":11077,"ĠSPR":11078,"filesystem":11079,"PROGRAM":11080,"Keyboard":11081,"REN":11082,"ĠImp":11083,"See":11084,"Press":11085,"EMU":11086,"CONSTANT":11087,"eless":11088,"Payload":11089,"GtkWidget":11090,"122":11091,"nested":11092,"toggle":11093,"Ġ%\"":11094,"DAI":11095,"ĊĉĠĠĠĠĠĠĠĠĠĠĠĠĠĠĠĠĠĠ":11096,"PMU":11097,"BRO":11098,"inp":11099,"Ġreverse":11100,"registers":11101,"CAPTURE":11102,"Ġarr":11103,"DIM":11104,"ĠIDC":11105,"Finished":11106,"Ġparsed":11107,"ĉĉĉĠ":11108,"ADV":11109,"totype":11110,"NN":11111,"Ġ'\"":11112,"levels":11113,">\");":11114,"ĠTABLE":11115,"gamma":11116,"ĠAUDIO":11117,"ĠSOCK":11118,"xfa":11119,"Ratio":11120,"ICK":11121,"Ġsel":11122,"pal":11123,"ĠGPU":11124,"čĊčĊĉĉ":11125,"Will":11126,"Ġ68":11127,"Ġdelegate":11128,"]==":11129,"Ġentire":11130,"Ġ41":11131,"Ġ\"=":11132,"general":11133,"ANE":11134,"Ġ!!":11135,"COLL":11136,"Ġwakeup":11137,"ĠNext":11138,"Route":11139,"Ġhda":11140,"THE":11141,"errain":11142,"ĠOMIT":11143,"âĶ":11144,"ANGLE":11145,"pData":11146,"alend":11147,"Ġfar":11148,"ĠDouble":11149,"elong":11150,"Ġregular":11151,"WAYS":11152,"binder":11153,"Ġstage":11154,"setEnabled":11155,"Ġdepend":11156,"Endpoint":11157,"SOCK":11158,"fileName":11159,"Ġresume":11160,"gpi":11161,"rst":11162,"QUIRK":11163,"associ":11164,"drag":11165,"ĠBV":11166,"TEM":11167,"DEAD":11168,"digit":11169,"Ġvid":11170,"Stride":11171,"Priv":11172,"ireless":11173,"Ġtell":11174,"Rotation":11175,"radeon":11176,"Ġreferences":11177,"Ġ@@":11178,"Ġstatistics":11179,"putime":11180,"Term":11181,"Lua":11182,"190":11183,"ĠĠĠĠĠĠĠĠĠĠĠĠĊĠĠĠĠĠĠĠĠĠĠĠ":11184,"Ġaccel":11185,"GPR":11186,"Ã³":11187,"Ġiov":11188,"igrate":11189,"bpp":11190,"ĠAUTHORS":11191,"htool":11192,"interruptible":11193,"Ġtriggered":11194,"FLT":11195,"ĠSCSI":11196,"xaf":11197,"Ġattack":11198,"GEST":11199,"extract":11200,"ĠMIX":11201,"units":11202,"PUBLIC":11203,"daddr":11204,"padding":11205,"Ġpow":11206,"Ġports":11207,"Ġrather":11208,"Ġcfs":11209,"sdev":11210,"Ġencoder":11211,"ĠFC":11212,"gers":11213,"CONTENT":11214,"rew":11215,"Ġblink":11216,"anity":11217,"Tim":11218,"sibly":11219,"Ã¤":11220,"isor":11221,"rename":11222,"ĠCl":11223,"CX":11224,"ĠĊĠĠĠĠĠĠĠĠĠĠĠĠĠĠĠĠĠĠĠĠĠĠĠĠĠĠĠĠĠĠĠĠĠĠĠĠĠĠĠĠĠĠĠĠĠĠĠ":11225,"ĠSU":11226,"ÃĮ":11227,"Ġimplicit":11228,"Comment":11229,"literal":11230,"alendar":11231,"Ãģ":11232,"HDD":11233,"ĠSDHCI":11234,"Ġrenderer":11235,"ĠService":11236,"under":11237,"Ġnotifier":11238,"Ġcam":11239,"pping":11240,"SLIM":11241,"Headers":11242,"DEON":11243,"Ã«":11244,"Ġopts":11245,"Ġ97":11246,"orb":11247,"Ġcreation":11248,"ĠCAP":11249,"Ġthree":11250,"isk":11251,"225":11252,"/(":11253,"Ġ***":11254,",\\":11255,"080":11256,"fac":11257,"ddy":11258,"Ġ53":11259,"KO":11260,"kl":11261,"BIAS":11262,"ĠGTEST":11263,"ĠVariable":11264,"ĠArgument":11265,"ĠJNI":11266,"Ġresolution":11267,"Ġloading":11268,"tap":11269,"xbd":11270,"FRAG":11271,"Ġaccomp":11272,"Fee":11273,"unistd":11274,"Ġlists":11275,"ĠDec":11276,"ĠBi":11277,"Ġbn":11278,"ecovery":11279,"gree":11280,"Ġfopen":11281,"sence":11282,"sun":11283,"capability":11284,"ncrement":11285,"neigh":11286,"000001":11287,"mpool":11288,"ĠĠĠĊĠĠ":11289,"Ġhdmi":11290,"onal":11291,"Errors":11292,"Ġencode":11293,"113":11294,"xce":11295,"unix":11296,"jpeg":11297,"ĠSTDMETHODCALLTYPE":11298,"ĊĊĠĠĠĠĠĠĠĠĠĠĠĠĠĠĠĠĠĠĠĠĠĠĠĠ":11299,"ISE":11300,"Ġ*/;":11301,"Ġresp":11302,"esp":11303,"increment":11304,"eedback":11305,"ENG":11306,"esture":11307,"recovery":11308,"Ġkill":11309,"lists":11310,"black":11311,"unpack":11312,"uV":11313,"VL":11314,"INITIALIZ":11315,"Ġrep":11316,"Depen":11317,"Features":11318,"ĠNR":11319,"ĠLevel":11320,"alive":11321,"[_":11322,"BROWSER":11323,"ĠProperty":11324,"ATI":11325,"TERM":11326,"mlx":11327,"iated":11328,"ANDROID":11329,"ĠCODE":11330,"ĠParameters":11331,"Ġfoo":11332,"ĠOne":11333,"ensity":11334,"mbox":11335,"ĠĠĠĠĠĊ":11336,"MESH":11337,"shm":11338,"Ġwrapper":11339,"outer":11340,"Ġassignment":11341,"Ãħ":11342,"OPERATION":11343,"Commit":11344,"Ġlarger":11345,"ĠScal":11346,"Ã¶":11347,"Ġproperly":11348,"MY":11349,"TLV":11350,"ĠTag":11351,"QObject":11352,"Ã¨":11353,"Victim":11354,"sockopt":11355,"suffix":11356,"Ġ2001":11357,"regmap":11358,"selector":11359,"vx":11360,"margin":11361,"xac":11362,"Orientation":11363,"ĠKC":11364,"ĠNeither":11365,"lld":11366,"translate":11367,"ĠwxString":11368,"ĠChromium":11369,"Ġlocks":11370,"Ġcollection":11371,"trim":11372,"ĠDESC":11373,"REMOVE":11374,"Ġcrc":11375,"TOS":11376,"AILABLE":11377,"Ġ10000":11378,"Ġvarious":11379,"ĠPass":11380,"El":11381,"Timestamp":11382,"adap":11383,"ĠHZ":11384,"ACL":11385,"oggle":11386,"ĠSS":11387,"KILL":11388,"ĠAX":11389,"hidden":11390,"saddr":11391,"Ġlinux":11392,"Ġshutdown":11393,"POOL":11394,"mplemented":11395,"uintptr":11396,"constraint":11397,"Ġrdev":11398,"itches":11399,"Exists":11400,"ĊĠĠĠĠĠĠĊĠĠĠĠĠ":11401,"ĠAllow":11402,"Buff":11403,"psy":11404,"dissect":11405,"HIST":11406,"MII":11407,"ĠFN":11408,"ONCE":11409,"gmail":11410,"Ġ0644":11411,"TexCoord":11412,"56789":11413,"Ġcreating":11414,"ALIAS":11415,"Ġ********************************":11416,"Ġmtd":11417,"SIO":11418,"ĠPrivate":11419,"chroma":11420,"Ip":11421,"peek":11422,"Ġ75":11423,"Metrics":11424,"EK":11425,"Ġaffect":11426,"DIC":11427,"cocos":11428,"ĠSimple":11429,"ully":11430,"matches":11431,"Eff":11432,"DYNAMIC":11433,"uck":11434,"ĠSR":11435,"Ġisolate":11436,"Ġadding":11437,"----------------------------------------------------------------------":11438,"Ġ))":11439,"Ġpoly":11440,"Ġov":11441,"ĠĠĠĠĊĠ":11442,"Times":11443,"Ġpot":11444,"ĠTool":11445,"iguous":11446,"Ġstrdup":11447,"CAPS":11448,"ĠReference":11449,"Same":11450,"Join":11451,"ĠčĊĠĠĠ":11452,"////////////////////////////////////////////////////////////////////////////////":11453,"ĠCreat":11454,"live":11455,"mel":11456,"Ġapr":11457,"pag":11458,"ĠEigen":11459,"ilation":11460,"callbacks":11461,"ini":11462,"Ġslow":11463,"ĊĊĠĠĠĠĠĠĠĠĠĠĠĠĠĠĠĠĠĠĠĠĠĠĠĠĠ":11464,"paths":11465,"Ġhigher":11466,"musb":11467,"Ġha":11468,"ĠObj":11469,"recur":11470,"SUN":11471,"Lines":11472,"012":11473,"errun":11474,"icult":11475,"xxxx":11476,"POLICY":11477,"Ġperformance":11478,"ĠEXIT":11479,"AXIS":11480,"smd":11481,"ĊĉĠĠĠĠĠĠĠĠĠĠĠĠĠĠĠĠĠĠĠ":11482,"uni":11483,"xs":11484,"Ġupdates":11485,"Ġcg":11486,"Once":11487,"Ġcpus":11488,"Ġoperands":11489,"147":11490,"ĠGCC":11491,"Bucket":11492,"Ġmarker":11493,"apes":11494,"Ġ%[":11495,",_":11496,"folder":11497,"ĠNVIC":11498,"Ġconstraint":11499,"Ġsell":11500,"Ġconstants":11501,"åı":11502,"OPS":11503,"Percent":11504,"Ġquant":11505,"relative":11506,"irc":11507,"vport":11508,"ĠXFS":11509,"VK":11510,"ĠSCTP":11511,"HOR":11512,"ĠBNX":11513,"Ġpositive":11514,"operands":11515,"ainer":11516,"ETCH":11517,"Ġcsr":11518,"GRE":11519,"grammar":11520,"Ġpick":11521,"PIC":11522,"SMALL":11523,"ASYNC":11524,"Ġsysfs":11525,"Inputs":11526,"xbe":11527,"site":11528,"Ġwiphy":11529,"wdev":11530,"Ġ300":11531,"cls":11532,"Indices":11533,"blend":11534,"example":11535,"HOT":11536,"ĠMock":11537,"Environment":11538,"Ġdetection":11539,"combo":11540,"Ġvariant":11541,"Popup":11542,"tz":11543,"Ġnf":11544,"observer":11545,"ĠDP":11546,"ĠĠĠĉ":11547,"Ġissue":11548,"ifest":11549,"Fragment":11550,"ĠHCI":11551,")=":11552,"idden":11553,"Ġ67":11554,"Ġpreviously":11555,"allback":11556,"Ġdg":11557,"gdbarch":11558,"PREC":11559,"ĠPE":11560,"TILE":11561,"030":11562,"Ġaura":11563,"Ġsqrt":11564,"Ġrepresentation":11565,"ĠVI":11566,"refptr":11567,"FONT":11568,"arena":11569,"SKB":11570,"PRODUCT":11571,"xab":11572,"NumberOf":11573,"riteria":11574,"Ġprep":11575,"Ġinc":11576,"LIM":11577,"lates":11578,"ĠLANG":11579,"ĊĉĉĠĠĠĠĠĠĠĠĠĠ":11580,"ĠEnsure":11581,"PUSH":11582,"8960":11583,"ĠIPT":11584,"Ġsin":11585,"PLUS":11586,"ÃĤ":11587,"Ġcodes":11588,"Ġbf":11589,"ĠController":11590,"nemy":11591,"istribution":11592,"mtx":11593,"jected":11594,"ĠĠč":11595,"ĠRB":11596,"ĠCallback":11597,"hotplug":11598,"MATRIX":11599,"URATION":11600,"Ġincoming":11601,"Ġsnapshot":11602,"PROBE":11603,"ĠFD":11604,"vsync":11605,"Ġixgbe":11606,"ELEM":11607,"BOSE":11608,"Connected":11609,"Cpp":11610,"pch":11611,"Linear":11612,"PW":11613,"SEARCH":11614,"marks":11615,"117":11616,"tgt":11617,"blocking":11618,"GST":11619,"ĠEach":11620,"WIP":11621,"ProcAddress":11622,"egral":11623,"Ġalt":11624,"Ġouter":11625,"Ġblob":11626,"pj":11627,"ĠFLAG":11628,"OO":11629,"ĠQU":11630,"Ġsta":11631,"pree":11632,"Geo":11633,"80000":11634,"lide":11635,"scoped":11636,"ĠĊĠĠĠĠĠĠĠĠĠĠĠĠĠĠĠĠĠĠĠĠĠĠĠĠĠĠĠĠĠĠĠĠĠĠĠĠĠĠĠĠĠĠĠĠĠĠĠĠ":11637,"Throw":11638,"fps":11639,"Ġpermit":11640,"thresh":11641,"ĠRUN":11642,"Ġvertices":11643,"bk":11644,"Ãł":11645,"prox":11646,"getOperand":11647,"Ġexecuted":11648,"Analysis":11649,"ulint":11650,"nla":11651,"erk":11652,"2012":11653,"ĠAura":11654,"separ":11655,"blink":11656,"UNSIGNED":11657,"Effects":11658,"ROUT":11659,"BLA":11660,"audit":11661,"jack":11662,"ĊĊĠĠĠĠĠĠĠĠĠĠĠĠĠĠĠĠĠĠĠĠĠĠĠĠĠĠ":11663,"commands":11664,"midi":11665,"Ġsaf":11666,"LOCATION":11667,"clang":11668,"ĠTLS":11669,"Ġvectors":11670,"Ġfe":11671,"hwnd":11672,"ĠCLI":11673,"cinfo":11674,"Ġreturning":11675,"xEF":11676,"ĠEd":11677,"Ġedges":11678,";//":11679,"ubyte":11680,"ĠSl":11681,"CAR":11682,"mn":11683,"MCS":11684,"Ġfun":11685,"triggered":11686,"TRIES":11687,"310":11688,"TMP":11689,"Ġcent":11690,"FRONT":11691,"FIED":11692,"strip":11693,".*/":11694,"bv":11695,"Complex":11696,"ĠInstruction":11697,"Ġfloating":11698,"DIFF":11699,"sx":11700,"ĠSearch":11701,"Ã·":11702,"tests":11703,"kmem":11704,"destination":11705,"Ġfold":11706,"qh":11707,"Ġ\"+":11708,"}\\":11709,"ished":11710,"Ġnamed":11711,"Ġ72":11712,"BufferSize":11713,"sprite":11714,"constraints":11715,"IES":11716,"Ġfact":11717,"PROGRESS":11718,"bssid":11719,"GetUInt":11720,"Ġmodes":11721,"nowled":11722,"011":11723,"Ġpast":11724,"Sol":11725,"Ġreads":11726,"ĠShared":11727,"Ġmagic":11728,"Ġdelayed":11729,"Ġrp":11730,"700":11731,"nod":11732,"Ġask":11733,"napi":11734,"8064":11735,"Ġdebugging":11736,"Ġdictionary":11737,"__;":11738,"sections":11739,"232":11740,"Destination":11741,"Ġstub":11742,"cmnd":11743,"Brush":11744,"Ġmicro":11745,"DETECT":11746,"Ġmg":11747,"gcc":11748,"MSR":11749,"reachable":11750,"Ã¡":11751,"ested":11752,"IMPLEMENT":11753,"ĠMK":11754,"xbb":11755,"DIPSETTING":11756,"xcd":11757,"Glyph":11758,"Ġrole":11759,"Conn":11760,"qs":11761,"Ġioc":11762,"asurement":11763,"bam":11764,"egl":11765,"Columns":11766,"Â¨":11767,"PRESENT":11768,"Â¥":11769,"bum":11770,"mant":11771,"flip":11772,"Ġbusy":11773,"pst":11774,"lpVtbl":11775,"ĠFrom":11776,"ĠPin":11777,"deref":11778,"FLD":11779,"ĠParameter":11780,"Ġclone":11781,"ĊĊĠĠĠĠĠĠĠĠĠĠĠĠĠĠĠĠĠĠĠĠĠĠĠĠĠĠĠ":11782,"once":11783,"OVERRIDE":11784,"2013":11785,"Ãļ":11786,"Ġlcd":11787,"SHADER":11788,"urge":11789,"PANEL":11790,"Ġabsol":11791,"ĠVolume":11792,"dpd":11793,"ĠLIST":11794,"))->":11795,"percent":11796,"msd":11797,"ĊĠĊ":11798,"cgrp":11799,"ĠOperand":11800,"expect":11801,"Ġfilled":11802,"Ġcomparison":11803,"tasks":11804,"Ġhappens":11805,"subsc":11806,"Ġlittle":11807,"RULE":11808,"GOOD":11809,"counters":11810,"Ġ)(":11811,"GetData":11812,"Ġeval":11813,"ĠOrig":11814,"Compute":11815,"Shell":11816,"Ġ%.":11817,"ables":11818,"ĠTASK":11819,"discard":11820,"GetPosition":11821,"Ġmaybe":11822,"QWidget":11823,"ĠCD":11824,"===========================================================================":11825,"ĠSTRING":11826,"Ġuri":11827,"liver":11828,"Ġthough":11829,"ĠGoogle":11830,"Identity":11831,"Generate":11832,"flat":11833,"ĠĊĉĉĉ":11834,"ept":11835,"ĠAfter":11836,"tsp":11837,"barrier":11838,"ĠEP":11839,"Âª":11840,"ASCII":11841,"ANGE":11842,"VDD":11843,"UMENT":11844,"Sel":11845,"uport":11846,"RSA":11847,"LastError":11848,"Logical":11849,"Ġ2017":11850,"ĠMBEDTLS":11851,"ppc":11852,"Ġxt":11853,"ised":11854,"motion":11855,"lpfc":11856,"Ġspe":11857,"catch":11858,"Snapshot":11859,"xbc":11860,"ĠMDSS":11861,"erts":11862,"GLEW":11863,"Wrap":11864,"COMPONENT":11865,"ndent":11866,"Ġgpr":11867,"Ġfactory":11868,"ACTIV":11869,"Ġleaf":11870,"ĠSec":11871,"COLUM":11872,"REAS":11873,"Â°":11874,"Ġauthor":11875,"CHAIN":11876,"verti":11877,"Weak":11878,"ĠJson":11879,"macro":11880,"codes":11881,"Dirty":11882,"Ġuchar":11883,"cpi":11884,"Ġur":11885,"Ġwindows":11886,"sqrt":11887,"PX":11888,"xen":11889,"IWUSR":11890,"ĠDate":11891,"Ġnid":11892,"compression":11893,"Ġseparate":11894,"Palette":11895,"Chars":11896,"Ġsimply":11897,"Quant":11898,"109":11899,"apps":11900,"Ġlimitation":11901,"xFB":11902,"INCLUDED":11903,"Adv":11904,"NEG":11905,"ĠEOF":11906,"ntl":11907,"Ġ':":11908,"hda":11909,"ĠGR":11910,"Span":11911,"edges":11912,"MINOR":11913,"ViewController":11914,"ROUP":11915,"xdd":11916,"EOP":11917,"Resize":11918,"STY":11919,"Ġutf":11920,"ISH":11921,"ker":11922,"Ġdescriptors":11923,"archive":11924,"Ġion":11925,"ĠTEXT":11926,"when":11927,"pdf":11928,"Health":11929,"ris":11930,"aped":11931,"Accel":11932,"ealloc":11933,"eps":11934,"Visual":11935,"Adjust":11936,"pAdapter":11937,"UIKit":11938,"Stage":11939,"Ġnested":11940,"ĠStorage":11941,"ĠStack":11942,"ski":11943,"ĠEntry":11944,"SIZ":11945,"Ġreleased":11946,"Ġsmp":11947,"TRANSP":11948,"ĠAmazon":11949,"ĠBPF":11950,"Ġcairo":11951,"Encoder":11952,"ĠSPD":11953,"ij":11954,"vg":11955,"ĠEEPROM":11956,"Cy":11957,"HARD":11958,"Ġcred":11959,"ELL":11960,"Ġfuse":11961,"144":11962,"ĠTask":11963,"Ġbcm":11964,"Ġcover":11965,"mob":11966,"must":11967,"Ġmanagement":11968,"Ġportions":11969,"TEX":11970,"ĊĊĊĠĠĠĠĠĠ":11971,"Ġroom":11972,"Ġclang":11973,"ĠPut":11974,"Algorithm":11975,"IFS":11976,"NM":11977,"ĠĊĠĠĠĠĠĠĠĠĠĠĠĠĠĠĠĠĠĠĠĠĠĠĠĠĠĠĠĠĠĠĠĠĠĠĠĠĠĠĠĠĠĠĠĠĠĠĠĠĠ":11978,"ALEN":11979,"KB":11980,"================================================":11981,"Ġled":11982,"Hook":11983,"ĠREQUI":11984,"AGER":11985,"MISS":11986,"Ġmoved":11987,"Ġla":11988,"digest":11989,"CHANGED":11990,"Ġfg":11991,"itory":11992,"Ġ108":11993,"asoc":11994,"Ġld":11995,"Ġstrchr":11996,"mute":11997,"archy":11998,"//==============================================================================":11999,"scm":12000,"Ġevalu":12001,"ĠLast":12002,"erance":12003,"cccc":12004,"ositor":12005,"ividual":12006,"204":12007,"ĠInstance":12008,"ĠCOR":12009,"rum":12010,"ĠVID":12011,"ĠCORE":12012,"RUNNING":12013,"ula":12014,"UNC":12015,"variables":12016,"xad":12017,"ĠSYSC":12018,"Ġminor":12019,"Â¢":12020,"ĠMatch":12021,"Ġnto":12022,"ĠPixel":12023,"istributed":12024,"Ġspecifies":12025,"uge":12026,"Ġoutputs":12027,"npos":12028,"ming":12029,"Ġ58":12030,"PVR":12031,"protoc":12032,"ĠELF":12033,"=>":12034,"sung":12035,"Ġ());":12036,"PREF":12037,"Ġ<<=":12038,"initdata":12039,"ABI":12040,"modules":12041,"Ã¥":12042,"ĠHeader":12043,"illed":12044,"CONTIN":12045,"dimension":12046,"*)\"":12047,"TRL":12048,"notification":12049,"RAT":12050,"xcf":12051,"land":12052,"<<(":12053,"scaling":12054,"<_":12055,"RTL":12056,"ĠASM":12057,"Upper":12058,"packetLen":12059,"want":12060,"syntax":12061,"oob":12062,"DISK":12063,"Theme":12064,"tunnel":12065,"neon":12066,"ĠDHD":12067,"extended":12068,"Cpu":12069,"ERE":12070,"GameObject":12071,"EPERM":12072,"Lat":12073,"ĠJust":12074,"Ġopened":12075,"164":12076,"Ġ180":12077,"ĠEnum":12078,"ĠMSR":12079,"BOUND":12080,"bedded":12081,"isNull":12082,"Ġrecords":12083,"chant":12084,"lator":12085,"Viewport":12086,"nsec":12087,"Ġpic":12088,"304":12089,"ases":12090,"uel":12091,"Ġconstraints":12092,"2015":12093,"__))":12094,"HX":12095,"Package":12096,"Cloud":12097,"Ġpll":12098,"VLAN":12099,"Ġbh":12100,"stable":12101,"cannot":12102,"Ġlocale":12103,"DRAW":12104,"xee":12105,"2014":12106,"231":12107,"DESCRIPT":12108,"ĊĊĊĠĠĠĠĠĠĠ":12109,"mbed":12110,"aml":12111,"ĠĠĠĠĠĠĊ":12112,"ainder":12113,"Ġtags":12114,"ĠĠĠĠĠĠĠĊĠĠĠ":12115,"Ġaccum":12116,"ĠCLAIM":12117,"ĠApply":12118,"Freq":12119,"PING":12120,"ĠQModelIndex":12121,"copi":12122,"Ġdiscard":12123,"closure":12124,"Ġsignals":12125,"Ġtargets":12126,"Locked":12127,"mii":12128,"xyz":12129,"ĊĉĉĉĉĉĉĉĠĠĠ":12130,"ĠIE":12131,"indent":12132,"Ġeth":12133,"ĠNFS":12134,"(!(":12135,"halt":12136,"KHR":12137,"Ġtrying":12138,"ĠEmit":12139,"Ġcaster":12140,"EDED":12141,"thers":12142,"Fun":12143,"Finish":12144,"km":12145,"Ġ1999":12146,"325":12147,"LDO":12148,"Ġ74":12149,"ĠPRINT":12150,"Ġinstant":12151,"cairo":12152,"ifetime":12153,"ĠUp":12154,"ĠMIT":12155,"llx":12156,"xprt":12157,"Actions":12158,"ĠSer":12159,"SUME":12160,"icator":12161,"consumer":12162,"finalize":12163,"Ack":12164,"DUP":12165,"ĠCapture":12166,"Ã²":12167,"900":12168,"ĠSQLITE":12169,"DET":12170,"ĠHlo":12171,"realloc":12172,"ĠVar":12173,"router":12174,"Ġapplied":12175,"ĠNAND":12176,"hel":12177,"Ġ--------------------------------------------------------":12178,"ĠINPUT":12179,"Ġavctx":12180,"ĠDEAL":12181,"preempt":12182,"IMG":12183,")_":12184,"Ġones":12185,"CUSTOM":12186,"ĠOPTION":12187,"acked":12188,"121":12189,"dll":12190,"STAND":12191,"ife":12192,"ĠTRAN":12193,"Ġcoordinate":12194,"apr":12195,"Ġguest":12196,"Ġ114":12197,"čĊčĊĠĠĠĠĠĠĠĠĠĠĠ":12198,"BUILTIN":12199,"0101":12200,"Ġcla":12201,"Ġgp":12202,"ĠSmall":12203,"IRQn":12204,"TLE":12205,"ifr":12206,"ĠREAL":12207,"ĠATTRIB":12208,"ĊĉĠĠĠĠĠĠĠĠĠĠĠĠĠĠĠĠĠĠĠĠ":12209,"Strings":12210,"Mail":12211,"ĠGDK":12212,"mipi":12213,"Ġ111":12214,"ADAPTER":12215,"ĠBER":12216,"periment":12217,"/********************************************************************":12218,"blocksize":12219,"Disabled":12220,"Coeff":12221,"Ġcanvas":12222,"ĠNONINFRINGEMENT":12223,"mock":12224,"pmic":12225,"Ġseen":12226,"Ġregard":12227,"CHRO":12228,"ENR":12229,"configs":12230,"ĠNeed":12231,"ĠTT":12232,"00000100":12233,"Partition":12234,"Ġ())":12235,"ĠId":12236,"Calling":12237,"LR":12238,"todo":12239,"xture":12240,"Ġtd":12241,"xeb":12242,"WORLD":12243,"Ġvalidate":12244,"Ġå":12245,"čĊĉčĊ":12246,"Ġbelong":12247,"strncpy":12248,"ĠExtension":12249,"orph":12250,"stdint":12251,"Allocation":12252,"Ġdrv":12253,"Big":12254,"DIST":12255,"ĠHEAD":12256,"ffs":12257,"BOT":12258,"weapon":12259,"Ġrequirements":12260,"eeded":12261,"Void":12262,"snap":12263,"107":12264,"Ġrespect":12265,"VIS":12266,"ĠQPoint":12267,"getNum":12268,"ĠAcc":12269,"vin":12270,",\"%":12271,"ĊĉĉĠĠĠĠĠĠĠĠĠĠĠ":12272,"nto":12273,"Ġdidn":12274,"154":12275,"ism":12276,"gap":12277,"Ġic":12278,"sequent":12279,"Ġ(;;)":12280,"HRESULT":12281,"ĠFEATURE":12282,"package":12283,"silon":12284,"Ġstrong":12285,"scheduler":12286,"Ġratio":12287,"Slider":12288,"Ġthr":12289,"ĠExternal":12290,"OUS":12291,"NOTSUPP":12292,"rotate":12293,"POSIX":12294,"ssi":12295,"Ġhref":12296,"Ġrm":12297,"ĠMaximum":12298,"boundary":12299,"loading":12300,"duce":12301,"defs":12302,"376":12303,"cntl":12304,"adreno":12305,"Ġ95":12306,"Based":12307,"colors":12308,"STORAGE":12309,"IDs":12310,"AVAILABLE":12311,"nom":12312,"BINARY":12313,"Sheet":12314,"ĠĊĠĠĠĠĠĠĠĠĠĠĠĠĠĠĠĠĠĠĠĠĠĠĠĠĠĠĠĠĠĠĠĠĠĠĠĠĠĠĠĠĠĠĠĠĠĠĠĠĠĠ":12315,"_*":12316,"ĠCur":12317,"===//":12318,"Ġpaths":12319,"Ġlive":12320,"Transition":12321,"ĠSTART":12322,")(((":12323,"zd":12324,"OTHER":12325,"ILY":12326,"Ġ')":12327,"PHASE":12328,"Gain":12329,"xed":12330,"addWidget":12331,"Ġ116":12332,"atial":12333,"uter":12334,"Ġsubstant":12335,"CODING":12336,"Ġholds":12337,"0000007":12338,"ATTERN":12339,"Ġ62":12340,"ĠConfigure":12341,"/*****************************************************************************":12342,"5000":12343,"walletMain":12344,"DQ":12345,"Art":12346,"Ãĺ":12347,"needs":12348,"Ġ150":12349,"methods":12350,"BITMAP":12351,"WREG":12352,"Ġsever":12353,"DOUT":12354,"SHUT":12355,"Ġ<<<<<<<<<<":12356,"NOTE":12357,"usted":12358,"ĠSEEK":12359,"ĠOptions":12360,"8058":12361,"Ġmutable":12362,"library":12363,"Ġiteration":12364,"Ġomp":12365,"Ġobtaining":12366,"was":12367,"Ġie":12368,"Ġundefined":12369,"PLUGIN":12370,"Seconds":12371,"username":12372,"regex":12373,"PCIE":12374,"php":12375,"Ġocfs":12376,"zoom":12377,")>":12378,"Ġcontin":12379,"GetTypeId":12380,"ĠROM":12381,"physical":12382,"ĠSUP":12383,"Caster":12384,"Ġrules":12385,"ĠTech":12386,"ĠHigh":12387,"StdString":12388,"Ġconnections":12389,"PAC":12390,"kw":12391,"Ġsorted":12392,"Ġsense":12393,"ticks":12394,"ĠReport":12395,"0040":12396,"Printer":12397,"ĠTG":12398,"216":12399,"Ġvb":12400,"bitr":12401,"Ġsmaller":12402,"Two":12403,"Include":12404,"azy":12405,"ĠPROTO":12406,"ahead":12407,"segments":12408,"AREA":12409,"jmp":12410,"CWE":12411,"Ġsink":12412,"135":12413,"ĠCWallet":12414,"uma":12415,"ĠOMX":12416,"Ġ<<<<<<<<<<<<<<":12417,"ĠĠĠĠĉ":12418,"ranges":12419,"ĠDEALINGS":12420,"ĠGen":12421,"posed":12422,"devs":12423,"Ġseek":12424,"Summon":12425,"Ġ\"--":12426,"ĠPyErr":12427,"ĠGP":12428,"ĠShape":12429,"Pick":12430,"Ġbackend":12431,"ĠHAND":12432,"LESS":12433,"rotation":12434,"roam":12435,"visit":12436,"handled":12437,"Ð»":12438,"Ġlate":12439,"Gradient":12440,"Picture":12441,"ĠFalse":12442,"CHK":12443,"ĠvirDomain":12444,"ĠDWC":12445,"ievement":12446,"registry":12447,"FileInfo":12448,"Dimension":12449,"ntr":12450,"Ġbinder":12451,"Ġrw":12452,"optim":12453,"OPTIONS":12454,"ĠSEQ":12455,"aes":12456,"Ġ\"../../":12457,"Ġ{-":12458,"ComboBox":12459,"mdata":12460,"riggers":12461,"Ġcollect":12462,"collect":12463,"Ġliteral":12464,"Ġplug":12465,"Fix":12466,"Pixels":12467,"qc":12468,"PERIOD":12469,"ĠPrepare":12470,"Site":12471,"OPTIONAL":12472,"ĊĊĉĠĠĠĠĠ":12473,"Ġwhom":12474,"Ġworking":12475,"ĠKERN":12476,"Ġgenerator":12477,"ĠITEM":12478,"ropy":12479,"GY":12480,"DIAG":12481,"Ġexplicitly":12482,"xda":12483,"Tp":12484,"Groups":12485,"00001":12486,"ppos":12487,"qemu":12488,"here":12489,"ĠAMD":12490,"xba":12491,"ktop":12492,"Ġconverted":12493,"\")))":12494,"gint":12495,"ĠTYPEID":12496,"ĠMixer":12497,"iculty":12498,"msgs":12499,"COORD":12500,"uplex":12501,"Ġhandlers":12502,"Cookie":12503,"missing":12504,"ĠMPU":12505,"Zoom":12506,"_%":12507,"ĠSG":12508,"ami":12509,"routine":12510,"Ġstrict":12511,"DER":12512,"ĠLONG":12513,"raid":12514,"Ġcleared":12515,"pgd":12516,"Ġ\"<<":12517,"Ġrf":12518,"Ġrand":12519,"_));":12520,"ĠSIM":12521,"3000":12522,"ours":12523,"ĠRange":12524,"Ġ];":12525,"vch":12526,"Ġ<>":12527,"805":12528,"qi":12529,"ALC":12530,"eeper":12531,"Conversion":12532,"Ġcurve":12533,"ĠKER":12534,"Ġarrays":12535,"spd":12536,"ĠSync":12537,"Specific":12538,"Ġabsolute":12539,"ĠMon":12540,"Ġ(\"%":12541,"jom":12542,"hdd":12543,"Ġreached":12544,"Ġcpumask":12545,"utions":12546,"Ġ----------------":12547,"Ã»":12548,"Ġsdhci":12549,"Abort":12550,"Small":12551,"ALWAYS":12552,"star":12553,"SETTINGS":12554,"FAM":12555,"Pipeline":12556,"ĠPost":12557,"Ġthus":12558,"xdf":12559,"SOUND":12560,"Ġobserver":12561,"Devices":12562,"NER":12563,"ĠPIX":12564,"EXTRA":12565,"coef":12566,"ĠCreates":12567,"Ġactions":12568,"strto":12569,"Resources":12570,"mad":12571,"invalidate":12572,"Ġcapacity":12573,"brightness":12574,"GetCurrent":12575,"ĠAltern":12576,"303":12577,"Ġvfs":12578,"ibling":12579,"Install":12580,"HddCtx":12581,"ĠFunctions":12582,"Ġvf":12583,"401":12584,"422":12585,"Ġlex":12586,"bal":12587,"ung":12588,"Ġfour":12589,"atern":12590,"ĠDL":12591,"zen":12592,"dword":12593,"MenuItem":12594,"Ġanim":12595,"So":12596,"ingleton":12597,"runner":12598,"(\"<":12599,"SDIO":12600,"Ġmixer":12601,"Coords":12602,"herent":12603,"UNIF":12604,"abli":12605,"vq":12606,"Ġpdev":12607,"ĠSerial":12608,"ĠALI":12609,"ITLE":12610,"ĠAVERROR":12611,"RETRY":12612,"gover":12613,"...\\":12614,"MGMT":12615,"CONNECTED":12616,"sensitive":12617,"Ġjint":12618,"orth":12619,"sky":12620,"Try":12621,"Ġtt":12622,"classes":12623,"graphics":12624,"MSB":12625,"States":12626,"requested":12627,"197":12628,"mpp":12629,"rn":12630,"ĠGu":12631,"look":12632,"mime":12633,"Ġ(~":12634,"Ġsolution":12635,"Ticks":12636,"EOF":12637,"attack":12638,"tokens":12639,"Ġrefresh":12640,"Maximum":12641,"Ġplease":12642,"DOT":12643,"Ġoccurred":12644,"Ġdisconnect":12645,"revision":12646,"FICATION":12647,"Ġ112":12648,"SECOND":12649,"hwmod":12650,"Ġ\\\\":12651,"FileSystem":12652,"ascii":12653,"Refresh":12654,"Ġequivalent":12655,"multicast":12656,"ĠArgs":12657,"ushort":12658,"Testing":12659,"Margin":12660,"ĠĊĠĠĠĠĠĠĠĠĠĠĠĠĠĠĠĠĠĠĠĠĠĠĠĠĠĠĠĠĠĠĠĠĠĠĠĠĠĠĠĠĠĠĠĠĠĠĠĠĠĠĠ":12661,"ariance":12662,"136":12663,"ĠABS":12664,"thermal":12665,"NATIVE":12666,"possible":12667,"urnished":12668,"eclaim":12669,"ario":12670,"HEAP":12671,"ĠKERNEL":12672,"Ġsystems":12673,"Ġpname":12674,"Ġ1000000":12675,"transition":12676,"weights":12677,"CURSOR":12678,"Sup":12679,"Ġclick":12680,"ett":12681,"ĠLow":12682,"ĠĠĠĠĠĠĠĠĊĠĠĠ":12683,"MULT":12684,"REQUIRE":12685,"images":12686,"TB":12687,"Spe":12688,"Ġtimeval":12689,"Ġ192":12690,"xFA":12691,"ĠSign":12692,"ĠPos":12693,"xFFFE":12694,"decimal":12695,"ÃĬÃ½":12696,"panic":12697,"Ġperformed":12698,"hardware":12699,"Ġgsl":12700,"atterns":12701,"Ġdf":12702,"MOUSE":12703,"Ġ(!_":12704,"ĠWCD":12705,"ĠProtocol":12706,"erate":12707,"DRA":12708,"reclaim":12709,"VIRTUAL":12710,"docs":12711,"logging":12712,"Ġfew":12713,"Ġupon":12714,"Optional":12715,"Ġparticle":12716,"ĠInitial":12717,"MPU":12718,"xAA":12719,"supp":12720,"Ġadj":12721,"GetValue":12722,"PAIR":12723,"8001":12724,"Ġ61":12725,"Ġsubstantial":12726,"Physical":12727,"ĠReceive":12728,"ĠATTRIBUTE":12729,"1200":12730,"ĠSYSCTL":12731,"uffle":12732,"ĠRAM":12733,"Ġsysctl":12734,"Ġ110":12735,"Ġiv":12736,"EAGAIN":12737,"playback":12738,"modified":12739,"Ġduplicate":12740,"readonly":12741,"JPEG":12742,"foreach":12743,"Ġhaving":12744,"Ġinterfaces":12745,"itecture":12746,"ĠCSR":12747,"302":12748,"Â£Â¬":12749,"Ã®":12750,"Ġ400":12751,"uses":12752,"Ġbuflen":12753,"vlc":12754,"abuf":12755,"IDGE":12756,"xdc":12757,"ĠPB":12758,"Magick":12759,"Half":12760,"Inline":12761,"tfm":12762,"Ġ69":12763,"Ġpersons":12764,"ALE":12765,"WireFormat":12766,"Ġ125":12767,"565":12768,"phere":12769,"BACKEND":12770,"Ġfake":12771,"GetName":12772,"ĠCLASS":12773,"ĠScalar":12774,"Ġlost":12775,"ĊĉĠĠĠĠĠĠĠĠĠĠĠĠĠĠĠĠĠĠĠĠĠ":12776,"els":12777,"Ġcompression":12778,"Ġtrap":12779,"Ġeq":12780,"xdb":12781,"Ġdifference":12782,"//===":12783,"Ġctxt":12784,"MQ":12785,"ĠTrack":12786,"LANK":12787,"conversion":12788,"REFERENCE":12789,"Ġfclose":12790,"UNIX":12791,"Cond":12792,"Ġcompressed":12793,"IENT":12794,"Ġgpu":12795,"VISI":12796,"rules":12797,"nz":12798,"targets":12799,"Ġpet":12800,"Ġ('":12801,"EOPNOTSUPP":12802,"uzz":12803,"unordered":12804,"Ġsender":12805,")).":12806,"ĠQByteArray":12807,"Alias":12808,"ĠTy":12809,"outb":12810,"unicode":12811,"Public":12812,"abi":12813,"Ġiface":12814,"Ġsimilar":12815,"------------------------------------------------":12816,"iet":12817,"RESOL":12818,"gtest":12819,"ĠALC":12820,"SpellInfo":12821,"ĠGE":12822,">()":12823,"signals":12824,"eground":12825,"360":12826,"Collision":12827,"ĠLPC":12828,".;":12829,"CHR":12830,"ĠFix":12831,"MER":12832,"Ġgimple":12833,"Ġmux":12834,"fcp":12835,"Ġgeneration":12836,"čĊčĊĠĠ":12837,"curl":12838,"ĠHeap":12839,"SCTP":12840,"STRICT":12841,"cra":12842,"ĠSection":12843,"polation":12844,">\",":12845,"ĠBTRFS":12846,"ĠPtr":12847,"Ġfocus":12848,"Ġstri":12849,"Ġbc":12850,"Closure":12851,"erm":12852,"dence":12853,"DBus":12854,"secure":12855,"TIMING":12856,"Auras":12857,"Ġphi":12858,"Framebuffer":12859,"statements":12860,"desktop":12861,":\",":12862,"Messages":12863,"DIGIT":12864,"htable":12865,"Velocity":12866,"identity":12867,"exe":12868,"ety":12869,"fully":12870,"BN":12871,"170":12872,"Bank":12873,"scb":12874,"riev":12875,"mean":12876,"FLG":12877,"ĊĠĠĠĠĠĠĠĠĠĠĠĠĊĠĠĠĠĠĠĠĠĠĠĠ":12878,"PFC":12879,"WCD":12880,"Ġ76":12881,"PAUSE":12882,"CHUNK":12883,"fz":12884,"argest":12885,"domains":12886,"did":12887,"messages":12888,"Ġmag":12889,"ĠLoop":12890,"ĠEQU":12891,"146":12892,"Ġdescribed":12893,"Ġqt":12894,"Returns":12895,"Compiler":12896,"Ġinvoked":12897,"Acces":12898,"CANCE":12899,"ĠFUNC":12900,"Ġextr":12901,"ĠEngine":12902,"Tools":12903,"Ġri":12904,"ĠGets":12905,"Ġorg":12906,"STYLE":12907,"Ġimages":12908,"lw":12909,"Ġ(_(\"":12910,"Ġpull":12911,"requests":12912,"ĠRFC":12913,"Round":12914,"filer":12915,"=-=-=-=-":12916,"ĠWrit":12917,"UUID":12918,"ĠĠĠč":12919,"BLUE":12920,"Ġlogic":12921,"Est":12922,"Ġqueued":12923,"ARGUMENT":12924,"-+-+-+-+-+-+-+-+":12925,"Allocate":12926,"ĠCX":12927,"ubble":12928,"801":12929,"Ġresulting":12930,"WAY":12931,"ĠCODEC":12932,"ĠQAction":12933,"permission":12934,"PRIM":12935,"Ġinserted":12936,"ARC":12937,"libc":12938,"263":12939,"mdev":12940,"andidates":12941,"SIF":12942,"``":12943,"finite":12944,"uced":12945,"aus":12946,"Added":12947,"eload":12948,"regions":12949,"digits":12950,"eax":12951,"JNIEnv":12952,"how":12953,"epeat":12954,"()+":12955,"ĠPAL":12956,"USAGE":12957,"addrs":12958,"expires":12959,"obot":12960,"ĠTexture":12961,"330":12962,"Ms":12963,"kr":12964,"Ġday":12965,"qla":12966,"generator":12967,"ĠDetermine":12968,"Loading":12969,"Sleep":12970,"Converter":12971,"formats":12972,"CastSpell":12973,"gchar":12974,"ĠTi":12975,"resolution":12976,"added":12977,"ializes":12978,"Ġsur":12979,"Ġfifo":12980,"Ġsuffix":12981,"Ġmaint":12982,"utility":12983,"Ġrepresents":12984,"Nan":12985,"ynchronous":12986,"ĠBN":12987,"calloc":12988,"ĠTAG":12989,"GROUND":12990,"aio":12991,"DESCRIPTOR":12992,"ĠSEG":12993,"ĠSymbol":12994,"PRT":12995,"ĠAES":12996,"statistics":12997,"ĠWin":12998,"PNP":12999,"Ġdisp":13000,"GCC":13001,"|.":13002,"ĠSB":13003,"Ġmbed":13004,"pW":13005,"rpm":13006,"DNS":13007,"COS":13008,"Ġkobject":13009,"PET":13010,"HandleTypeDef":13011,"Ġrace":13012,"Ġ98":13013,"ĠPythonQt":13014,"Ġretrieve":13015,"169":13016,"mss":13017,"ĠNGX":13018,"RQ":13019,"slow":13020,"Rectangle":13021,"Ġcoefficient":13022,"PNG":13023,"imag":13024,"ĠHAS":13025,"GLint":13026,"Overlay":13027,"ĠVirtual":13028,"Org":13029,"icsk":13030,"Modified":13031,"ZZ":13032,">>>>":13033,"ĠStandard":13034,"dvb":13035,"188":13036,"Ġsect":13037,"reload":13038,"364":13039,"Ġpercent":13040,"ĠCBlockIndex":13041,"StringRef":13042,"Ġ78":13043,"206":13044,"subtree":13045,"PRIO":13046,"friend":13047,"ĠGLubyte":13048,"Scheme":13049,"CELL":13050,"SCHEME":13051,"Ġpx":13052,"Ġ79":13053,"Ġscaling":13054,"ĠMerge":13055,"Ġids":13056,"IMR":13057,"lvl":13058,"ĠWDI":13059,"zy":13060,"blocked":13061,"PMIC":13062,"utls":13063,"Ġcross":13064,"finished":13065,"Ġcategory":13066,"fuse":13067,"ĠĊĠĠĠĠĠĠĠĠĠĠĠĠĠĠĠĠĠĠĠĠĠĠĠĠĠĠĠĠĠĠĠĠĠĠĠĠĠĠĠĠĠĠĠĠĠĠĠĠĠĠĠĠ":13068,"material":13069,"Loaded":13070,"Ġanalysis":13071,"Ġrtc":13072,"Ġcrash":13073,"Ġsublic":13074,"BLEND":13075,"relation":13076,"Ġbuilt":13077,"izing":13078,"flt":13079,"ĠDes":13080,"ĠNormal":13081,"acct":13082,"crete":13083,"Ġchanging":13084,"Ġ84":13085,"(\"\");":13086,")*(":13087,"Ġendian":13088,"Ġ88":13089,"__));":13090,"rss":13091,"ĠFail":13092,"bine":13093,"WIDE":13094,"Ġsublicense":13095,"AUTHOR":13096,"planes":13097,"compile":13098,"ICR":13099,"ĠSys":13100,"TOO":13101,"ĠCache":13102,"Ġanyway":13103,"ĠĠĠĠĠĠĠĊ":13104,",*":13105,"Ġmmap":13106,"Ġreduce":13107,"Ġwho":13108,"ĠDEV":13109,"Ġtokens":13110,"Phy":13111,"paddr":13112,"mplements":13113,"ĠACK":13114,"buttons":13115,"GD":13116,"Controls":13117,"txn":13118,"Voice":13119,"Ġchars":13120,"LPC":13121,"Ġreserve":13122,"CRYPTO":13123,"typ":13124,"PDU":13125,"fra":13126,"percpu":13127,"Smart":13128,"Ġvertical":13129,"Joint":13130,"ĠStep":13131,"Ġsid":13132,"Ġunderlying":13133,"tools":13134,"ĠDecode":13135,"Ġ4096":13136,"Ġsynchron":13137,"ĠDECLARE":13138,"ners":13139,"ĠHttp":13140,"LU":13141,"126":13142,"prim":13143,"Ġcounters":13144,"sibling":13145,"Ġ103":13146,"Listen":13147,"truncate":13148,"AW":13149,"Clause":13150,"ADJ":13151,"/****************":13152,"Ġstopped":13153,"ĠGtkWidget":13154,"TAGE":13155,"governor":13156,"ĊĊĉĊ":13157,"sen":13158,"FILEN":13159,"ĊĉĉĠĠĠĠĠĠĠĠĠĠĠĠ":13160,"NFS":13161,"Ġprotect":13162,"REASON":13163,"Ġdivide":13164,"BATT":13165,"Ġlatency":13166,"SOLE":13167,"Scoped":13168,"Override":13169,"Ġdimensions":13170,"################################":13171,"Ġcycles":13172,"Ġtolua":13173,"take":13174,"VX":13175,"FALL":13176,"LVL":13177,"Ġcomputed":13178,"aternion":13179,"ĠBM":13180,"Ġoccurs":13181,"ĠVG":13182,"Ġreach":13183,"ĠFX":13184,"Ġcompatibility":13185,"xae":13186,"Initialized":13187,"repeat":13188,"ught":13189,"129":13190,"Vertices":13191,"Missing":13192,"unication":13193,"Movement":13194,"Ġsme":13195,"cloud":13196,"anchor":13197,"handlers":13198,"Quick":13199,"Atomic":13200,"CONDITION":13201,"msi":13202,"MONITOR":13203,"fffffff":13204,"DAMAGE":13205,"Ġsections":13206,"aco":13207,"Eval":13208,"lane":13209,"veloc":13210,"Ġexactly":13211,"omial":13212,"widgets":13213,"ĠAppend":13214,"scaled":13215,"quirk":13216,"ĠOBJ":13217,"ĠLook":13218,"lain":13219,"Ġsit":13220,"Ġgives":13221,"DG":13222,"Minimum":13223,"shost":13224,"tvbuff":13225,"ĠkInstruction":13226,"âĢ":13227,"Ġhtons":13228,"GOTO":13229,"itespace":13230,"WINDOWS":13231,"Ġ\"$":13232,"ĠPush":13233,"Ġaccompany":13234,"//**":13235,")<<":13236,"Ġ85":13237,"xea":13238,"dlg":13239,"ATTACH":13240,"SUMM":13241,"Ġsupplied":13242,"AU":13243,"pick":13244,"Ġ82":13245,"maxlen":13246,"filters":13247,"EEPROM":13248,"adb":13249,"ĠCHIP":13250,"Ġothers":13251,"ĠEM":13252,"maybe":13253,"430":13254,"ĠExpression":13255,"watchdog":13256,"Ġ105":13257,"Ġtiming":13258,"Ġce":13259,"aler":13260,"ĠIT":13261,"0080":13262,"ValueType":13263,"145":13264,"Ġspan":13265,"pressed":13266,"VERBOSE":13267,"Ġanimation":13268,"placement":13269,"ipa":13270,"ĠKVM":13271,"limin":13272,"HU":13273,"999":13274,"modem":13275,"memcg":13276,"CTS":13277,"metrics":13278,"resched":13279,"SHOT":13280,"Ġshouldn":13281,"Reduce":13282,"265":13283,"rinfo":13284,"Preview":13285,"ĠNC":13286,"strcat":13287,"pmem":13288,"sce":13289,"SPECI":13290,"xde":13291,"rng":13292,"geom":13293,"Ġlicensed":13294,"changes":13295,"Tags":13296,"ĠPID":13297,"imx":13298,"Ġrtw":13299,"created":13300,"INTEN":13301,"Assembler":13302,"Hi":13303,"ADATA":13304,"ĠLtd":13305,"wstring":13306,"Mo":13307,"SPA":13308,"vn":13309,"ipes":13310,"DIALOG":13311,"Ġng":13312,"ĠTIME":13313,"Ġranges":13314,"Ġrnd":13315,"QOS":13316,"Ġwlan":13317,"station":13318,"fake":13319,"Primary":13320,"ACY":13321,"Ġdrag":13322,"typeof":13323,"__(":13324,"Ġbattery":13325,"called":13326,"Archive":13327,"ĠATTR":13328,"cog":13329,"chrono":13330,"mbus":13331,"Flash":13332,"xor":13333,"quit":13334,"åĪ":13335,"Ġ83":13336,"ImGui":13337,"Ġtransf":13338,"Ġmajor":13339,"/*******************************************************************************":13340,"ĠConnect":13341,"Cycle":13342,"EDIT":13343,"Ġaccompanying":13344,"ĠCRE":13345,"XEXP":13346,"248":13347,"Ġ';":13348,"ĠUnicode":13349,"LIKE":13350,"qup":13351,"Ġinstances":13352,"Ã±":13353,"UTION":13354,"Ġ(),":13355,"pB":13356,"Ġ81":13357,"ĠPLAYER":13358,"ĠByt":13359,"OSC":13360,"iser":13361,"Ġrgb":13362,"anon":13363,"Ġfully":13364,"Radio":13365,"Runner":13366,"animation":13367,"ĠUnk":13368,"SEQUENCE":13369,"\\\"\\":13370,"Are":13371,"Ġscheduler":13372,"lined":13373,"Ġwc":13374,"Ġattemp":13375,"Dock":13376,"ĠNokia":13377,"ARK":13378,"ĠAddSC":13379,"ĠQueue":13380,"Syn":13381,"Ġencrypt":13382,"ĠCOLOR":13383,"COLUMN":13384,"ucontrol":13385,"defgroup":13386,"Ġei":13387,"LN":13388,"REPLY":13389,"tos":13390,"pdy":13391,"Ġ123":13392,"SpellScript":13393,"Outcome":13394,"Ġresize":13395,"00000040":13396,"Ġjobject":13397,"ĠIDS":13398,"ĠpItem":13399,"ĠScan":13400,"Ġbd":13401,"Ġwcd":13402,"boss":13403,"Lang":13404,"obs":13405,"FromString":13406,"GetProcAddress":13407,"Separator":13408,"ISD":13409,"ĠMLX":13410,"MBUS":13411,"ĊĉĠĠĠĠĠĠĠĠĠĠĠĠĠĠĠĠĠĠĠĠĠĠ":13412,"ĠEnter":13413,"2010":13414,"Ġhp":13415,"Car":13416,"Ġdsi":13417,"ĠConnection":13418,"MIB":13419,"CHARG":13420,"ĠThat":13421,"Example":13422,"Stencil":13423,"ĠLim":13424,"Ġpw":13425,"urer":13426,"beta":13427,"RECTION":13428,"Ġpress":13429,"ACCEPT":13430,"BasicBlock":13431,"ENGINE":13432,"Ġamdgpu":13433,"FAMILY":13434,"could":13435,"ĠĊĠĠĠĠĠĠĠĠĠĠĠĠĠĠĠĠĠĠĠĠĠĠĠĠĠĠĠĠĠĠĠĠĠĠĠĠĠĠĠĠĠĠĠĠĠĠĠĠĠĠĠĠĠ":13436,"atalog":13437,"ipient":13438,"ĊĉĉĉĉĉĉĉĉĠ":13439,"ĠLisp":13440,"globals":13441,"Ġthing":13442,"segs":13443,"ĠRequ":13444,"Ui":13445,"viewport":13446,"Constructor":13447,"constructor":13448,"olation":13449,"Ġdependenc":13450,"Namespace":13451,"Calc":13452,"jk":13453,"ĠConstructor":13454,"Ġmiddle":13455,"SIDE":13456,"Ġconv":13457,"wa":13458,"itable":13459,"ĠHDA":13460,"Ġhs":13461,"ĠRel":13462,"!!!!":13463,"wide":13464,"arily":13465,"POP":13466,"ĠSample":13467,"ARGE":13468,"Ġgrub":13469,"Ġdepending":13470,"ULK":13471,"ĠTree":13472,"white":13473,"Ġ\"__":13474,"207":13475,"Launch":13476,"Ġsegments":13477,"ĠSCB":13478,"loff":13479,"Ġ[&":13480,"TAP":13481,"XM":13482,"lambda":13483,"Under":13484,"ĠDISP":13485,"Layers":13486,"ĠNODE":13487,"ĠElf":13488,"ĠPurpose":13489,"ĠPCM":13490,"Ġnc":13491,"ĠBrowser":13492,"Ġgetting":13493,"Receiver":13494,"mfc":13495,"nav":13496,"abstract":13497,"Ġblue":13498,"ĠCTx":13499,"cmdline":13500,"205":13501,"minimum":13502,"ĠNF":13503,"GREEN":13504,"Ġarchive":13505,"ELF":13506,"ĠSession":13507,"009":13508,"ĠAbstract":13509,"Ring":13510,"208":13511,"Ġcome":13512,"ĉĉĉĠĠ":13513,"xDB":13514,"ĠWHERE":13515,"outError":13516,"clust":13517,"Ġ(++":13518,"Agg":13519,"ectories":13520,"Ġglad":13521,"Fake":13522,"ĠSuccess":13523,"Ġ-->":13524,"Ġpal":13525,"ĠGRPC":13526,"PMD":13527,"Ġlogging":13528,"ĠBITS":13529,"ISA":13530,"spawn":13531,"REGNUM":13532,"XC":13533,"joint":13534,"Ġreferenced":13535,"gets":13536,"eleton":13537,"Plug":13538,"Ġ{.":13539,"Corr":13540,"sampling":13541,"Ġplus":13542,"Ġtimespec":13543,"Ġpn":13544,"Ġwpa":13545,"vk":13546,"ĠMII":13547,"xfff":13548,"Ġmodules":13549,"WIFI":13550,"ference":13551,"ĠDAG":13552,"*>::":13553,"rssi":13554,"118":13555,"ALIGNED":13556,"Dispatcher":13557,"Ti":13558,"Ġquick":13559,"FORE":13560,"Ġxx":13561,"DLS":13562,"''":13563,"ĠISO":13564,"writes":13565,"pM":13566,"luetooth":13567,"Original":13568,"ByName":13569,"Ġcolors":13570,"MET":13571,"Beh":13572,"ĠSF":13573,"softc":13574,"Histogram":13575,"smart":13576,"Colors":13577,"Ġbeta":13578,"Ġlikely":13579,"2011":13580,"DIA":13581,"Ġtrunc":13582,"scanner":13583,"itness":13584,"SELF":13585,"Ġresolve":13586,"DAG":13587,"imap":13588,"BER":13589,"Ġdevelop":13590,"Ġchrome":13591,"Ġlistener":13592,"phdr":13593,"keyword":13594,"ĠPop":13595,"ĠTCG":13596,"Visit":13597,"ĠPD":13598,"Allowed":13599,"ORB":13600,"ĠTOK":13601,"atory":13602,"Ġ((!":13603,"Piece":13604,"ĠUSER":13605,"ĠDNS":13606,"Day":13607,"Ġschema":13608,"EXTER":13609,"Ġfurnished":13610,"Certificate":13611,"limited":13612,"ĠPWR":13613,"ĊĉĉĉĠĠĠĠĠĠĠ":13614,"xca":13615,"Ġsyntax":13616,"ĠBr":13617,"Expect":13618,"Ġvcpu":13619,"Encode":13620,"STK":13621,"MCU":13622,"Ġrepeat":13623,"Restore":13624,"ĠDirect":13625,"QUO":13626,"Ġeffects":13627,"Ġconsidered":13628,"čĊĠĠĠĠĠĠĠĠĠĠĠĠĠĠĠĠĠĠĠĠĠĠĠĠĠĠĠĠĠĠĠĠĠĠĠĠĠĠĠĠĠĠĠĠ":13629,"ECC":13630,"Ġabsl":13631,"230":13632,"\"].":13633,"Ġ250":13634,"nss":13635,"ĠTL":13636,"WU":13637,"ĠĠĠĠč":13638,"ĠpW":13639,"Ġpainter":13640,"ĠAut":13641,"ĠINTEGER":13642,"Ġchoose":13643,"MANAGER":13644,"nest":13645,"subtype":13646,"Ignore":13647,"Ġbat":13648,"SHUTDOWN":13649,"LLOC":13650,"8192":13651,"Ġsynaptics":13652,"Ġcontrols":13653,"ĠGOSSIP":13654,"SFR":13655,"Ġlang":13656,"filtered":13657,"ĠNotify":13658,"ublish":13659,"PLUG":13660,"Navigation":13661,"Ġtranslation":13662,"pectrum":13663,"Ġcipher":13664,"sse":13665,"Ġsources":13666,"Ġsimpl":13667,"ldo":13668,"Ġqueues":13669,"IFTYPE":13670,"iq":13671,"ĠTransfer":13672,"Ġpst":13673,"asio":13674,"ĠLGPL":13675,"Boundary":13676,"Equals":13677,"Ġplat":13678,"čĊĉĉĉĉĉĉ":13679,"upported":13680,"ĠDocument":13681,"blems":13682,"tran":13683,"burst":13684,"Scr":13685,"Ġyear":13686,"Ġgt":13687,"noise":13688,"Ġspr":13689,"Plus":13690,"pcap":13691,"Ġtf":13692,"xCC":13693,"////////////////////////////////////////////////":13694,"ĠRout":13695,"libpg":13696,"ĠSem":13697,"Dummy":13698,"Hardware":13699,"ĠES":13700,"TIMESTAMP":13701,"omp":13702,"480":13703,"Ġrecovery":13704,"Cmp":13705,"arbage":13706,"Tail":13707,"ioaddr":13708,"Misc":13709,"maximum":13710,"Ġmbedtls":13711,"loy":13712,"Ġpositions":13713,"Ġtl":13714,"THRO":13715,"137":13716,"iction":13717,"SKILL":13718,"mous":13719,"uniform":13720,"013":13721,"FIRM":13722,"ĠProfile":13723,"Ġpblock":13724,"adapt":13725,"SPK":13726,"REACHED":13727,"sTo":13728,"Ġconflict":13729,"Capacity":13730,"Ġ77":13731,"MMY":13732,"plain":13733,"Ġprotection":13734,"SPC":13735,"Ġradio":13736,"coords":13737,"Stamp":13738,"Chan":13739,"/>":13740,");}":13741,"osd":13742,"seecom":13743,"GLO":13744,"addAction":13745,"ĠUNU":13746,"Ġbackup":13747,"parsed":13748,"startup":13749,"HF":13750,"Ġscheme":13751,"WX":13752,"Ġws":13753,"PERIPH":13754,"Ãķ":13755,"Spacing":13756,"MED":13757,"aN":13758,"ĠGLEW":13759,"Mapper":13760,"ĠLINUX":13761,"ĠUNUSED":13762,"HANDLED":13763,"Ġ(--":13764,"bps":13765,"Ġclients":13766,"ĠRD":13767,"ĠPlayback":13768,"Ġdecimal":13769,"Ġ73":13770,"Statistics":13771,"pR":13772,"VOLTAGE":13773,"222":13774,"TOR":13775,"ĠQual":13776,"FACT":13777,"riction":13778,"Ġhighest":13779,"æķ":13780,"CONTROLL":13781,"Vars":13782,"Ġdecoding":13783,"aste":13784,"Scheduler":13785,"Ġgoes":13786,"ĠfileName":13787,"vect":13788,"Seek":13789,"Solver":13790,"Ġprog":13791,"ï¼Į":13792,"Ġapi":13793,"Ġlimits":13794,"ĠFO":13795,"WebContents":13796,"ĠExit":13797,"Serialize":13798,"ecause":13799,"ĠUnknown":13800,"++++++++++++++++":13801,"logic":13802,"215":13803,"Ġwide":13804,"Ġreadonly":13805,";\"":13806,"CQ":13807,"Ġsubsystem":13808,"cular":13809,"ĠInclude":13810,"large":13811,"ĠFast":13812,"ĠĠĠĠĠĠĠĠĊ":13813,"Ġ124":13814,"enario":13815,"capabilities":13816,"uling":13817,"Ġdie":13818,"Collect":13819,"Critical":13820,"ani":13821,"Execution":13822,"ĠMic":13823,"................":13824,"ĠBl":13825,"toInt":13826,"CONV":13827,"Ġ\"*":13828,"clause":13829,"ango":13830,"Ġdeclarations":13831,"Ġmu":13832,"Ġclause":13833,"GetType":13834,"Padding":13835,"orientation":13836,"agg":13837,"Ġstartup":13838,"acquire":13839,"ĠDM":13840,"started":13841,"AO":13842,"asd":13843,"LEAR":13844,"Â¯":13845,"Combat":13846,"IIR":13847,"negative":13848,"Ġstderr":13849,"Ġ117":13850,"ĠOC":13851,"FFECT":13852,"UMB":13853,"writeback":13854,"SetString":13855,"00000080":13856,"ĠĊĠĠĠĠĠĠĠĠĠĠĠĠĠĠĠĠĠĠĠĠĠĠĠĠĠĠĠĠĠĠĠĠĠĠĠĠĠĠĠĠĠĠĠĠĠĠĠĠĠĠĠĠĠĠ":13857,"SFER":13858,"avor":13859,"pipeline":13860,"tabs":13861,"erated":13862,"clineno":13863,"Ġbinding":13864,"Ġpmd":13865,"fold":13866,"receiver":13867,"Ġ144":13868,"RTS":13869,"Ġopaque":13870,"four":13871,">:":13872,"ĠDown":13873,"Ġum":13874,"ĠTV":13875,"([":13876,"Ġlooking":13877,"tracker":13878,"health":13879,"outputs":13880,"CSD":13881,"PATTERN":13882,"Checker":13883,"ĠVP":13884,"ĠPACKETVER":13885,"Sizes":13886,"ĠAnal":13887,"LITTLE":13888,"Ġstdout":13889,"AVA":13890,"((__":13891,"Needed":13892,"egister":13893,"ĠTop":13894,"Jump":13895,"Prep":13896,"les":13897,"Ġcurl":13898,"loss":13899,"algo":13900,"Logi":13901,"xAF":13902,"urple":13903,"closed":13904,"Prec":13905,"ĠRTL":13906,">)":13907,"ĉĠĠĠĠĠĠĠ":13908,"Ġdevm":13909,"prtd":13910,"seen":13911,"Geom":13912,"ĠTemplate":13913,"Ġfolder":13914,"otype":13915,"Ġcaps":13916,"ĊĉĉĠĠĠĠĠĠĠĠĠĠĠĠĠ":13917,"Ġcompatible":13918,"hig":13919,"umpt":13920,"affic":13921,"erenced":13922,"water":13923,"ĠADDR":13924,"rypted":13925,"TODO":13926,"VARIABLE":13927,"MIS":13928,"Gpu":13929,"Ġ0000":13930,"wave":13931,"IDI":13932,"0000001":13933,"versal":13934,"ĠVERIFY":13935,"steps":13936,"Commands":13937,"floor":13938,"Sat":13939,"eros":13940,"leader":13941,"Ġstreams":13942,"linger":13943,"CONTAINER":13944,"Ġ\"{":13945,"Ġforeach":13946,"]],":13947,"Ġcandidate":13948,"ĠKGSL":13949,"ĠPVR":13950,"pnt":13951,"JUMP":13952,"[*":13953,"Ġblocking":13954,"238":13955,"ificant":13956,"Ġcombin":13957,"ĠglGet":13958,"Ġdns":13959,"ĠDefi":13960,"matched":13961,"osen":13962,"ĠFixed":13963,"Alive":13964,"framebuffer":13965,"015":13966,"Ġudev":13967,"corr":13968,"ĠSPDX":13969,"GFX":13970,"rk":13971,"Capability":13972,"Que":13973,"ĠMIPS":13974,".\"));":13975,"Thr":13976,"oding":13977,"clusion":13978,"Updated":13979,"Ġinteg":13980,"131":13981,"Ġutil":13982,"ĠBAD":13983,"ĠIterator":13984,"Ġ160":13985,"214":13986,"Ġart":13987,"xAC":13988,"ĠPERF":13989,"Ġlevels":13990,"ĠWINAPI":13991,"Ant":13992,"Ġpalette":13993,"Login":13994,"Ġownership":13995,"zilla":13996,"SPECIAL":13997,"SUITE":13998,"Ġguard":13999,"waiting":14000,"OGLE":14001,"minus":14002,"AVE":14003,"ĠPY":14004,"ĠHelper":14005,"irit":14006,"ISC":14007,"Ġbook":14008,"Ġgui":14009,"GetItem":14010,"ĠValidate":14011,"Special":14012,"xEE":14013,"scheme":14014,"hlist":14015,"//*":14016,"014":14017,"Delet":14018,"inger":14019,"Ġdbg":14020,"echo":14021,"LINEAR":14022,"Ġserv":14023,"Ġviews":14024,"ĠVertex":14025,"Ġfname":14026,"Extent":14027,"Ġfollows":14028,"Visibility":14029,"Ġreload":14030,"Ġbss":14031,"ĠDF":14032,"counts":14033,"ĠIgnore":14034,"encoded":14035,"limiter":14036,"Ġstation":14037,"ĠQMessageBox":14038,"bnx":14039,"VG":14040,"DSS":14041,"defaults":14042,"Ġperm":14043,"âĶĢ":14044,"suite":14045,"SPIN":14046,"calls":14047,"NIL":14048,"Gl":14049,"ENTITY":14050,"ĠBind":14051,"calculate":14052,"Exc":14053,"HIT":14054,"Ġrte":14055,"Declaration":14056,"ĊĉĠĠĠĠĠĠĠĠĠĠĠĠĠĠĠĠĠĠĠĠĠĠĠ":14057,"Ġpins":14058,"Ġpitch":14059,"crop":14060,"ĠFIELD":14061,"Ġjava":14062,"Ġnand":14063,"EXTERNAL":14064,"Ġxen":14065,"Extensions":14066,"REMOTE":14067,"Relation":14068,"Ġnewly":14069,"STAGE":14070,"gether":14071,"ESC":14072,"regno":14073,"ĠSENSOR":14074,"ĠForce":14075,"General":14076,"META":14077,"Ground":14078,"==(":14079,"nity":14080,"riv":14081,"Ġlambda":14082,"Did":14083,"]];":14084,"extend":14085,"plica":14086,"Using":14087,"Ġfac":14088,"micro":14089,"Ġprocesses":14090,"Ġ%#":14091,"FORMATION":14092,"nally":14093,"Walk":14094,"SHADOW":14095,"FORWARD":14096,"Construct":14097,"BCM":14098,"Ġulong":14099,"strerror":14100,"dget":14101,"ReadWrite":14102,"20000000":14103,"angular":14104,"acm":14105,"iow":14106,"Ġwp":14107,"Ġpat":14108,"thumb":14109,"fcntl":14110,"SAS":14111,"ĠVLC":14112,"ĠDiag":14113,"Ġdigits":14114,"Ġfm":14115,"MouseEvent":14116,"views":14117,"ĠDetect":14118,"'d":14119,"lcdc":14120,"turn":14121,"Ġauthors":14122,"strl":14123,"BK":14124,"Ep":14125,"nos":14126,"ĠBCM":14127,"WAKEUP":14128,"secret":14129,"month":14130,"ĠSERIAL":14131,"alert":14132,"335":14133,"Ġcounts":14134,"SSP":14135,"ĠTeam":14136,"We":14137,"ithmetic":14138,"ĠSAY":14139,"ĠLe":14140,"Matcher":14141,"wall":14142,"Ġundo":14143,"Ġ{__":14144,"ĠHASH":14145,"\"};":14146,"Hw":14147,"JK":14148,"203":14149,"ĠHANDLE":14150,"Ġrecent":14151,"ĠGENER":14152,"RADIO":14153,"Ġhorizontal":14154,"hread":14155,"Ġdiagnostic":14156,"!\",":14157,"standing":14158,"aven":14159,"Ġframework":14160,"TITLE":14161,"tour":14162,"OVERFLOW":14163,"Ġpossibly":14164,"ĊĊĉĉĉĉĉ":14165,"critical":14166,"linked":14167,"choice":14168,"ĠSocket":14169,"BX":14170,"rts":14171,"ĠFRAME":14172,"880":14173,"Ġsteps":14174,"chanism":14175,"termios":14176,"Ġacross":14177,"volt":14178,"Ðº":14179,"ĠNative":14180,"rte":14181,"SCOPE":14182,"ym":14183,"ĠMOD":14184,"Should":14185,"restrict":14186,"185":14187,"vsi":14188,"SVG":14189,"ĠMAKE":14190,"verb":14191,"Cont":14192,"ĠTAB":14193,"frags":14194,"ana":14195,"Ġnear":14196,"dend":14197,"Ġdestroyed":14198,"ATEG":14199,"Pkt":14200,"Have":14201,"CHANNELS":14202,"epl":14203,"ĠUtil":14204,"022":14205,"Ġgreen":14206,"ĠREGISTER":14207,"ĠHTML":14208,"Ġub":14209,"eaded":14210,"WT":14211,"IsIn":14212,"FRE":14213,"WK":14214,"TRAP":14215,"PRECATED":14216,"ecover":14217,"ossip":14218,"cachep":14219,"Paths":14220,"completed":14221,"offsetof":14222,"Ġae":14223,"244":14224,"amaz":14225,"ĠMETH":14226,"Detect":14227,"charging":14228,"ategor":14229,"fan":14230,"Subsc":14231,"ĠRES":14232,"Po":14233,"buflen":14234,"SDC":14235,"Resolution":14236,"ĠĊĠĠĠĠĠĠĠĠĠĠĠĠĠĠĠĠĠĠĠĠĠĠĠĠĠĠĠĠĠĠĠĠĠĠĠĠĠĠĠĠĠĠĠĠĠĠĠĠĠĠĠĠĠĠĠ":14237,"herited":14238,"Ġstores":14239,"KEEP":14240,"ĊĠĠĠĊĠĠ":14241,"MainWindow":14242,"orn":14243,"thernet":14244,"SIST":14245,"ĊĉĉĊ":14246,"ĠSum":14247,"ĠRESET":14248,"WO":14249,"mtr":14250,"Board":14251,"ĠSZ":14252,"ĠAtt":14253,");//":14254,"Ġlocking":14255,"WaitFor":14256,"ffe":14257,"SArray":14258,"Ġaren":14259,"Ã¼":14260,"stopped":14261,"ĠISD":14262,"Gesture":14263,"ĠContact":14264,"pkg":14265,"pcb":14266,"Linux":14267,"yes":14268,"igure":14269,"ppp":14270,"NOW":14271,"ĉĉĠĠĠĠ":14272,"________________________________":14273,"shrink":14274,"PCR":14275,"atable":14276,"ĠCYTHON":14277,"Ġflat":14278,"Extract":14279,"BgL":14280,"gfc":14281,"ĠGPIOMUX":14282,"Ġfork":14283,"Bundle":14284,"655":14285,"Ã¦":14286,"lexer":14287,"IPv":14288,"ĠZero":14289,"vely":14290,"TICK":14291,"033":14292,"Define":14293,"SIR":14294,"ĠExample":14295,"()\");":14296,"VISION":14297,"ĠĠĠĠĠč":14298,"20000":14299,"ĠExtract":14300,"ĠBus":14301,"rity":14302,"ĠPH":14303,"Ġmotion":14304,"coherent":14305,"lst":14306,"LEG":14307,"clp":14308,"CHAT":14309,"Balance":14310,"Ġindirect":14311,"ĠFull":14312,"Ġseems":14313,"Ġexecutable":14314,"avio":14315,"328":14316,"RESUME":14317,"Clicked":14318,"through":14319,"âĸ":14320,"Horizontal":14321,"Ġnbytes":14322,"Ġhist":14323,"ializing":14324,"EQUALS":14325,"ĠSecond":14326,"Ġ86":14327,"MLX":14328,"MST":14329,"ĠREQUIRE":14330,"fwd":14331,"NOTICE":14332,"cells":14333,"never":14334,"InputStream":14335,"ĠOTG":14336,"mand":14337,"ĠHP":14338,"Ġscatter":14339,"Ñĥ":14340,"GENERAL":14341,"intra":14342,"119":14343,"Ġdestructor":14344,"MHZ":14345,"explicit":14346,"138":14347,"Ġadreno":14348,"ĠDRI":14349,"constants":14350,"(&_":14351,"ĠTEMP":14352,"ĠDynamic":14353,"ĠWNI":14354,"quality":14355,"152":14356,"ders":14357,"require":14358,"fib":14359,"Ġudp":14360,"355":14361,"veh":14362,"odb":14363,"ĠDestroy":14364,"ĠUL":14365,"Arc":14366,"Ġtyp":14367,"ĠUNI":14368,"via":14369,"Ġ------------------------":14370,"nprintf":14371,"Dbg":14372,"EXYNOS":14373,"Ġattrs":14374,"ufact":14375,"SLO":14376,"Ġvehicle":14377,"SCROLL":14378,"nHeight":14379,"ĠThen":14380,"ĠWhether":14381,"dequeue":14382,"Ġqual":14383,"DIFY":14384,"SOL":14385,"ENDPOINT":14386,"ĠQRect":14387,"Ġuserspace":14388,"Ġbroadcast":14389,"Until":14390,"Ġobs":14391,"Ġvelocity":14392,"00000200":14393,"Ġformats":14394,"Ġ130":14395,"_{":14396,"AFE":14397,"Ġchunks":14398,"Ġaggreg":14399,"quick":14400,"nump":14401,"hole":14402,"apon":14403,"Ġmob":14404,"environment":14405,"linesize":14406,"PDF":14407,"WorldPacket":14408,"2016":14409,"Ġhole":14410,"orr":14411,"particle":14412,"UserData":14413,"ĠUDP":14414,"ĠIPPROTO":14415,"xAB":14416,"RSSI":14417,"Ani":14418,"fsg":14419,"PEED":14420,"rices":14421,"Ġpres":14422,"lated":14423,"python":14424,"mojom":14425,"xED":14426,"Alt":14427,"BURST":14428,"amazon":14429,"MATH":14430,"Wave":14431,"STMT":14432,"ceeds":14433,"Bot":14434,"rcmf":14435,"...\");":14436,"Ġbridge":14437,"beat":14438,"xBD":14439,"ĠISP":14440,"Toggle":14441,"enus":14442,"stringstream":14443,"ĠGUID":14444,"sorted":14445,"visual":14446,"vga":14447,"abb":14448,"Coordinate":14449,"Unsigned":14450,"ĠGdk":14451,"cable":14452,"removed":14453,"writeb":14454,"clamp":14455,"RECOVER":14456,"Ġpan":14457,"xBC":14458,"Cleanup":14459,"onymous":14460,"ĠNM":14461,"Ãª":14462,"PROXY":14463,"Nav":14464,"ATTERY":14465,"UPD":14466,"Ġdvb":14467,"ERTS":14468,"pud":14469,"rtnl":14470,"Ġagreement":14471,"ithub":14472,"Csr":14473,"bitrate":14474,"PROTOBUF":14475,"Ġ136":14476,"Ġblocked":14477,"Ġreported":14478,"ĊĉĉĉĉĉĉĠĠĠĠĠĠ":14479,"ĠGLdouble":14480,"CENTER":14481,"ãĢ":14482,"Ġ129":14483,"pmc":14484,"symbols":14485,"recover":14486,"NIC":14487,"constexpr":14488,"Ġimportant":14489,"gsm":14490,"aber":14491,"argp":14492,"ddr":14493,"velocity":14494,"720":14495,"RTOS":14496,"Lex":14497,"UNET":14498,"Ġether":14499,"Ġconsist":14500,"Constants":14501,"resolved":14502,"frac":14503,"deprecated":14504,"ĠSYN":14505,"Ġorientation":14506,"ADMIN":14507,"putc":14508,"ĠEVP":14509,"Ġ****************":14510,"wk":14511,"Inner":14512,"ĠRuntime":14513,"Ġlayers":14514,"ĠCHAN":14515,"fffff":14516,"cst":14517,"243":14518,"GON":14519,"Ġ=================================================================":14520,"Ġagent":14521,"ĠSOL":14522,"Ġcrtc":14523,"ĠBUF":14524,"SELE":14525,"Vertical":14526,"Anchor":14527,"sdb":14528,")__":14529,"ĠDS":14530,"SECUR":14531,"Ġverbose":14532,"133":14533,"ĠCScript":14534,"Ġkeyboard":14535,"exynos":14536,"ĠStatic":14537,"]++;":14538,"rosoft":14539,"mrq":14540,"ĠInformation":14541,"aiko":14542,"Ġdelet":14543,"sgi":14544,"ĠWI":14545,"Callbacks":14546,"pclk":14547,"fsm":14548,"CONSOLE":14549,"Cli":14550,"gimple":14551,"sian":14552,"Ġra":14553,"ĠCOM":14554,"bmp":14555,"semble":14556,"SAY":14557,"Tests":14558,"sively":14559,"ĠQTest":14560,"Ġticks":14561,"Ġpcm":14562,"fabs":14563,"imed":14564,"ĠAUTHOR":14565,"LIKELY":14566,"Ġadc":14567,"ierarchy":14568,"ĠĠĠĠĠĠč":14569,"ĠSched":14570,"ringstream":14571,"nvert":14572,"Ġpacked":14573,"Ġtra":14574,"processing":14575,"Ġdefaults":14576,"Bridge":14577,"Ġpree":14578,"Implicit":14579,"=======":14580,"ĠHI":14581,"Ġever":14582,"Ġmaps":14583,"ĠTEG":14584,"(\":":14585,"ĠNv":14586,"Ġpnode":14587,"msdcc":14588,"printer":14589,"/***************************************************************************":14590,"Ġcertificate":14591,"Ġæ":14592,"agraph":14593,"grab":14594,"ĠFMC":14595,"ĠTransmit":14596,"RefPtr":14597,"uent":14598,"labels":14599,"ĠACT":14600,"Ġtrailing":14601,"reduce":14602,"ĠBegin":14603,"caller":14604,"Ġmismatch":14605,"RDY":14606,"Parts":14607,"Ġkeyword":14608,"ĠPeripheral":14609,"Ġfh":14610,"CError":14611,"Ġaverage":14612,"Caller":14613,"Ġvoice":14614,"BIO":14615,"SPM":14616,"pers":14617,"Ġvendor":14618,"SAMPL":14619,"Ġ01":14620,"THREADS":14621,"ĠNEW":14622,"Services":14623,"Ro":14624,"Ġram":14625,"LAND":14626,"165":14627,"Ġ``":14628,"ĠDescriptor":14629,"Frequency":14630,"017":14631,"Wrapped":14632,"VARIANT":14633,"ĠMesh":14634,"DONT":14635,"symtab":14636,"195":14637,"Ġbecome":14638,"HINT":14639,"theta":14640,"Ġlogger":14641,"Ca":14642,"IQ":14643,"strong":14644,"ĠOperation":14645,"BRIDGE":14646,"Music":14647,"ĠTEGRA":14648,"Ġbal":14649,"Ġleading":14650,"Ġoverlay":14651,"217":14652,"Spawn":14653,"INTF":14654,"terminal":14655,"ĠOb":14656,"ĠSeg":14657,"ĠINP":14658,"ĠMagick":14659,"GING":14660,"advance":14661,"RefCount":14662,"fft":14663,"duplic":14664,"ĠAI":14665,"raise":14666,"Invoke":14667,";;":14668,"Ġrelocation":14669,"Isolate":14670,"REGULATOR":14671,"UNICODE":14672,"Ġblack":14673,"IMETHOD":14674,"235":14675,"Ġcpp":14676,"Ġtemperature":14677,"Ġ!_":14678,"cycles":14679,"ĠSDValue":14680,"226":14681,"accum":14682,"Ġaudit":14683,"popup":14684,"SECURITY":14685,"ĠCOMMAND":14686,"Guard":14687,"Ġprovider":14688,"ĠPlatform":14689,"mtime":14690,"Edges":14691,"sscanf":14692,"Created":14693,"Associ":14694,"oise":14695,"ĠTab":14696,"ĠqDebug":14697,"THD":14698,"IDS":14699,"frontend":14700,"nsity":14701,"allenge":14702,"Ã§":14703,"ĠĊĠĠĠĠĠĠĠĠĠĠĠĠĠĠĠĠĠĠĠĠĠĠĠĠĠĠĠĠĠĠĠĠĠĠĠĠĠĠĠĠĠĠĠĠĠĠĠĠĠĠĠĠĠĠĠĠ":14704,"Â¦":14705,"Ġcoord":14706,"2009":14707,"gx":14708,"syms":14709,"deleted":14710,"enqueue":14711,"čĊĠĠĠĠĠĠĠĠĠĠĠĠĠĠĠĠĠĠĠĠĠĠĠĠĠĠĠĠĠĠĠĠĠĠĠĠĠĠĠĠĠĠĠĠĠ":14712,"Ġshell":14713,"pmlme":14714,"159":14715,"Undo":14716,"mcs":14717,"Hy":14718,"ains":14719,"INCLUDE":14720,"Ġnonatomic":14721,"ĠMIC":14722,"slim":14723,"UK":14724,"CYCLE":14725,"Ġni":14726,"elect":14727,"supports":14728,"8888":14729,"SIMPLE":14730,"2017":14731,"SIMD":14732,"ĠPa":14733,"PINMUX":14734,"GetInt":14735,")>>":14736,"Drv":14737,"Home":14738,"~~~~~~~~~~~~~~~~":14739,"Ġmic":14740,"Ġunable":14741,"XL":14742,"ĠMVT":14743,"Ġpropag":14744,"fire":14745,"018":14746,"Super":14747,"Pic":14748,"Ġ*));":14749,"MSI":14750,"252":14751,"FRM":14752,"sur":14753,"TPC":14754,"issue":14755,"Quality":14756,"Ġlabels":14757,"aic":14758,"Ġincorrect":14759,"HEAL":14760,"Ġbroken":14761,"XI":14762,"Ġfollowed":14763,"White":14764,"Mul":14765,"Ġ'\\\\":14766,"----------------------------------------":14767,"fbi":14768,"Ġhb":14769,"Ġwants":14770,"Ġ132":14771,"keyboard":14772,"Ġrectangle":14773,"Il":14774,"ĠPOLL":14775,"ĊĉĉĠĠĠĠĠĠĠĠĠĠĠĠĠĠ":14776,"cifs":14777,"ĠGraphics":14778,"colour":14779,"affs":14780,"Way":14781,"RDONLY":14782,"ĠTurn":14783,"148":14784,"Ġdropped":14785,"ĠĠĠĠĠĠĠč":14786,"THR":14787,"QR":14788,"Ġbeacon":14789,"ĠINCLU":14790,"157":14791,"CBC":14792,"ĠSettings":14793,"abcdef":14794,"DEATH":14795,"Ġarbitr":14796,"ĠNull":14797,"bounce":14798,"Ġ89":14799,"CONTINUE":14800,"backlight":14801,"Loot":14802,"Tok":14803,"sci":14804,"feat":14805,"dof":14806,"rval":14807,"6666":14808,"ATEGORY":14809,"even":14810,"Compile":14811,"ĠTechno":14812,"ĠAttribute":14813,"ĠĊĊ":14814,"ĠXt":14815,"ĠAdv":14816,"APIC":14817,"iator":14818,"VGA":14819,"Ġpicture":14820,"preview":14821,"ĠTP":14822,"Resolver":14823,"ĠSOAP":14824,"40000000":14825,"ITERAL":14826,"HOME":14827,"tabla":14828,"Ġcompletely":14829,
[...]
